的 203870958
, 196601991
。 177660658
了 48554327
我 48228622
在 44725587
是 40158494
你 38252565
和 29018577
、 24207460
? 23858526
他 21647116
我们 17449737
“ 17176565
有 15753740
” 14360176
对 13730373
不 12597317
中 12483137
一个 11960733
也 11669483
就 11477425
都 11067424
人 10971772
- 10549035
: 10536557
这 10498816
上 10348264
她 10065730
与 9891682
会 9845056
说 9764967
他们 9312479
为 8696156
将 8533333
到 8263536
) 7878371
( 7854683
! 7808423
要 7404408
可以 7395477
吗 7380893
很 6930720
但 6843133
好 6565966
被 6396796
没有 6358478
来 6323589
中国 6284095
把 6141842
去 6067025
年 6013621
而 5917262
并 5875216
什么 5838884
让 5776690
能 5729372
还 5603845
从 5367291
知道 5347384
这个 5328672
研究 5195628
它 5173588
给 5140146
等 5109656
如果 4944520
着 4909315
想 4881785
那 4879086
时 4840467
自己 4818523
问题 4780208
; 4750613
月 4741643
做 4731653
个 4533266
进行 4456961
$TERM 4431681
公司 4430816
后 4344164
地 4320739
或 4166577
以 4112947
可能 4101703
吧 4050071
多 4042199
里 4020901
及 4009650
这些 3985619
已经 3961699
下 3959311
工作 3939703
不是 3920222
更 3856579
现在 3811776
就是 3805379
新 3797762
美国 3766782
用 3746601
日 3670077
得 3623956
需要 3510681
因为 3429759
发展 3400895
大 3369597
过 3325508
其 3290152
但是 3289095
该 3218374
所 3119677
于 3100429
你们 3073358
可 3068138
... 3054461
这样 3047732
通过 3002189
方法 2937143
》 2895309
《 2877069
一些 2875839
时间 2868479
一种 2807179
国家 2804486
最 2789177
又 2767513
系统 2755625
影响 2727259
· 2718306
分析 2695021
认为 2680560
向 2676761
技术 2655323
开始 2631933
— 2628413
时候 2581187
呢 2576762
使用 2534771
表示 2528307
当 2516590
们 2513119
不会 2455538
不能 2447441
没 2443482
提供 2432404
大@@ 2398292
啊 2388074
1 2385926
看 2384085
性 2376539
经济 2331926
以及 2292267
所有 2274711
一 2269632
前 2255657
重要 2222926
这种 2215636
告诉 2207108
已 2187452
有限公司 2181112
您 2179491
事 2177454
使 2170339
像 2166615
出 2163265
市场 2154678
设计 2146705
3 2144715
再 2140899
. 2116702
发现 2102351
企业 2101754
点 2089088
2 2087126
应该 2070717
成为 2068321
所以 2061257
比 2045730
其他 2042859
一@@ 2039117
由 2038128
跟 2036152
世界 2035091
孩子 2023441
还是 2012172
应用 1989123
希望 1985683
主要 1985577
喜欢 1984005
情况 1979313
这是 1968669
生活 1967538
内 1961529
这里 1935092
发生 1921575
必须 1911650
不@@ 1880848
店 1878779
只是 1878522
小@@ 1878465
不同 1877631
还有 1867721
非常 1866408
作为 1854376
走 1853989
怎么 1845631
小 1840462
者 1835660
服务 1819367
高 1800900
政府 1789071
产品 1761830
看到 1760174
那么 1740399
很多 1723959
一起 1717904
请 1714132
一样 1706058
觉得 1700969
家 1696599
国际 1688706
包括 1681759
5 1676481
法 1667613
那个 1654924
然后 1650204
4 1647402
一直 1646584
地方 1646532
同时 1642220
目前 1640561
方面 1630282
关系 1629819
10 1626027
任何 1621914
数据 1616725
东西 1614238
才 1612181
先生 1610989
信息 1593727
人们 1588542
只 1581494
对于 1574698
那些 1571125
要求 1568661
安全 1564063
为了 1557267
中心 1555491
正在 1545035
而且 1542221
社会 1529669
中@@ 1529158
为什么 1525718
组织 1525332
方式 1515846
管理 1512064
却 1511308
区 1504866
选择 1503808
谁 1501124
过程 1490269
计划 1488730
活动 1481923
称 1481193
出现 1473221
得到 1462025
或者 1458437
具有 1449619
实现 1449458
子 1444364
能够 1437136
不要 1431886
结果 1430771
这么 1429934
带 1420037
如何 1417483
不过 1415790
一定 1415530
它们 1406588
起来 1402831
控制 1402350
两个 1401160
6 1387215
提出 1384835
今天 1375021
听 1373785
吃 1369500
朋友 1369434
之 1366042
汽车 1358070
地区 1339704
作用 1338397
其中 1336457
水 1334198
关于 1324346
许多 1322979
一次 1321616
因此 1304068
事情 1302357
日本 1300104
存在 1291092
项目 1287196
路 1286510
爱 1283477
化 1281784
城市 1281505
之后 1275695
能力 1270124
型 1266440
处理 1261847
最后 1260720
之间 1251796
有关 1248464
则 1242514
一下 1241847
由于 1240729
式 1237888
村 1235435
教育 1234841
车 1233011
合作 1230102
结构 1229120
报道 1228561
真的 1225549
的话 1224406
钱 1222031
7 1216978
记者 1215537
找 1212972
投资 1212391
帮助 1209938
根据 1207307
只有 1194677
三@@ 1193428
… 1193254
决定 1193023
成 1190237
8 1187573
号 1185791
本 1181945
叫 1177067
/ 1172190
治疗 1172005
相关 1169998
学生 1166650
支持 1163717
文化 1162723
环境 1157113
部分 1156914
新@@ 1156617
金@@ 1153092
高@@ 1152090
提高 1151747
找到 1151621
之前 1151077
出来 1150147
多@@ 1149983
死 1142950
获得 1136944
显示 1129099
继续 1126632
利用 1123834
生产 1122523
无@@ 1121369
过去 1118946
了解 1112687
采用 1105652
准备 1102667
站 1101147
建立 1100538
原因 1096284
达 1093797
是否 1093240
据 1090021
目标 1086664
目的 1084244
至 1080040
天@@ 1075485
介绍 1070399
用户 1063393
增加 1059951
银行 1057484
天 1055968
机 1054077
来说 1053575
道 1047255
起 1044716
学校 1043467
9 1036798
岁 1034275
网络 1033646
及其 1033234
基于 1030153
全球 1026614
一点 1026452
特别 1026162
名 1025597
别 1013748
正 1012966
大学 1012632
一切 1011137
北京 1011136
水@@ 1010668
并且 1010216
调查 1009269
接受 1007434
太 1006393
市 1002807
比较 1002762
未来 1001793
甚至 1001166
相信 998744
大家 998402
建设 992204
设备 989958
我会 988944
产生 988908
住 986209
报告 981900
也许 981589
20 981059
我要 980831
人员 980382
较 980108
行 977741
行为 973198
机构 969007
城 967429
快 966585
曾 966241
头 965752
保护 965629
今年 963039
想要 961536
线 959714
委员会 957567
解决 956411
模型 954874
学习 953242
人@@ 951989
感觉 949049
完全 947531
打 945814
虽然 944261
增长 944188
哦 940858
有@@ 940135
上@@ 938986
完成 937051
山 935662
12 933336
无法 932389
本文 932121
英国 929053
之@@ 927766
最大 927322
马@@ 927231
理论 923156
当然 923103
进入 923097
县 920630
成功 919160
政策 918925
之一 918278
来自 914501
基础 913578
改变 907600
每个 906923
行业 901021
买 896287
长 895472
问 894749
离开 891022
如 890490
海@@ 890423
领域 888072
有人 886427
变化 884521
总统 882882
约 877695
元 877154
我国 876952
价格 876493
$NUMBER 874361
健康 873044
一位 871825
手机 867662
带来 864858
有些 864406
直接 863205
拥有 862231
帮 861178
应 860723
功能 860626
参加 858980
会议 855400
内容 853898
小时 852218
条件 851160
花 847349
器 845918
历史 845860
拿 845770
那里 844652
非 843242
西@@ 838271
因 837849
有效 834519
确定 833060
量 832806
机会 831361
门 830180
间 828263
最好 825172
标准 825153
运动 824137
11 821899
地@@ 821751
类 821376
这一 820602
开发 814749
看看 813538
造成 812467
每 811115
导致 810570
另 808089
传统 807320
价值 803463
德 802134
达到 800007
手 799602
阿@@ 799498
下@@ 799292
建议 799264
探讨 792984
超过 791742
考虑 791390
真 790769
学 790747
空间 790709
形成 790506
医院 789742
拉@@ 789383
整个 788138
开 787853
努力 785084
模式 784180
网 783014
专业 782005
妈妈 781880
心 781221
此 778183
写 777864
力 774188
第 771233
自 770797
见 770208
用于 768255
集团 766336
电话 766065
不想 765832
工程 765071
度 762503
部 757170
自@@ 755524
医生 755319
政治 755107
光 754665
国 754616
材料 751104
老@@ 751055
王@@ 749970
随着 748703
科技 747963
代表 746256
两@@ 745343
试验 744985
表现 744349
行动 743119
不断 742755
因素 741960
美@@ 741741
仍 739011
外 736261
受到 735289
规定 734682
消息 734011
30 733264
面 731888
实验 731243
长@@ 730098
率 729429
上海 729005
计算 728647
如此 726187
超市 724024
文件 723535
我@@ 722334
保持 721697
人类 720691
业务 719906
斯 719865
资源 719654
各种 719628
分 719363
开@@ 717773
然而 716577
部门 715522
真正 715105
S@@ 713822
感到 713309
水平 712989
平台 711147
性能 710888
处 710061
生 709841
比赛 709207
白@@ 707958
四@@ 704627
二@@ 704502
效果 704276
讨论 703723
关注 703695
可@@ 702661
事件 702576
东@@ 702238
质量 701207
当时 700837
注意 698502
一名 698284
a 697679
认识 697612
一天 696904
严重 695894
法律 690851
回来 690821
几个 689907
张@@ 689689
美 689453
安@@ 687719
美元 686425
最近 685137
简单 684781
图 684334
容易 683154
万@@ 682673
销售 680396
南@@ 680122
T@@ 680002
进 679172
值 678441
个人 678325
持续 677545
总是 677409
拉 677161
那样 675153
基本 674677
肯定 673722
电影 673042
意义 671377
德@@ 671259
细胞 670319
双@@ 669128
体 668511
华@@ 668004
加@@ 667483
发@@ 667452
家庭 667281
媒体 667208
心@@ 667127
多少 667104
尽管 666371
作 666368
患者 665824
红@@ 665094
李@@ 663988
人民 663980
谢谢 663191
区域 662018
需求 661718
更加 661037
结束 660733
低 660366
卡@@ 659062
减少 657865
指出 657630
制度 657472
女人 657263
明显 654600
检测 654212
进一步 654130
金 653114
特 652337
无 651618
一家 650523
队 650210
全@@ 649365
场 649353
同 649130
任务 648122
对@@ 648047
父亲 647611
干 647178
以来 646062
分@@ 645324
通常 644297
测试 643519
受 643288
利 642309
国内 640925
均 638642
一般 636026
反应 635282
范围 634412
只要 634253
别人 633240
最终 632363
特@@ 631243
各 631196
游戏 631153
酒店 630881
期 630441
程序 629372
措施 629101
去年 629095
内@@ 627299
欧洲 627250
风险 626448
担心 624726
五@@ 624656
以前 624622
镇 624331
执行 623036
除了 620186
压力 619608
C@@ 619581
卡 617846
可是 617813
书 617657
大量 616583
方案 616354
俄罗斯 616334
15 616196
源 616032
全国 615272
这@@ 614760
外@@ 613868
文@@ 613729
先 613498
改革 613013
才能 612782
品牌 612774
香港 612417
正@@ 610948
这次 610376
同样 609116
斯@@ 608742
花@@ 607704
P@@ 607155
气 607079
口 604603
罗@@ 604583
期间 604481
这儿 603300
时代 602344
举行 601930
实施 601239
克 601213
杀 600689
检查 599327
明白 599184
创新 599170
客户 599170
米 599161
组 599118
位 598873
几乎 596833
发布 595671
生命 595596
黄@@ 595082
保证 594719
以上 593155
B@@ 591812
不仅 589306
话 588448
D@@ 587931
加强 587671
其实 587446
H@@ 586523
物 586393
哪 586348
老 585422
州 585036
参与 584698
网站 584588
当地 583061
管 582868
出@@ 582861
M@@ 581681
例 581419
另外 581098
越来越 581062
状态 580962
打@@ 580804
交易 580163
至少 580149
发 579926
利@@ 578794
证明 578654
稳定 575337
针对 575135
儿子 574733
男人 574425
台 574172
以为 573762
同@@ 573589
国@@ 573446
名字 572483
R@@ 572224
热 572080
条 572056
局 571490
热@@ 570549
林 568724
似乎 568064
速度 567357
种 566230
强 566139
病 565061
表明 564283
专家 563210
么 562860
语言 561851
些 560548
即 560491
仍然 559367
首先 559331
某 559322
经过 558052
战略 557464
愿意 556486
穿 556226
故事 556123
资金 554588
那@@ 553614
联系 553424
台湾 551975
动物 551863
片 551707
引起 551651
L@@ 551357
每天 551112
A 551020
前@@ 550016
一项 549544
程度 549219
互联网 547783
次 547773
板 547222
以后 547088
有点 546846
解释 545537
新闻 544451
观察 544317
便 544225
一年 543066
制造 542904
精神 542762
本@@ 542522
变得 542099
旅游 541763
位置 541359
单@@ 541310
马 540085
印度 539812
第一 539669
艺术 539237
占 538974
下来 538275
协议 538229
经常 536240
三个 535814
成@@ 535363
跑 534920
特征 534450
光@@ 534327
经 533870
意思 533730
家@@ 533472
2@@ 533440
层 533343
剂 533232
综合 532817
音乐 532722
产业 531882
唯一 531557
百@@ 531322
体系 531225
身体 531026
经验 530837
回 530425
评价 530164
河 529602
自由 529365
级 528542
基金 528351
更好 528151
理解 528041
工业 527937
韩国 526915
英语 526873
飞机 526731
特性 526596
尔 526083
万 525630
F@@ 525029
取得 524309
信 523790
不错 523530
资料 522638
掉 522495
过来 522367
办法 522356
巴@@ 522196
出去 521858
永远 521630
儿童 520678
数 519923
且 519597
重@@ 519403
特点 519328
石@@ 519292
表达 518842
共同 518830
科学 518565
流 518373
业 518139
方向 518093
算法 517968
死亡 517624
机制 517054
看起来 516750
形式 516394
三 516343
表 516170
世纪 515340
降低 514549
未 514209
力量 514146
不到 512925
按 512894
现场 512500
照片 512143
听到 512073
是因为 511619
老师 511197
说明 510703
真是 510461
看见 510187
N@@ 509905
此外 509154
采取 508231
很大 507478
自然 507001
西 506404
运行 505694
记录 505690
负责 505400
总 504819
桥 504699
女性 504350
高兴 503807
结合 502695
加入 502501
成本 502457
收入 502276
母亲 501948
重新 501599
神 501293
电@@ 499883
馆 499123
战争 498601
实际 498470
移动 498165
食品 498041
A@@ 497874
贸易 497429
房间 497301
消费者 497097
爸爸 497024
怎样 496972
s 496753
生@@ 496076
一条 495756
风 495692
基 495233
加 494790
警察 494277
G@@ 494248
油 492135
黑@@ 492078
巨大 491995
快速 491910
山@@ 491902
软件 491435
派 491196
方 490632
广告 490310
清楚 489764
操作 489704
古@@ 489360
近 488973
亚@@ 487787
父母 487736
即使 487532
安 486899
比如 485728
权 485705
主@@ 485558
十分 485290
哪里 485193
食物 485111
促进 483163
送 482876
思想 482705
而是 482699
指 482529
正常 482034
球 481944
陈@@ 481418
位于 481332
声音 480856
记得 480589
好@@ 480323
文 479822
龙@@ 478904
分别 478842
如@@ 478392
联合 478274
龙 477573
工艺 477514
只能 477065
声 477052
房子 477034
相@@ 474918
嗯 474812
购买 474405
海 474356
晚上 474218
提升 473590
一份 473145
数字 473025
自动 472877
尤其 472233
以@@ 471824
其它 471486
日@@ 470523
现代 470359
办公室 469283
里面 468915
法国 468771
附近 468705
鱼 468311
林@@ 467888
K@@ 467660
意味着 466968
讲 466727
全面 466529
s@@ 466411
完 466278
下降 465459
是不是 465266
制 465007
全部 464507
工具 464256
宣布 463965
c@@ 463600
社区 463285
危险 462987
经历 462274
科 462142
全 462020
将会 461771
论 461553
按照 460989
意识 460985
女孩 460637
训练 460588
过@@ 459947
主 459821
一场 459676
电脑 459213
曾经 458917
d@@ 458856
和平 458610
需 457314
会@@ 456863
六@@ 456605
面临 456532
t@@ 456311
调整 456137
平@@ 456070
语 456051
错误 455800
3@@ 454830
北@@ 454736
放 454520
信号 454383
气@@ 454155
药 454005
50 453740
没@@ 453591
确实 453452
比@@ 453038
园 452097
阶段 451995
责任 451865
单位 451788
或许 451619
真@@ 451074
太@@ 451038
华 450451
坚持 450067
成员 449819
厂 449559
根本 449366
确保 449363
件 449295
变 448997
段 448222
临床 447870
车@@ 446677
员工 446589
抱歉 446241
手@@ 445552
神@@ 445357
转@@ 445164
而@@ 444881
怎么样 444876
人士 444309
清@@ 444096
她们 443888
玩 443502
18 443105
m@@ 442898
建筑 442270
允许 442095
数量 442045
二 441645
系 440408
参数 439994
格 439730
结论 439485
德国 439098
科@@ 438909
身上 438842
安排 437984
动 437525
积极 436767
变成 436585
创造 436153
类型 435979
知识 435978
色 435870
再次 435490
风@@ 435432
推动 435241
后@@ 435197
体验 435033
岛 434698
明天 434236
来@@ 434165
明@@ 433986
波 433848
树 433289
视频 432335
不再 432332
很快 432260
员 432155
克@@ 432017
5@@ 431939
i 431855
b@@ 431276
文章 430800
生物 430704
经营 430621
电子 430604
做出 430462
表面 430209
装置 429693
双方 429299
十@@ 428813
反@@ 428392
时期 428221
不用 427448
头@@ 427253
停车场 426852
连 426646
半@@ 426183
正式 426127
手术 425805
王 425801
大多数 425614
尼 425181
重点 424062
酒 423938
法@@ 423835
非@@ 423754
长期 423645
属于 423627
衣服 423573
回家 423071
B 422768
爱@@ 422361
疾病 422047
现象 421804
良好 421116
同意 420874
金融 420863
E@@ 420266
房 420183
公@@ 419945
例如 419588
主席 419574
回到 419152
款 419037
女儿 418951
满足 418665
优势 418526
p@@ 418297
错 418129
狗 417739
左右 417697
云 417464
放在 417443
副 417259
我能 417168
远 416970
几@@ 416417
为@@ 416391
改善 416376
对象 415906
突然 414738
仅 414612
16 414597
用@@ 414320
联合国 413889
船 413883
100 413314
布@@ 413313
妻子 412315
版 412249
时@@ 411726
维@@ 411374
复杂 411061
不管 410526
入 410344
说话 409731
原@@ 409529
费用 408972
25 408949
和@@ 408222
智能 408148
组成 408092
一只 408010
出口 407832
必要 407810
官员 407214
回答 406709
电 406442
预测 406046
火@@ 405809
其@@ 405524
空@@ 405325
一件 405284
正确 405156
要是 405156
令 405090
费 404384
测量 404084
通 404059
基@@ 403489
不少 403033
第一次 402744
少 402725
困难 402295
4@@ 401940
装 401529
苹果 401320
变@@ 401275
挑战 401036
学院 400975
难 400879
名@@ 400667
意见 400076
@ 400034
室 399827
内部 399310
到底 399137
应当 398726
分布 398603
回@@ 398188
明 397883
周@@ 397880
这位 397880
嘿 397390
支付 397302
团队 397192
包 397113
此次 396903
开展 396457
从而 396445
子@@ 396315
东 396089
好像 395890
分钟 395723
优化 395642
人口 395243
刘@@ 395164
尔@@ 394897
基因 394362
最高 394242
沙@@ 393952
e 393642
失去 393509
植物 393506
面对 393301
~ 392805
街 392760
实际上 392759
原则 392566
直到 392565
楼 392461
性@@ 392424
具体 392318
眼睛 392255
儿 391971
别@@ 391509
奥@@ 391215
报 390933
独立 390422
领导 390217
利益 390009
感 389919
还要 389691
红 389346
当@@ 389322
上帝 389196
关键 389183
申请 389130
一部分 389025
含量 388921
哈@@ 388899
若 388692
铁@@ 388653
女 388364
波@@ 388087
行@@ 387784
电视 387671
限制 387572
年轻 386795
交流 386501
亿美元 386439
事实上 386352
等等 386284
刚 386131
塔 386086
推出 386014
所@@ 385875
竞争 384545
14 384169
门@@ 384094
农村 383863
设置 383062
一张 382938
访问 382807
恢复 382702
24 382374
制作 382373
计算机 382230
’ 381605
乐@@ 381491
土地 381420
啦 381312
永@@ 381192
张 380960
座 380790
总@@ 380672
来到 380387
边 380284
越 380094
膜 380011
倒 379961
连接 379866
温度 379824
流@@ 379751
教 379594
布 379550
石 379266
处于 379006
资产 378932
消费 378787
品 378645
相对 378615
寻找 378473
词 378312
块 378045
地球 377792
大部分 377734
21 377702
当前 377513
角 377372
菜 377371
尼@@ 377163
作品 376343
13 376222
商业 375961
以下 375732
八@@ 375580
来看 375284
类似 374986
飞@@ 374927
打开 373642
重 373214
7@@ 373041
合@@ 373023
通@@ 372770
先@@ 372595
状况 372562
6@@ 372261
威胁 371873
规划 371371
打电话 371290
C 371265
迅速 371247
建@@ 371065
V@@ 370712
每年 370651
达@@ 370500
坐 370476
装饰 370141
' 370067
南 369926
党 369791
特殊 369651
博@@ 369590
广泛 369258
ATM 369155
见到 369050
核心 368957
亚洲 368805
避免 368656
军 368609
福@@ 367792
强调 367732
大约 367617
伊@@ 367375
事实 367234
画 367067
马上 367011
打算 365966
低@@ 365097
连@@ 365010
某些 364978
如今 364902
森 364303
从@@ 364075
喝 363986
靠 363979
看来 363728
警方 363547
适合 363484
集 363109
安装 362703
超@@ 362260
谈 361988
里@@ 361527
培训 361037
大型 360447
雷@@ 360300
价 360200
恩 359632
多年 359372
规模 359305
状 359193
评估 358905
皮 358639
单 358594
欢迎 358578
8@@ 358466
云@@ 358187
第二 357649
19 357523
有着 357252
机场 357245
噢 356655
就要 356617
课程 356593
o 356377
女士 356314
两 355896
成立 355836
农业 355743
这项 355657
想法 354725
木@@ 354163
字 353752
看着 353712
枪 353575
快乐 353545
相当 352763
而言 352494
h@@ 352485
普@@ 352453
40 352329
吸引 351797
人民币 351493
平 351163
17 350443
纳 350379
策略 350339
乐 350204
教授 350165
承认 350090
早 349740
距离 349182
NO 349001
作出 348988
享受 348957
权利 348919
规则 348651
群 348493
I@@ 348418
试图 348329
t 348297
阳 348276
公开 348264
e@@ 348204
夫 348114
+ 348108
今晚 348014
包含 347247
相比 347076
病人 346769
得@@ 346315
干@@ 346192
W@@ 345938
相 345848
足够 345800
于是 345733
使得 345710
模拟 345555
投资者 345454
对不起 345146
加工 344796
火 344559
后来 344543
酸 344525
飞 344324
描述 344147
对此 344112
正是 344112
宝@@ 343926
O@@ 343770
重大 343478
选 343387
预计 342827
格@@ 342813
改进 342496
证据 342463
收到 342448
实践 342068
居民 341932
万元 341925
节 341856
推进 341753
卖 341731
概念 341648
反对 341333
下午 341199
放@@ 341170
一旦 340993
武器 340732
呀 340720
亚 340459
抗@@ 340444
病毒 340289
令人 340088
笑 339963
有时 339403
首次 339104
诊断 338930
艾@@ 338832
读 338625
机@@ 338622
骨 338506
拒绝 338465
平衡 338210
协会 338175
律师 338118
学@@ 337889
每@@ 337804
最新 337446
术 336960
界 336907
深@@ 336882
记 336767
弄 336690
兄弟 336416
运用 336394
罗 336229
康@@ 336191
地位 336141
测定 335838
" 335753
发表 335678
教学 335673
用来 335647
杨@@ 333915
入@@ 333816
遇到 333703
受@@ 333533
这件 333432
皮@@ 333431
血 332967
那儿 332902
贷款 332769
千@@ 332649
公布 332580
态度 332560
主义 332324
在线 332145
两种 331778
油@@ 331740
公园 331717
血@@ 331442
主题 331159
合 330930
保障 330918
i@@ 330690
g@@ 330461
青@@ 330329
职业 330287
坐在 330215
调@@ 329319
石油 329111
既 328742
上面 328537
那种 328478
液 328334
原 328247
沟 328219
医疗 328040
年@@ 327748
连续 327694
第一个 327690
丈夫 327648
省 327548
纳@@ 327143
苏@@ 326868
制定 326828
涉及 326758
形 326732
商品 326480
直@@ 326450
强@@ 326320
物质 326241
亿元 326007
免费 325527
药物 325445
圣@@ 325369
江 325180
星 325055
9@@ 324820
培养 324457
堂 323775
微@@ 323734
观点 323680
多个 323678
亲爱 323637
肉 323561
展示 323453
道路 323300
思考 323028
米@@ 322976
绝对 322844
在于 322823
办 322730
结果表明 322697
最佳 322580
纽约 322522
通知 322310
攻击 322210
指定 321968
香@@ 321682
新型 321468
起@@ 321144
联@@ 321130
平均 321112
湾 321056
西方 320539
没事 320217
创建 319507
明确 319444
茶 319334
面@@ 319231
广场 319206
定 319182
著 318908
伤害 318571
y@@ 318363
眼 318332
放弃 318226
图像 317942
T 317346
军@@ 317334
金属 317315
2015 317029
颜色 316763
上升 316742
危机 316463
破坏 316106
动力 315950
er 314880
交@@ 314287
2016 314270
分子 314231
九@@ 314225
不可 314158
离 314100
不好 313951
吉@@ 313771
化@@ 313675
刚刚 313655
港 313622
哪儿 313445
粉 313301
开放 313138
泰@@ 312939
背景 312932
事故 312913
妇女 312868
空气 312819
丰富 312651
手段 312618
香 312606
收@@ 312323
资本 312322
料 312283
脚 312276
下去 312274
合同 312108
防@@ 311938
丝 311871
家里 311847
能@@ 311758
普通 311673
‘ 311561
留下 311373
车辆 311159
合理 310680
生态 310672
效应 310612
美丽 310597
趋势 310401
库 310322
尝试 310006
他@@ 309718
d 309443
昨天 309357
票 309292
自身 309235
股 309129
结婚 309118
湖 308676
集中 308560
终于 308382
不了 308115
整体 307825
值得 307742
力@@ 307716
感染 307692
信@@ 307654
奥巴马 307624
进@@ 307335
团 307285
素 306962
女@@ 306373
带@@ 306259
停止 306171
下面 306100
课 305886
小姐 305866
餐厅 305645
符合 305450
工@@ 305372
效率 304621
战 304555
维护 304439
现实 304401
节目 304366
伤 304077
幸福 304077
项 303770
点@@ 303163
有没有 303001
共 303000
提@@ 302871
再@@ 302868
数@@ 302848
或是 302678
体@@ 302252
接触 302137
精@@ 302053
商店 301853
没错 301568
工 301538
有趣 301334
理由 301246
引发 301183
盘 301010
能量 300940
奇 300856
失败 300319
不得不 300123
角色 300116
瑞@@ 300108
压 299946
赛 299814
增强 299768
质 299735
乡 299644
大陆 299526
• 299516
口@@ 299281
江@@ 299257
n@@ 299059
y 298742
教师 298540
待 298348
像是 298050
J@@ 297989
聚@@ 297973
工厂 297841
公众 297602
富@@ 297495
发出 297427
身 297114
承诺 297063
伦敦 297042
无论 296910
空 296656
拍 296609
药房 296493
机械 296455
系列 296417
差异 296309
牌 295830
定@@ 295826
估计 295810
活 295696
差 295542
扩大 295435
证 295411
双 295407
定义 295344
你好 295075
最@@ 295042
2014 294995
旅行 294948
部队 294789
立@@ 294478
脸 294350
比例 294186
年代 294173
往 294105
象 294097
师 294030
月份 294021
架 293939
非洲 293877
22 293758
合成 293689
案 293687
迪 293602
家人 293424
「 293360
角度 293167
时尚 293126
塔@@ 292891
动态 292835
朝鲜 292604
犯罪 292566
充满 292475
忙 292324
逐渐 292321
科学家 292228
天气 292135
美容 292036
19@@ 291846
之中 291623
& 291483
核 291411
黑 291132
七@@ 290771
60 290553
白 290553
麻烦 290483
游客 290441
贝@@ 290370
保@@ 289878
莫@@ 289786
班 289633
死@@ 289544
适应 289540
领导人 289466
选举 288769
反映 288429
求 288360
根 288052
行政 288050
上述 288012
约翰 287885
压@@ 287653
传播 287641
事业 287314
f@@ 287208
男子 287179
做到 287139
称为 287091
军事 286821
方@@ 286742
l@@ 286551
萨@@ 286522
」 286431
给出 286289
污染 286045
指数 285707
实@@ 285705
该@@ 285689
军队 285630
完善 285341
福 285199
相同 285042
一系列 284891
采访 284709
基地 284527
通信 284293
土 284106
元素 284022
显然 283865
设施 283809
包@@ 283791
交通 283787
依然 283767
地震 283672
发挥 283559
感受 283351
本身 283275
漂亮 283257
往往 282915
酶 282877
要@@ 282593
紧张 282463
股份 282222
纸 281964
完美 281874
房地产 281764
S 281682
兰 281674
接@@ 281480
启动 281348
峰 281193
显著 280875
连锁 280622
真实 280460
情 280255
作者 280118
指标 280004
蛋白 279926
兰@@ 279704
各国 279656
超 279638
人生 279467
作@@ 278775
投入 278573
满 278467
损失 278383
排@@ 278275
强大 278212
高度 278051
对方 278013
k@@ 277951
数据库 277950
确认 277841
组合 277668
别的 277588
身份 277588
听说 276955
早上 276886
核@@ 276489
机器人 276170
亿 275983
函数 275513
顺@@ 275441
咖啡 275067
能源 274990
底 274680
er@@ 274674
网@@ 274504
商 274481
考试 274360
有个 274317
顿 274283
属 274076
星@@ 273819
老板 273665
给予 273471
味 273383
易@@ 272697
眼@@ 272677
妈 272656
轮 272598
统一 272431
地址 272418
从来 272354
w@@ 272214
23 272010
b 271976
土@@ 271892
灯 271866
症 271784
睡 271741
配置 271341
毛@@ 271244
台@@ 271216
随后 270906
生长 270642
第一@@ 270379
搞 270171
方便 270143
彩票 269872
面前 269830
皮肤 269817
家伙 269598
周围 269530
绿色 269478
转移 269254
做好 269217
网上 268878
托@@ 268642
维持 268434
河@@ 268228
展开 268222
到达 268046
接近 267972
俱乐部 267939
武@@ 267444
阅读 267323
分享 267179
氏 266983
广@@ 266650
联盟 266378
族 266353
除 266230
公里 266229
反 266021
适用 266019
伟大 265801
娜 265656
代@@ 265542
难@@ 265539
民族 265426
服务器 265293
份 265201
切@@ 265085
博士 264939
麦@@ 264905
迪@@ 264895
邀请 264827
汉@@ 264544
阳光 264359
构成 264109
失@@ 264087
规范 264084
监管 264070
两年 264048
常@@ 264043
探索 263805
指导 263709
雅@@ 263628
身@@ 263488
D 263483
中国@@ 263442
保险 263364
呃 263272
姆 263130
动@@ 263066
温@@ 262941
不行 262901
人才 262797
客 262060
制备 262020
庄 261856
然 261816
研发 261736
应@@ 261638
原理 261509
洛@@ 261443
谈判 261345
税 260930
钢 260724
制@@ 260636
欧盟 260617
叶 260517
28 260473
缺乏 260463
化学 260395
鼓励 260215
机器 260168
特色 260168
进展 260077
想象 260065
风格 259864
好好 259786
梅@@ 259739
糖 259629
26 259277
坏 259124
以色列 258956
接 258899
r@@ 258770
路@@ 258526
看@@ 258221
飞行 258097
春@@ 258096
构建 258035
幼儿园 257966
中央 257965
痛苦 257835
微 257778
列 257777
习惯 257743
脱@@ 257670
混合 257623
吴@@ 257559
来源 257462
宝 257427
满@@ 257377
管@@ 257339
一致 257322
法院 257258
胡@@ 257201
英@@ 256695
表演 256650
未@@ 256549
宾馆 256282
升级 256206
大会 256138
梦想 256098
经@@ 256023
图@@ 255973
开心 255823
刀 255680
著名 255659
男孩 255384
居 255180
圈 254933
关心 254925
冷@@ 254908
松@@ 254761
27 254708
此前 254494
体育 254319
神经 254232
并非 254201
各@@ 253826
诺 253822
an 253706
工作人员 253542
解 253110
太阳 253055
立即 252830
所谓 252766
强度 252742
院 252714
梦 252656
秘密 252553
详细 252526
X 252491
澳大利亚 252476
瓦@@ 252397
达成 252356
透露 251896
v@@ 251895
快@@ 251851
咨询 251624
案件 251611
冲突 251583
的确 251557
感谢 251459
兴 251341
防止 251201
牛@@ 251124
木 251092
回去 251021
协调 250841
搜索 250697
花园 250441
成长 250347
更@@ 250221
进来 250008
工人 249924
害怕 249827
应对 249803
结@@ 249769
欧@@ 249744
主任 249469
货 249424
人物 249323
环@@ 249178
莱@@ 248910
识别 248776
兴@@ 248764
跳 248670
丽@@ 248488
没什么 248421
[ 248341
宝贝 248242
之外 248228
草 248223
刺激 248181
民@@ 248177
民众 248130
配@@ 247852
赢得 247696
近@@ 247625
罪 247503
200 247445
鸡 247388
早期 247178
玻璃 247176
转 247075
复@@ 247012
远@@ 246910
18@@ 246848
塞@@ 246732
田 246453
卫星 246438
E 246184
鸟 246184
几年 246132
想到 246058
人数 245971
命令 245880
性质 245837
说@@ 245835
鲁@@ 245762
四 245676
心理 245468
a@@ 245198
独@@ 245008
即将 244961
伯@@ 244959
年轻人 244954
懂 244878
分离 244817
落 244711
道@@ 244529
动作 244270
理想 244080
床 244064
否则 244032
取 243848
P 243722
期待 243589
打击 243495
应用程序 243431
音 243172
U@@ 243149
挺 243043
倍 242858
] 242799
呆 242764
举办 242759
怀疑 242651
街道 242614
阻止 242548
in@@ 242382
嗨 242339
样子 242270
一步 242253
消失 242229
预期 242189
近日 242126
官方 242115
有所 241953
情绪 241855
添加 241792
海外 241780
提到 241695
杯 241620
进口 241480
埃@@ 241410
很@@ 241155
意大利 241102
相应 240900
80 240885
c 240819
玉@@ 240760
不足 240416
藏 240241
定位 240170
腿 240099
负责人 240095
后面 240092
此@@ 239985
L 239770
冰@@ 239621
纤维 239601
监督 239530
杂志 239247
公共 239205
装@@ 239186
造型 239151
自我 238830
高级 238732
信任 238457
及时 238438
进去 238396
损伤 238187
域 238111
清 238078
输入 238069
原来 237923
短 237852
大小 237839
兴趣 237811
仅仅 237762
学会 237702
从事 237689
年龄 237666
进程 237616
不够 237534
自行车 237528
统计 237501
轻@@ 237417
伙计 237175
说道 237120
猫 237026
战@@ 236606
el@@ 236552
换 236462
现有 236416
公寓 236368
一块 236258
日子 236233
勒 236087
想@@ 235932
周 235765
俩 235734
等待 235729
抓 235693
固定 235682
答案 235651
环 235560
情@@ 235536
形象 235449
现状 235378
袭击 235311
越@@ 235273
落@@ 235206
异@@ 235194
银@@ 235146
首@@ 235007
循环 234962
四个 234950
声明 234897
奖 234790
鑫 234786
头发 234768
受伤 234664
代码 234599
M 234564
al@@ 234477
是从 234475
F 234105
救 234031
星期 233985
n 233919
选@@ 233854
巴 233742
样 233649
警告 233480
蓝@@ 233409
朝 233375
屋 233339
身边 233239
分配 233185
外面 233102
地图 233088
整@@ 233066
雷 232852
充分 232467
曼 232398
夫人 232384
叶@@ 232206
端 232174
元@@ 232152
取消 232088
实验室 232081
教@@ 231736
小组 231726
半 231684
牛 231647
算 231527
于@@ 231380
套 231325
每次 231267
几天 230888
小心 230873
2000 230822
销售店 230676
股票 230669
缘 230626
他会 230505
兵 230440
运营 230425
大概 230420
I 230179
专卖店 229987
史 229974
监测 229908
集@@ 229884
查 229765
深 229385
经理 229282
提 229058
运输 228806
隆 228757
其他人 228744
航空 228741
减@@ 228667
释放 228560
冲@@ 228474
在@@ 228247
权力 228105
特朗普 228050
关 227965
杜@@ 227935
施工 227718
走@@ 227643
海洋 227582
体现 227451
特定 227437
500 227396
照 227335
请求 227315
恒@@ 227206
伊朗 227181
冲 227150
属性 227117
共@@ 226659
官 226643
获取 226425
帕@@ 226336
这场 226321
提醒 226255
上市 226196
事@@ 226183
1@@ 226080
u@@ 226033
以便 225983
o@@ 225969
更新 225857
红色 225649
一半 225497
诺@@ 225366
美国@@ 225346
服务中心 225292
观众 225212
洞 225124
坊 225099
智慧 225007
日电 224993
广州 224513
发动机 224402
冷 224316
理念 224238
够 224063
所有人 224055
雨 223707
歌 223696
雪@@ 223536
取@@ 223535
大鼠 223487
私人 223422
活@@ 223076
意 223042
研制 222887
具 222858
奇@@ 222544
多种 222388
药@@ 222381
禁止 222208
查@@ 222183
黄 222084
嘉@@ 221846
泰 221720
老人 221689
外国 221685
群众 221685
an@@ 221494
物流 221492
一边 221330
佳@@ 221214
90 220929
掌握 220915
名称 220763
加拿大 220689
混凝土 220644
铁路 220615
对话 220585
照顾 220544
收集 220540
仿真 220520
顾客 220371
货币 220205
推@@ 220172
补充 219976
强烈 219899
换@@ 219895
地点 219739
村民 219652
鱼@@ 219569
29 219543
威@@ 219335
航班 219218
命 219147
言 219006
贡献 218993
司机 218990
图片 218861
思@@ 218838
总理 218750
成绩 218675
养生 218646
看上去 218552
凯@@ 218460
高速 218406
男性 218379
犯 218367
论文 218237
X@@ 218211
任 218202
聪明 218152
五 218102
近年来 218083
休息 218061
当天 218024
营销 217986
宣传 217823
解@@ 217823
索@@ 217747
发射 217707
蒙@@ 217706
不得 217695
前往 217565
上涨 217560
农@@ 217489
优秀 217459
第二@@ 217419
绿@@ 217416
礼物 217243
检验 217224
民 217212
丽 217140
嘛 217075
北 217068
活性 216948
2013 216849
通讯 216821
常常 216592
苑 216357
停 216221
城@@ 216184
森林 216165
小区 216159
批准 215919
食 215838
建 215739
独特 215601
记忆 215518
望 215482
普遍 215443
分公司 215306
难以 215297
打造 215278
义 215137
时刻 215107
谈谈 215040
人群 215039
铁 214929
成熟 214862
蒂 214636
书@@ 214349
就业 214244
齐@@ 213955
小学 213869
见@@ 213792
声@@ 213753
事务 213729
包装 213682
重庆 213560
摘要 213385
出发 213295
追求 213147
增@@ 213037
导弹 213017
中间 213014
2008 212721
修@@ 212721
余@@ 212641
英里 212479
咱们 212422
这家 212407
国际@@ 212406
评论 212374
饭店 212372
指@@ 212147
品质 212044
很少 212012
判断 211857
拍摄 211792
宁 211631
因@@ 211600
上午 211522
细节 211441
2017 211362
生成 211226
托 211170
小孩 211146
那时 211006
顺 210964
供应 210962
加上 210937
初步 210722
投@@ 210698
驾驶 210631
假 210574
有助于 210031
ar@@ 210022
组@@ 209848
虫 209629
寻求 209619
适当 209546
除非 209527
一辆 209510
奇怪 209441
赢 209420
步 209399
31 209255
鞋 209251
证实 209077
做法 209016
严格 208982
国外 208972
第三 208916
先进 208712
异常 208545
多次 208538
依据 208465
预算 208347
痛 208326
海军 208272
而已 208154
监控 208122
接下来 207894
同学 207821
p 207766
预防 207750
网友 207650
引@@ 207647
忘 207538
移民 207414
补@@ 207356
士 207328
准确 207283
批评 207077
盖 207067
配合 207064
他人 207008
传@@ 206938
色@@ 206706
脑@@ 206692
茶@@ 206659
联 206658
忘记 206580
临@@ 206571
众多 206544
康 206350
刚才 206225
更是 206118
胜利 205957
链 205944
球@@ 205777
约会 205702
拿到 205668
墙 205635
吃@@ 205621
列@@ 205518
on 205485
担任 205463
怎么办 205346
圆@@ 205323
大脑 205295
出生 205230
爆炸 205208
g 205166
进步 205091
承担 204962
发言人 204904
希@@ 204839
运 204775
标志 204644
我来 204611
某个 204504
盛@@ 204471
代 204335
糟糕 204308
重视 204263
友 204054
白色 204049
全新 204012
顶 203933
世@@ 203864
财富 203794
全世界 203791
70 203790
典型 203700
2012 203562
骨@@ 203540
修改 203503
设立 203500
更为 203420
细@@ 203248
农民 203204
兹 203104
水果 202767
年度 202732
横@@ 202650
理 202603
翻译 202558
理@@ 202549
盛 202515
伊拉克 202512
唱 202478
融合 202427
or@@ 202329
作业 202157
供 202138
病@@ 201971
利润 201931
沟通 201904
0.@@ 201821
乌@@ 201751
部署 201714
2018 201695
治理 201591
公民 201579
对策 201559
很难 201551
召开 201496
深入 201447
实在 201428
债务 201146
推广 201127
可爱 201074
收购 200980
付 200940
旧 200897
女子 200882
难道 200793
规律 200750
支行 200653
卫生 200618
离@@ 200607
证券 200580
只@@ 200555
视 200522
挂 200514
一片 200469
任何人 200442
为何 200431
关@@ 200416
页 200378
立 200309
美好 200241
食@@ 200157
养@@ 200146
朱@@ 200126
一套 200041
路上 199939
果 199880
青年 199860
多么 199823
合适 199793
版本 199658
流行 199615
产 199612
完整 199564
创业 199457
已@@ 199142
较大 199107
对比 199004
满意 198781
本书 198768
有限 198673
发行 198532
抓住 198529
求@@ 198194
丁@@ 198188
灵@@ 198085
成果 198051
仪 197965
实行 197814
亲@@ 197792
推荐 197765
援助 197725
一座 197719
肿瘤 197627
覆盖 197623
服 197572
破@@ 197543
极 197346
英文 197211
小说 197128
紫@@ 196880
奥 196866
加快 196820
专门 196774
造@@ 196759
关闭 196734
嘴 196726
民主 196689
地面 196644
晚 196535
干什么 196471
含 196360
共享 196301
爱情 196234
提取 196228
首席 196080
N 196048
伦 196040
丰 195951
足 195908
市民 195773
停@@ 195758
草@@ 195748
汤 195676
尊重 195518
融资 195331
信心 195286
韩@@ 195280
图书馆 195230
家长 195154
转变 195134
数值 195012
1.@@ 194926
何@@ 194856
障碍 194841
返回 194661
土壤 194442
O 194428
面积 194418
回应 194398
常 194398
胜 194125
树@@ 194089
公路 194061
田@@ 193969
G 193818
症状 193592
一段 193553
大众 193460
当中 193358
必@@ 193261
改造 193166
复合 193072
装备 193022
阳@@ 192872
费@@ 192764
跟踪 192748
岩 192707
注册 192697
干嘛 192683
主意 192552
产@@ 192467
在内 192289
瑞 192218
突破 192183
猪 192091
h 192065
饭 192057
赵@@ 191944
华盛顿 191889
本来 191856
报@@ 191806
可能性 191742
意外 191608
环保 191605
验证 191425
游 191372
伊 191336
主动 191271
厅 191227
排 191185
盐 191133
表@@ 191107
存储 191097
两人 190881
线@@ 190853
生存 190819
j@@ 190708
那边 190598
男@@ 190519
突出 190466
黑色 190450
毛 190444
棒 190388
说法 190368
en@@ 190367
吸收 190356
部长 190214
登记 190112
工资 189983
激光 189953
总结 189836
混@@ 189782
具备 189763
试@@ 189714
运@@ 189591
调 189520
巴黎 189471
法庭 189383
公平 189308
什 189153
孔 189107
物@@ 189052
转换 188935
出售 188900
穿着 188849
看法 188846
一句 188640
球员 188399
分类 188300
考@@ 188230
感情 188216
记住 188125
技能 188121
帮忙 188054
丰@@ 188006
观 187998
久 187973
大规模 187897
改@@ 187845
恩@@ 187797
编辑 187704
退@@ 187622
短@@ 187570
垃圾 187513
采@@ 187383
太太 187327
2010 187306
婴儿 187245
非法 187224
章 187192
消除 187168
认真 187144
玛@@ 187053
笔 187028
衣 187022
框架 186903
途径 186903
亮 186842
故障 186803
呼吸 186766
高校 186689
传感器 186590
成分 186588
例子 186559
快点 186420
文明 186400
服装 186389
节@@ 186328
箱 186313
论坛 186191
抑制 186180
游@@ 186100
杰克 186097
维修 186061
通道 186038
届 185983
叙利亚 185964
无人机 185951
记@@ 185923
翻@@ 185900
麽 185819
贵 185747
暗@@ 185726
洪@@ 185664
in 185611
钢@@ 185601
出席 185553
深圳 185470
初@@ 185452
预@@ 185426
维 185424
态 185360
放松 185312
监狱 185030
代理 184810
三年 184743
亿@@ 184739
户 184698
软@@ 184567
正如 184509
升 184337
同事 184337
洗@@ 184148
抗 184139
财政 184120
专@@ 184011
巨@@ 184009
极@@ 183808
朝@@ 183793
宗教 183729
井 183628
日前 183589
签署 183473
宏@@ 183457
购物 183423
有时候 183323
电池 183291
向@@ 183221
汇@@ 183181
收益 183161
周末 183135
接着 183114
近期 183003
国王 182912
心里 182910
酒@@ 182870
昨晚 182699
偏@@ 182693
敌人 182667
世 182612
一部 182602
渠道 182486
阿 182465
决策 182387
一生 182270
Z@@ 182238
男 182140
那天 182091
气体 182090
为此 182013
现金 181987
高效 181910
轴 181898
利率 181685
陆@@ 181631
修复 181620
常见 181612
霍@@ 181575
明星 181477
球队 181426
烟 181232
投票 181173
en 181076
佳 180965
十年 180873
房@@ 180859
肉@@ 180772
客人 180707
报纸 180695
相互 180671
博物馆 180660
雅 180656
婚礼 180537
唐@@ 180518
跳@@ 180407
地下 180380
硬@@ 180361
实力 180280
协助 180184
随@@ 180148
成就 180133
英 180071
普 180013
瓦 179921
第三@@ 179855
输出 179830
施@@ 179821
码 179808
房屋 179752
超级 179637
保留 179562
士兵 179527
群体 179489
前面 179480
酸@@ 179417
领@@ 179374
尸体 179323
做@@ 179295
苦@@ 179240
松 179206
显得 179142
惠@@ 179118
猜 178995
系数 178991
川 178868
留@@ 178716
疗效 178714
断@@ 178688
赫@@ 178671
决议 178584
家族 178513
疯狂 178442
当局 178369
电子@@ 178340
密@@ 178290
还会 178284
多数 178256
艺 178152
宝宝 177967
创作 177940
西部 177810
创@@ 177788
摄影 177757
从未 177717
熟悉 177702
交换 177655
血管 177619
为主 177466
商行 177457
驱动 177420
衣@@ 177374
收 177327
替 177271
邦 177245
流量 177225
青 177184
更大 177146
尽 177141
徐@@ 177132
哪个 177098
大厦 176936
少@@ 176908
数学 176862
稳定性 176828
保存 176814
开车 176786
还@@ 176736
根@@ 176582
形态 176534
这份 176339
一路 176297
丝@@ 176281
假@@ 176237
l 176105
形@@ 176083
遭到 176068
不久 176066
万美元 176054
哭 176039
流动 175997
汤姆 175970
医学 175935
印象 175930
m 175840
浓度 175808
支@@ 175806
火车 175798
副@@ 175755
电器 175601
冲击 175588
娱乐 175587
交 175585
导@@ 175579
哪些 175530
尺寸 175501
模糊 175446
果@@ 175429
简直 175404
含@@ 175186
年前 175026
营业厅 175026
曲 175003
意@@ 174990
300 174956
所说 174931
婚姻 174925
中学 174912
产量 174912
应力 174874
提交 174783
微信 174746
讨厌 174532
商@@ 174509
曲线 174483
索 174423
权@@ 174404
好处 174375
频率 174321
曼@@ 174310
含有 174260
志@@ 174251
物理 174083
一款 174043
被@@ 174001
革命 173774
展 173719
耐@@ 173686
联邦 173573
事物 173551
35 173495
慢慢 173457
建造 173403
社会主义 173380
诗 173356
运动员 173347
李 173316
秒 173267
本次 173193
左@@ 173190
阐述 173185
库@@ 173164
K 173131
饼 173088
】 173072
养 173044
讲话 172999
干部 172981
仪式 172836
it@@ 172824
演讲 172586
英雄 172409
损害 172396
已有 172391
R 172268
耳@@ 172216
乱 172207
杆 172189
解决方案 172146
文学 172084
杰@@ 172076
依@@ 171935
分为 171837
灵魂 171662
斯特 171639
心脏 171579
柱 171533
登 171511
居住 171504
社交 171440
前景 171375
轻松 171294
亦 171281
修 171244
模 171231
st@@ 171170
战斗 171121
演员 171117
易 171070
洗 170989
脑 170952
试 170952
电路 170925
月@@ 170902
哥 170858
机理 170753
阴@@ 170688
可怕 170673
多久 170671
0@@ 170593
一周 170537
味道 170535
降 170428
留在 170395
物品 170384
es 170274
思维 170179
经济@@ 170178
将来 170034
船@@ 169952
破 169877
租赁 169814
酒吧 169806
财产 169747
辐射 169716
彻底 169675
什么样 169648
背后 169590
杰 169577
烟@@ 169567
滑@@ 169491
尚@@ 169490
秀 169484
用品 169400
匹配 169346
脚@@ 169280
相反 169274
大学生 169271
景@@ 169187
由@@ 169016
奥运会 169004
始终 168925
送@@ 168909
尽@@ 168795
审查 168709
怕 168703
戴 168681
幸运 168673
威 168632
加速 168604
2009 168472
随 168345
标@@ 168336
你@@ 168241
今后 168240
印 168200
缺陷 168157
程 168094
市@@ 168071
乘客 167954
矛盾 167927
周期 167646
场景 167556
诊所 167380
至今 167338
哈 167315
睡觉 167300
法官 167270
逻辑 167121
留 166909
毒@@ 166886
夏@@ 166875
蛋糕 166875
呈 166846
乱@@ 166688
景 166576
甘@@ 166547
旧@@ 166544
实 166475
社 166443
义@@ 166346
吃饭 166252
扩展 166109
断 166078
k 166059
潜在 166025
能否 165997
营养 165980
调节 165907
生意 165883
at@@ 165802
菌 165743
爆发 165738
低于 165719
血液 165712
话题 165535
团体 165529
盖@@ 165528
支撑 165476
资格 165464
各地 165443
沙 165431
弹 165430
画@@ 165426
2011 165199
俄 165174
卖@@ 165128
名单 165075
道德 165020
赛@@ 165006
磁@@ 164995
岭 164979
队伍 164966
抽@@ 164919
护理 164904
呼吁 164800
毕业 164778
引导 164745
曲@@ 164692
蓝色 164639
自从 164632
谷歌 164608
卷 164599
蔬菜 164507
陶瓷 164463
等@@ 164268
各个 164244
尚 164140
家具 164128
可靠 164001
采购 163953
长时间 163909
愉快 163897
博 163884
两次 163809
深度 163797
追@@ 163774
车型 163697
以外 163656
西班牙 163546
不必 163446
克斯 163378
重复 163336
坐@@ 163335
研究所 163261
拜托 163137
甲 163130
据悉 163067
磨@@ 162982
洛 162980
总部 162928
剑 162927
井@@ 162904
便宜 162884
航 162655
甲@@ 162643
今日 162585
提前 162503
相似 162424
中有 162370
000 162334
喜@@ 162201
丹@@ 162198
黄金 162141
写@@ 162110
分店 162090
货物 162066
速 162056
地上 161989
莉 161984
塘 161982
1000 161970
切 161858
邮件 161769
劳@@ 161740
彼此 161707
尚未 161705
就算 161423
习近平 161409
一段时间 161362
梁 161218
印@@ 161182
中国移动 161149
舞 161099
撞 160982
并未 160956
生气 160943
on@@ 160932
大幅 160929
0 160789
教堂 160783
一会儿 160774
再见 160738
传 160648
吸@@ 160500
讲@@ 160483
听@@ 160477
愿 160393
杭州 160371
袋 160363
国会 160346
某种 160315
硬件 160183
锁 160125
经典 159953
下跌 159951
商务 159950
致 159904
V 159802
3.@@ 159756
或@@ 159671
争议 159663
实习 159647
传递 159607
早@@ 159602
埃及 159564
影 159543
烧@@ 159484
庆祝 159480
不仅仅 159469
夜@@ 159466
雨@@ 159441
日期 159410
古 159233
旁边 159197
孙@@ 159186
轮@@ 159070
强化 159064
气候 158964
单独 158934
机关 158899
屏幕 158890
卢@@ 158848
极大 158829
侧 158771
免疫 158746
驻 158743
却是 158725
Y@@ 158595
查询 158466
住房 158412
倒@@ 158395
母@@ 158363
百度 158328
及@@ 158326
持 158204
形势 158185
到来 158162
简@@ 158040
10@@ 157937
作战 157932
配 157796
州市 157741
网页 157655
究竟 157638
本人 157591
致@@ 157581
变形 157572
视为 157398
封@@ 157288
塞 157273
乔@@ 157189
立刻 157141
外交 157097
盘@@ 157074
降@@ 157012
有机 156996
【 156992
镇@@ 156969
参考 156904
方程 156845
谢@@ 156718
藏@@ 156694
既然 156665
截至 156549
最初 156532
计 156531
矿 156513
刚@@ 156483
钱@@ 156440
炎 156388
暴力 156366
壳 156350
对手 156208
姑娘 156204
护@@ 156197
谈话 156185
尽快 156159
授权 156102
急性 156050
不该 156025
所在 155997
紧@@ 155955
省@@ 155804
心中 155796
野@@ 155705
堡 155671
静@@ 155503
ing 155431
电力 155296
上去 155292
销量 155248
背@@ 155183
互@@ 155158
针 155134
眼镜 154992
构造 154955
东方 154918
巴西 154779
到处 154777
观念 154687
立场 154681
燃料 154649
厨房 154530
字@@ 154499
蓝 154426
党@@ 154422
零@@ 154399
ch@@ 154372
人体 154344
办理 154204
顺利 154204
干扰 154193
热情 154115
早餐 154066
长官 153951
言@@ 153839
违反 153740
激烈 153701
一个月 153670
主体 153664
瓶 153664
H 153625
高于 153598
速@@ 153548
人权 153520
依赖 153518
坡 153382
日益 153303
围绕 153300
见面 153255
流程 153138
区@@ 153104
股东 153045
设 153019
目@@ 153014
优@@ 152982
额 152968
创 152913
临时 152874
45 152866
壁 152760
供@@ 152681
随时 152625
喂 152622
板@@ 152605
剩下 152539
同比 152538
右@@ 152526
麻@@ 152494
命运 152474
加大 152406
政@@ 152341
牙 152205
服饰 152078
ri@@ 152056
广东 151912
DNA 151782
期望 151751
上周 151687
自主 151625
不幸 151557
啥 151535
私@@ 151426
种@@ 151390
陷入 151370
th@@ 151256
形状 151210
佛@@ 151139
一把 151058
成都 151007
躺 150962
恐怕 150956
目 150918
作家 150874
须 150869
2007 150858
有利于 150845
合并 150791
泉 150780
宇宙 150709
呈现 150640
本地 150591
吉 150536
灵 150458
问@@ 150410
梅 150405
两国 150400
走向 150376
疫苗 150372
足球 150283
牙@@ 150204
制品 150198
思 150161
对待 150129
便利店 150123
黑暗 150039
汉 150024
re@@ 150023
存 150010
遭遇 149999
新兴 149976
情感 149956
单元 149939
零 149928
彩@@ 149766
弹@@ 149728
浮@@ 149723
不知 149695
拍@@ 149671
x 149624
保 149582
善@@ 149550
债券 149508
练习 149410
技巧 149408
恐惧 149403
体内 149236
新加坡 149235
紧急 149198
请问 149164
休闲 149146
指控 149120
区别 149092
宇 149036
带有 149025
杂@@ 149024
响应 148877
荣@@ 148847
铜@@ 148767
题 148695
同步 148639
招@@ 148610
载 148547
药品 148439
归@@ 148427
品种 148399
标记 148141
池 148129
运作 148112
办事处 148081
某@@ 148008
音@@ 147900
步骤 147861
辉 147744
鸡@@ 147715
结 147691
梁@@ 147663
St@@ 147635
天然 147567
菲@@ 147524
有用 147471
营 147439
尾 147434
与此同时 147330
品@@ 147305
明年 147244
转型 147216
铺 147216
妮 147198
烟酒 147156
现@@ 147142
消@@ 147013
宫 146956
假如 146947
到@@ 146881
太空 146717
深刻 146604
边@@ 146555
参观 146501
优质 146488
舒适 146417
抱 146378
编@@ 146333
密度 146290
存@@ 146244
失望 146181
谱 146163
蛋 146143
控制系统 146127
工程师 146107
原料 146101
格式 146064
重建 145947
之下 145813
活着 145758
绝@@ 145735
天空 145729
谷 145691
2% 145629
is 145576
查看 145528
丹 145485
海上 145481
le@@ 145463
羊 145406
散@@ 145331
密码 145316
燃烧 145303
观@@ 145288
轮胎 145227
饮料 145100
标 145089
碳 145086
竟然 145029
耶和华 145015
除@@ 144966
钥匙 144948
直 144944
宁@@ 144923
整合 144916
无论是 144886
灰@@ 144848
案子 144774
非线性 144738
劳动 144730
秘书长 144672
首都 144653
了@@ 144634
逐步 144598
亲 144570
纸@@ 144556
富 144543
关联 144502
萨 144501
不如 144490
传输 144465
汇 144463
ro@@ 144460
现代化 144443
议员 144382
旅馆 144371
5% 144366
质@@ 144299
注 144260
外部 144257
顶@@ 144227
南部 144211
接到 144202
足@@ 144115
众@@ 144101
引入 144098
3% 144088
振动 144069
至于 143983
2.@@ 143944
学者 143944
基础设施 143929
中方 143919
剧 143910
五年 143909
盒 143876
15@@ 143826
洋@@ 143780
上班 143752
知@@ 143740
五金 143664
塑料 143655
冠军 143647
支出 143643
支 143639
扫描 143637
另一方面 143624
怪 143620
演出 143585
il@@ 143558
实时 143512
布局 143404
义务 143402
玩具 143255
司法 143218
北京@@ 143202
32 143164
小型 143160
鑫@@ 143158
魔@@ 143141
玛丽 143110
妹妹 143090
其次 143037
走进 143025
乳@@ 142990
补偿 142895
哥哥 142888
弗@@ 142858
夜 142837
喷@@ 142801
交给 142790
要么 142727
模块 142721
微笑 142684
管道 142680
请@@ 142656
边缘 142632
文字 142495
z@@ 142491
拿@@ 142458
旋转 142456
鉴定 142453
散 142439
煤@@ 142427
防治 142401
一支 142373
弄@@ 142357
跟着 142341
守@@ 142337
羊@@ 142259
6.@@ 142111
鬼 142100
国务院 142076
一道 141985
势 141914
艺@@ 141871
敏感 141802
这座 141791
旨在 141769
路线 141728
一群 141671
每日 141639
治 141622
倾向 141613
丢 141575
清洁 141573
电流 141547
紧 141513
响 141507
投 141438
出版 141414
毕竟 141399
晓@@ 141376
迷@@ 141358
镜 141327
春 141315
治@@ 141257
再也 141233
南京 141225
官@@ 141213
感兴趣 141212
辆 141163
视觉 141090
制造商 141023
职位 140988
x@@ 140983
持有 140976
干净 140975
芯片 140972
二十@@ 140947
校 140892
去@@ 140842
墨西哥 140779
辛@@ 140775
因子 140759
遗憾 140732
宽 140627
房产 140440
击 140427
承@@ 140425
获 140377
任@@ 140373
希腊 140360
担忧 140333
昨日 140332
am@@ 140288
各位 140231
汁 140142
民警 140102
氧化 140092
鸿@@ 140050
5.@@ 140044
啤酒 140029
差不多 140020
4.@@ 140019
考察 139990
顾问 139966
矿@@ 139952
细菌 139863
环节 139810
许@@ 139765
动力学 139689
端@@ 139665
道歉 139659
步@@ 139582
互动 139571
暂时 139542
视@@ 139541
菲律宾 139528
16@@ 139515
照@@ 139434
依靠 139357
买@@ 139290
青少年 139268
假设 139223
智能手机 139214
落实 139206
菲 139195
丁 139151
空中 139100
人家 139062
ad@@ 138982
糖@@ 138939
测@@ 138887
该死 138881
益@@ 138863
季 138851
各项 138807
技术@@ 138794
现 138738
叫做 138732
源@@ 138669
各类 138666
随机 138633
人工智能 138582
厚 138569
网络@@ 138479
桌子 138412
友好 138408
实例 138386
人工 138367
手中 138332
股市 138218
防 138181
花费 138113
阀 138091
条@@ 138082
餐馆 138021
署 137948
急@@ 137943
控 137943
沃@@ 137873
三星 137848
软 137846
体制 137845
中国政府 137838
底@@ 137777
史@@ 137746
氧 137681
夏天 137677
胶@@ 137586
合金 137573
尾@@ 137573
冰 137507
考 137483
主人 137464
轨道 137444
加油站 137425
节点 137400
色彩 137324
受害者 137267
语@@ 137242
泰国 137241
谈论 137195
勒@@ 137148
偷@@ 137118
归 137104
禁@@ 137038
遭受 137032
听见 137017
平等 137012
参@@ 136996
客@@ 136996
最低 136984
职 136979
账户 136937
致力于 136914
r 136895
群@@ 136833
美食 136830
兴奋 136826
安全@@ 136817
阿富汗 136797
总体 136792
杀死 136772
瘤 136764
排放 136750
距 136707
候选人 136700
改 136669
种子 136650
ie 136631
最为 136607
警@@ 136606
面包 136512
句 136421
影响力 136394
真相 136344
惊@@ 136293
耶稣 136273
重要性 136220
同一 136152
粗@@ 136077
哇 136049
舒服 135931
想起 135921
金额 135902
并@@ 135895
北部 135874
批发 135759
东部 135741
铜 135726
雪 135609
移植 135578
升@@ 135550
击@@ 135453
派对 135425
伤@@ 135413
贴 135404
伯 135388
不愿 135383
延@@ 135266
慢 135246
往@@ 135220
穆@@ 135093
额外 135074
社会@@ 135071
华为 135070
国家@@ 134940
桑@@ 134880
清晰 134806
班@@ 134790
想想 134737
阁 134729
常规 134682
心情 134651
回归 134650
即便 134615
转向 134572
借 134527
编译 134449
百货 134369
列表 134347
论述 134311
角@@ 134291
浪费 134224
摩@@ 134217
南海 134171
若@@ 134131
不敢 134128
议会 134115
疯 134026
领先 133977
质疑 133943
对抗 133899
胸@@ 133899
为例 133886
影片 133863
ic@@ 133786
委 133694
粉@@ 133690
智@@ 133652
感@@ 133513
竞选 133500
救@@ 133498
地说 133464
退出 133424
六 133347
沉@@ 133317
莎 133221
游泳 133163
财务 133155
四川 133114
得出 133095
罗马 133081
脸上 133024
还好 133023
各自 132919
新鲜 132915
士@@ 132900
扎@@ 132891
背 132860
个@@ 132833
6% 132727
聚会 132696
文档 132688
煤 132597
优先 132569
这部 132561
韩 132531
伙伴 132472
立法 132363
取代 132359
郭@@ 132314
弹性 132276
只会 132253
佩@@ 132240
隆@@ 132237
期@@ 132226
20@@ 132224
射@@ 132165
泵 132153
登@@ 132139
声称 131996
算@@ 131992
目录 131980
讯 131954
打破 131898
此时 131819
2005 131687
纯@@ 131687
武装 131579
槽 131432
牛奶 131409
湖@@ 131406
坑 131379
时光 131329
愤怒 131296
饮食 131266
差@@ 131088
1% 131084
供应商 131051
纷纷 131036
序列 131018
以往 131005
竞争力 131005
长大 130979
案例 130971
癌症 130959
蛋白质 130919
指示 130868
辅助 130847
ol@@ 130819
雷达 130775
日常 130725
晚餐 130719
类@@ 130650
层面 130607
键 130601
年底 130459
天然气 130318
探@@ 130311
土耳其 130302
便利 130253
抗议 130250
昌 130169
创意 130129
在家 130096
两岸 130079
误差 130056
协定 130039
当年 130037
杀@@ 130013
救援 129997
度@@ 129961
答应 129913
某人 129911
住宅 129849
过度 129790
本质 129760
出色 129734
睡眠 129715
健@@ 129693
振@@ 129628
和谐 129617
删除 129568
此事 129549
排名 129537
国内外 129483
糖尿病 129482
代表团 129469
生活馆 129463
发展中国家 129325
巴基斯坦 129228
贵@@ 129185
着@@ 129184
互相 129168
恶@@ 129132
这时 129114
摆@@ 129112
坝 129089
村@@ 129011
炉 129004
毁 128933
锦@@ 128924
高中 128916
浙江 128881
线路 128861
局部 128794
收费 128685
仙@@ 128664
使@@ 128657
戴@@ 128645
魅力 128630
锅 128552
理事会 128490
提示 128402
下载 128377
圆 128359
选手 128329
快递 128295
业绩 128281
仔细 128281
陪 128254
微软 128246
郑@@ 128207
离子 128183
诉讼 128162
医药 128153
主张 128137
观看 128031
转化 127970
溪 127940
五个 127898
路径 127878
乔治 127861
旗舰店 127857
聚 127827
法案 127814
露 127805
空调 127802
诚 127791
发明 127774
退休 127737
秀@@ 127695
受欢迎 127615
文本 127582
得以 127568
靠近 127451
13@@ 127439
纯 127432
弱 127408
坪 127367
那位 127087
轻 127043
斗争 127042
付出 127041
穿过 127015
早就 127012
渴望 127004
发布会 126982
争取 126977
条款 126969
2006 126912
从没 126884
抱怨 126858
即可 126781
蒙 126758
剪@@ 126724
400 126686
戏 126642
纳米 126618
线索 126590
桩 126563
种类 126526
一声 126498
厂商 126465
围@@ 126378
看过 126340
专利 126339
但@@ 126304
伦@@ 126285
标签 126245
4% 126242
胶 126233
玛 126204
胜@@ 126165
高温 126140
电商 126105
ra@@ 126066
超越 125980
接口 125958
动脉 125937
梦@@ 125922
脱 125844
显@@ 125842
卷@@ 125839
读@@ 125819
腔 125758
欧元 125734
舞台 125734
肌肉 125689
划@@ 125672
偷 125642
领 125634
逮捕 125608
大卫 125570
处@@ 125557
江苏 125527
危害 125524
集成 125504
演 125471
牛肉 125449
7.@@ 125441
银 125385
神秘 125373
14@@ 125339
峰会 125338
这方面 125338
三维 125297
7% 125275
轩 125226
该国 125160
送到 125159
富有 125143
无疑 125140
礼 125090
研究进展 125087
虚@@ 125079
大楼 125053
不停 125035
8% 124983
安静 124982
位@@ 124979
通用 124962
安全性 124940
玩@@ 124813
遵守 124768
集体 124759
对外 124716
17@@ 124712
窗口 124679
敢 124674
盐@@ 124626
诗@@ 124626
餐 124619
两名 124527
炸弹 124509
宪法 124464
交通@@ 124462
取决于 124429
乡村 124407
吹@@ 124373
港@@ 124315
地铁 124306
肺 124297
欣赏 124278
货@@ 124271
认可 124246
万人 124209
残@@ 124195
层@@ 124122
延长 124062
第十@@ 124046
et@@ 124040
大桥 124039
老婆 124036
一颗 124018
自信 124015
生日 124001
脂肪 123988
乌克兰 123984
ia 123970
早晨 123948
虎 123826
后果 123823
癌 123790
天津 123751
会计 123738
於 123664
清单 123658
山东 123650
就@@ 123623
毒品 123594
更改 123565
太好了 123525
素@@ 123522
聚集 123495
活力 123464
术后 123445
扩散 123398
电动车 123387
容@@ 123367
新华社 123315
他妈的 123213
优点 123211
喜爱 123164
颗粒 123143
组件 123133
一组 123067
谢 123057
场所 123045
移@@ 123023
骗 122999
边界 122969
会谈 122928
航空公司 122818
发育 122810
市长 122798
广大 122701
种植 122695
太多 122567
基本上 122517
举 122351
石头 122320
力度 122290
毒 122243
可怜 122197
肝 122168
惊讶 122163
读者 122144
隔@@ 122120
量@@ 122116
部@@ 122091
农 122075
地产 122059
一面 122050
良@@ 122011
最小 122010
证书 121984
弟弟 121921
合法 121852
公安局 121834
扔 121833
哲学 121697
茨 121697
小米 121605
司 121598
教练 121594
城区 121582
较为 121380
母 121355
未能 121333
el 121307
回忆 121305
un@@ 121303
莱 121281
玉米 121250
一台 121191
不然 121171
认知 121171
温 121160
一类 121102
回收 121094
脉冲 121094
姐姐 121035
迹象 121035
圣 121004
腾讯 121001
首 120997
分析师 120949
信用 120943
两天 120898
开启 120890
指挥 120868
两位 120842
零售 120777
潮 120697
怎么回事 120676
开玩笑 120673
火锅 120656
大街 120650
没关系 120618
远程 120582
玩家 120566
一遍 120555
粉丝 120552
主管 120522
熊 120496
越南 120412
秩序 120364
三种 120352
变量 120329
艺术家 120263
怀@@ 120245
液体 120241
鲜@@ 120195
自杀 120176
精度 120162
篇 120158
激励 120144
执法 120072
高端 120043
硬 120012
指责 120004
居然 119917
醇 119914
负担 119910
尽量 119824
依法 119819
00 119815
卫@@ 119775
插@@ 119760
Ch@@ 119757
电压 119714
慢性 119683
找@@ 119666
绿 119644
询问 119581
材 119521
扩张 119414
认证 119405
语音 119377
点击 119341
减轻 119287
豪@@ 119270
干预 119232
助@@ 119202
一本 119192
地板 119173
信仰 119151
职责 119143
天使 119140
针@@ 119120
府 119094
团@@ 119033
不让 119029
长度 118940
一方面 118937
洲 118880
中文 118848
离婚 118792
约束 118768
推 118759
众 118720
抵达 118700
虚拟 118698
欧 118674
家园 118626
第二个 118623
度过 118461
琳 118433
接收 118412
测 118408
苏 118370
蒂@@ 118342
套@@ 118335
宜@@ 118320
然@@ 118319
追踪 118310
痛@@ 118284
固@@ 118241
内心 118231
南方 118226
旅客 118183
会员 118149
复制 118148
再说 118106
繁荣 118091
负 118072
血清 117952
予以 117937
精确 117912
政 117888
直播 117877
前进 117816
祥 117810
实体 117800
这边 117793
因而 117788
清理 117784
伟 117774
室内 117685
控@@ 117685
基金会 117610
链接 117601
话@@ 117599
医@@ 117586
大道 117580
艰难 117570
安倍 117506
共有 117492
整理 117480
领袖 117474
论@@ 117458
8.@@ 117425
太平洋 117393
出于 117355
否认 117340
号码 117320
错过 117306
碎 117303
开关 117301
汤@@ 117297
舞蹈 117165
重组 117110
变换 117098
居@@ 117083
柜 117064
森@@ 117062
鼠 116978
替代 116975
东京 116930
泽 116915
机遇 116897
文化@@ 116864
排除 116842
寄@@ 116816
舒@@ 116804
逼 116772
乐观 116735
手指 116648
泽@@ 116643
雄@@ 116612
定期 116588
古代 116487
农场 116457
敏 116457
提议 116406
* 116402
定制 116371
药店 116361
条例 116357
工作室 116332
同志 116331
12@@ 116320
很棒 116283
精品 116257
派出所 116241
如同 116237
宗 116181
订单 116161
险 116087
u 116056
液@@ 116025
哪@@ 116023
原本 115961
蛇 115911
son 115900
举@@ 115880
9% 115871
发送 115818
夫妇 115814
控制@@ 115777
没想到 115734
Q@@ 115709
学科 115708
al 115695
之所以 115694
注射 115677
白宫 115614
吨 115555
高压 115555
引擎 115524
马克 115507
谋杀 115462
武汉 115425
人会 115406
扮演 115382
线性 115359
我家 115296
回报 115200
上学 115194
烧 115127
桥@@ 115126
制裁 115078
孔@@ 115078
赶@@ 115044
病例 115013
数据@@ 115011
耳 115007
精 114978
怀孕 114965
齐 114946
京@@ 114934
邻居 114867
英寸 114856
功率 114847
竹@@ 114826
波动 114825
警 114751
潜力 114637
号@@ 114610
起到 114596
股权 114529
射 114499
周年 114498
页面 114477
仪器 114389
上来 114376
乡@@ 114321
俄@@ 114314
精彩 114300
超声 114296
展现 114265
阿尔@@ 114257
部位 114256
混乱 114248
履行 114235
配备 114217
拖@@ 114213
承受 114203
扫@@ 114106
有限责任 114066
小鼠 113929
混蛋 113903
只不过 113845
宋@@ 113826
闻 113814
局面 113773
大酒店 113727
岩@@ 113672
去世 113624
无线 113573
董事长 113566
物体 113532
报警 113514
友谊 113492
完@@ 113467
庆@@ 113440
冒险 113360
找出 113327
建材 113325
em@@ 113282
蔡 113274
信用卡 113262
必然 113251
补贴 113216
广 113195
央行 113182
发起 113169
古老 113162
直升机 113127
乘 113098
校@@ 113055
遭 113054
玉 112989
积累 112965
初 112919
名为 112909
10% 112791
输@@ 112751
疼痛 112729
代价 112726
之内 112709
守 112703
隧道 112683
嫌疑人 112668
贴@@ 112626
楼@@ 112611
发言 112597
li@@ 112555
彩 112485
出台 112429
望@@ 112406
将军 112323
电视台 112315
债 112312
证@@ 112182
逃@@ 112151
队员 112125
行驶 112124
赚 112106
杨 112098
各方 112087
局势 112085
借@@ 112070
极端 112053
界面 112037
拯救 112019
级别 111939
设计师 111923
随便 111898
美军 111873
息 111821
暴@@ 111797
所属 111789
温暖 111735
自动化 111713
准 111708
如下 111666
王子 111665
骨折 111648
差距 111642
床上 111633
七 111631
选项 111621
第四@@ 111591
搬 111584
岩石 111517
毫无 111495
画面 111489
前提 111473
宠物 111420
舍 111404
容 111394
本周 111385
功@@ 111349
商贸 111323
跳舞 111172
征@@ 111104
这张 111040
境 110980
样品 110961
露@@ 110960
as@@ 110908
云南 110908
占@@ 110877
档案 110869
情报 110854
启@@ 110851
一对 110718
下滑 110698
高速公路 110641
隐藏 110614
贾@@ 110560
荣 110482
决心 110470
统治 110417
短期 110400
优惠 110274
外界 110197
营@@ 110189
一杯 110187
铝 110165
巧克力 110134
至@@ 110119
难民 110072
洛杉矶 110056
例@@ 110055
戈@@ 109996
即@@ 109966
寺 109960
境内 109951
一带 109940
# 109877
第二天 109869
编码 109869
压缩 109832
新疆 109799
电机 109787
摆脱 109782
词@@ 109750
赔偿 109714
仁@@ 109709
英尺 109656
武 109636
争@@ 109604
you 109573
委员 109550
共识 109512
一篇 109477
南门 109434
烧烤 109424
告@@ 109367
矩阵 109296
普京 109278
坐下 109276
监视 109263
尽可能 109256
缓解 109255
带到 109244
失踪 109170
共和国 109157
窗户 109148
师@@ 109117
活跃 109110
厚@@ 109091
锻炼 109091
令人@@ 109003
寻@@ 108979
寨 108953
谨慎 108943
U 108932
凶手 108925
ed@@ 108924
许可 108881
1994 108875
起诉 108831
一间 108816
贝 108774
没法 108769
这事 108765
淡@@ 108709
尖@@ 108697
场@@ 108652
透明 108606
火箭 108561
家电 108531
门口 108520
患 108511
保罗 108508
ed 108456
严@@ 108383
违法 108371
遗传 108358
恐怖 108329
新闻@@ 108271
志 108262
披露 108216
几种 108164
爸 108126
午餐 108114
知 108041
冷静 108036
务 108005
彼得 107988
商场 107971
凤@@ 107956
2004 107931
堆 107931
青岛 107909
菜@@ 107867
狼 107857
情形 107839
沿着 107834
标题 107811
面向 107806
不可@@ 107776
上次 107689
湿 107682
纪念 107563
岗 107536
积@@ 107484
左 107438
加以 107429
商业银行 107383
民间 107378
小吃 107360
反馈 107359
牺牲 107342
与其 107331
不好意思 107327
百 107313
从不 107301
屏 107288
看出 107270
静 107232
搭配 107226
父 107210
旗下 107196
民主党 107196
不安 107176
部件 107171
协商 107155
电子邮件 107141
校园 107112
秋@@ 107104
歌曲 107079
健身 107058
下次 107032
原子 107006
座位 106983
噪声 106979
汇率 106976
赤@@ 106954
次@@ 106951
范@@ 106939
片@@ 106847
表情 106838
惩罚 106783
知名 106768
主流 106753
凡 106676
走出 106638
造 106617
埃 106603
由此 106603
触@@ 106573
八 106520
练 106484
盯 106452
舞@@ 106419
刺@@ 106390
不但 106376
泥@@ 106361
开枪 106290
评@@ 106255
诱导 106235
均匀 106117
粮食 106114
采集 106073
骑 105986
般 105982
北门 105977
设定 105956
条约 105916
制造业 105911
爬 105902
撒@@ 105859
命名 105840
理性 105839
一人 105814
港口 105780
折@@ 105777
占据 105731
累 105713
老鼠 105697
一批 105691
冰箱 105684
庭 105664
北京市 105648
可靠性 105635
激@@ 105627
全球化 105556
id@@ 105548
朗 105516
川@@ 105497
法规 105464
山区 105421
韦@@ 105398
胃@@ 105365
亲自 105355
助理 105331
税收 105322
准@@ 105251
润@@ 105203
舰 105155
碱 105143
控制器 105118
每周 104993
夫@@ 104989
吊@@ 104924
重量 104924
行政@@ 104903
前后 104900
按钮 104816
依 104809
不满 104793
味@@ 104790
肌@@ 104762
粒 104752
西门 104742
恨 104738
寒@@ 104732
ot@@ 104726
草案 104706
熟 104698
配件 104677
灾难 104632
回顾 104604
帽子 104598
海域 104578
大多 104574
签 104574
航@@ 104548
列车 104518
大气 104451
常用 104437
济@@ 104435
钟 104422
烤 104402
耶 104389
公正 104388
终@@ 104359
公 104358
鬼@@ 104326
化合物 104325
内地 104321
36 104297
公告 104255
爆@@ 104247
研究院 104241
城镇 104207
泡 104191
一大 104186
以此 104177
黄色 104148
有力 104138
Al@@ 104132
旁 104118
雾 104107
约@@ 104079
焦点 103992
原始 103980
填@@ 103952
股价 103936
学家 103933
体重 103927
氮 103923
束 103895
猪@@ 103868
组成部分 103858
春天 103852
商业@@ 103839
变革 103807
48 103801
礼@@ 103798
充@@ 103792
护士 103789
道理 103732
涂@@ 103719
钙 103716
夹@@ 103713
过于 103679
仅@@ 103669
电源 103644
厉害 103639
刀@@ 103629
负@@ 103616
代替 103592
豆 103578
正好 103534
销 103451
可不是 103429
微博 103427
事儿 103420
罐 103400
激动 103374
平面 103321
盈利 103313
急 103267
太阳能 103229
争论 103226
乔 103205
房价 103190
扬@@ 103181
难题 103138
手里 103120
公约 103065
公厕 103063
素质 103050
领土 103030
合作伙伴 103029
置 103013
f 102989
跑@@ 102960
当代 102942
似的 102900
出租车 102891
野 102831
浪漫 102792
粒子 102766
鲁 102749
之类 102718
度假 102646
女朋友 102591
用途 102572
斑 102546
行李 102516
远远 102453
价@@ 102443
葡萄酒 102414
将@@ 102391
福利 102384
600 102367
庞大 102348
赴 102341
反而 102298
创始人 102290
鸡蛋 102236
远离 102233
服务@@ 102141
削减 102118
管理局 102109
兵@@ 102057
此类 102056
驻@@ 102001
滚@@ 101999
宽@@ 101972
谈到 101946
仁 101916
水泥 101902
判决 101900
聊天 101862
虎@@ 101841
模@@ 101840
吻 101831
附@@ 101817
睡@@ 101766
效 101765
董事会 101756
悬@@ 101748
讲述 101741
20% 101739
汽车@@ 101711
艘 101703
止@@ 101699
干燥 101688
阿里 101683
久@@ 101658
少数 101645
携带 101609
勇气 101576
卡车 101548
晶@@ 101548
2003 101545
静脉 101479
诸多 101470
旅行社 101456
导演 101436
一根 101415
窗 101404
产物 101378
旺 101366
珠 101363
较@@ 101330
待@@ 101307
探员 101276
00@@ 101218
洋 101218
这条 101169
算是 101153
思路 101143
符号 101120
催化剂 101104
称@@ 101089
信贷 101073
黑人 101000
放下 100999
密 100957
这会 100952
金钱 100945
动机 100919
突@@ 100911
认@@ 100856
试试 100806
欢@@ 100802
镜头 100787
无关 100774
目光 100764
伴随 100749
影@@ 100744
抢 100720
相当于 100708
后者 100702
害 100659
地质 100621
鼻@@ 100597
样本 100589
比尔 100516
君 100492
阵 100422
冬天 100385
海岸 100355
都@@ 100283
势力 100279
周一 100272
周边 100240
柯@@ 100218
可用 100206
真主 100205
苦 100163
好多 100148
稿 100140
耶@@ 100140
轿车 100136
曾@@ 100106
复苏 100079
告知 100068
加州 100058
氧@@ 100028
注意力 100022
女生 100016
皇@@ 100005
不去 99924
主权 99865
平时 99816
系@@ 99800
器官 99771
儿@@ 99769
克服 99744
中国电信 99728
也就是说 99721
体育@@ 99685
这点 99650
刺 99606
审议 99582
可见 99567
昌@@ 99524
先后 99494
异 99464
载@@ 99453
中医 99444
九 99431
财@@ 99375
写作 99356
大国 99353
输 99345
隐@@ 99340
季节 99309
假期 99304
之上 99263
千万 99238
宾@@ 99217
申@@ 99186
胃 99170
CT 99165
欠 99155
扬 99152
教会 99151
脂 99145
鼓@@ 99135
愚蠢 99129
经济学 99099
家中 99073
行星 99066
不住 99030
展@@ 99015
分裂 98939
薄 98888
兼 98829
坚定 98803
资@@ 98790
吓 98789
拿出 98765
叫@@ 98751
细 98731
审判 98705
光学 98700
职工 98670
is@@ 98665
泡沫 98658
认定 98633
薄@@ 98582
北方 98569
曝光 98522
化妆品 98491
封 98474
the 98368
入口 98363
不见 98359
轴@@ 98275
天天 98254
33 98243
派@@ 98213
扣 98201
焊接 98159
引用 98141
拜@@ 98130
一是 98095
平安 98093
调用 98092
象征 98079
交往 98060
若干 97994
影像 97989
单一 97982
喔 97941
犬 97929
命@@ 97906
简称 97855
应急 97849
圣诞节 97841
出行 97838
节日 97815
老年人 97803
缺少 97795
希 97723
面试 97671
建筑物 97642
检@@ 97637
秦@@ 97628
上市公司 97555
修正 97536
要说 97465
街@@ 97464
观测 97464
漆 97430
等到 97418
便是 97417
退 97391
斜@@ 97378
刷 97363
注重 97352
倾@@ 97303
季@@ 97291
呼@@ 97279
庙 97267
渣 97255
裂 97255
乐队 97231
事项 97218
密切 97214
船舶 97204
总裁 97201
购 97197
举措 97109
潜@@ 97097
念 97079
把握 97079
翻 97078
尖 97075
印刷 97060
薄膜 97050
愿望 97022
个性 97005
每月 97000
迟到 96936
_ 96928
精神@@ 96922
树脂 96905
飘@@ 96897
东门 96892
邮政储蓄 96887
籍 96881
租 96880
彭@@ 96864
鹏 96846
自由@@ 96833
下列 96782
消耗 96782
说服 96780
名叫 96770
对付 96727
继@@ 96724
乙@@ 96722
西藏 96715
东北 96704
挂@@ 96689
苏联 96646
分解 96634
减 96617
神经@@ 96604
成像 96588
电子商务 96524
签名 96514
穿@@ 96485
成员国 96475
余 96404
童@@ 96376
斗@@ 96311
会见 96307
经济学家 96274
帽 96273
惊人 96264
酮 96236
物种 96185
成人 96152
刻 96130
抓@@ 96096
5000 96059
800 96049
净 96034
象@@ 96008
南非 96004
这名 96003
椅子 95992
按@@ 95927
透过 95909
右 95899
广播 95847
幅 95846
备@@ 95794
透@@ 95788
侵犯 95786
政治@@ 95777
湘@@ 95762
汉语 95750
君@@ 95721
旗 95693
西安 95659
性格 95651
事务所 95635
侧@@ 95613
无人 95609
凯 95599
关节 95565
心灵 95562
控件 95562
发誓 95555
付款 95539
喝@@ 95523
今@@ 95509
疗法 95479
有权 95466
建成 95462
吸附 95461
滑 95433
减肥 95420
寿命 95412
资 95394
叔叔 95351
日报 95337
辩论 95301
演@@ 95262
尿 95252
豆@@ 95241
垂直 95209
广西 95209
橡胶 95202
民进党 95188
IP 95184
架构 95155
办公 95129
早已 95103
按摩 95085
浆 95013
第二次 94984
两者 94967
审稿 94937
足以 94935
赶紧 94925
枪@@ 94896
泥 94894
团结 94888
烤@@ 94880
150 94855
胺 94853
得知 94834
感激 94778
等级 94742
37 94740
搭 94725
狂@@ 94717
1993 94677
谷@@ 94677
外观 94612
报名 94552
终端 94552
第四 94551
夏 94548
跨@@ 94509
系统@@ 94499
供给 94498
最早 94458
课题 94447
轨 94445
开支 94430
气氛 94428
歌@@ 94423
服@@ 94409
基本@@ 94353
幼@@ 94341
单击 94339
臂 94336
滤@@ 94312
剂量 94304
贫困 94247
闪@@ 94240
相结合 94227
综述 94206
招聘 94202
惊喜 94188
大声 94163
个人@@ 94156
节能 94132
之际 94056
装修 94005
免@@ 94002
原油 93987
专注 93982
谈@@ 93944
准则 93928
阳市 93882
办@@ 93879
审计 93756
国民 93713
缓慢 93710
咬 93702
肌 93678
依旧 93659
河南 93657
要素 93657
柏@@ 93655
决@@ 93645
尔斯 93605
闭@@ 93587
有利 93547
将要 93526
业@@ 93498
院长 93453
伊斯兰 93452
囊 93450
世界各地 93446
酷 93377
恋 93365
邮@@ 93346
珠宝 93338
拓展 93298
发动 93289
综合征 93286
罗斯 93251
鉴于 93248
净@@ 93233
吸引力 93216
柳@@ 93211
ar 93186
凌晨 93181
小镇 93164
灵活 93158
碳@@ 93142
送给 93141
中新网 93137
频道 93127
什@@ 93116
增大 93106
惠 93097
几次 93091
收获 93076
分散 93055
引进 93048
总经理 93029
停车 93027
喜 93022
分开 93017
喝酒 93010
注入 92997
麦 92981
客房 92975
平静 92974
暴露 92963
市场@@ 92950
放到 92928
奶奶 92901
个体 92895
促使 92885
带走 92882
伟@@ 92874
职@@ 92871
99 92856
好事 92845
饰 92829
瑞士 92745
原谅 92708
窝 92693
月底 92636
进化 92625
子弹 92577
38 92573
灯@@ 92572
逃 92463
期限 92382
凭 92333
ur@@ 92317
透 92306
车站 92286
笔@@ 92279
便@@ 92267
天堂 92256
混 92249
当作 92225
岗位 92191
扎 92148
需@@ 92143
布朗 92138
庆 92117
大厅 92099
史密斯 92094
被迫 92090
国民党 92073
文献 92064
筛选 92001
打扰 91945
鼻子 91866
纹 91856
50% 91831
菌@@ 91822
伴 91811
涨 91740
加热 91716
队长 91714
ab@@ 91710
or 91686
ir@@ 91680
有望 91669
打印 91661
潘@@ 91657
it 91655
勇敢 91633
介质 91601
耦合 91591
肥 91584
润 91543
向前 91514
带领 91502
共和党 91459
赋予 91439
一百@@ 91410
傻 91394
恶化 91384
骄傲 91361
福建 91348
迈克尔 91342
9.@@ 91338
一层 91327
凝@@ 91307
电动 91247
靠@@ 91239
有意思 91237
炮 91227
默@@ 91205
尿@@ 91172
资助 91141
PC 91140
值@@ 91129
拼@@ 91129
灭 91123
补 91120
公主 91103
层次 91075
震@@ 91041
四年 90997
莫 90984
防御 90945
中东 90891
乘坐 90877
撒 90872
兽 90828
维生素 90791
冬@@ 90785
友@@ 90768
诚信 90729
移 90721
朗@@ 90636
om@@ 90614
处罚 90532
空军 90524
佛 90521
至关重要 90520
沙漠 90501
录 90477
经济体 90467
人人 90440
失 90433
棉@@ 90426
祈祷 90426
回复 90417
学术 90416
仿佛 90414
清除 90407
坚决 90382
营业 90374
困境 90326
签证 90304
荷兰 90269
探测 90226
全都 90207
高层 90198
铺@@ 90194
管制 90178
杀人 90130
甜@@ 90128
景区 90097
破产 90060
据说 90042
教训 90032
康复 90012
与@@ 89988
必 89987
京东 89983
可不 89960
储@@ 89947
布什 89929
v 89925
军方 89905
职务 89897
我爱你 89891
极其 89879
电信 89814
吸烟 89812
编制 89808
冠@@ 89805
冒@@ 89797
继承 89795
鸭 89786
疲劳 89785
光纤 89768
合格 89755
策划 89745
容量 89716
迎来 89716
头上 89704
点儿 89659
牙齿 89631
发达国家 89629
州@@ 89625
碰到 89595
币 89592
ut@@ 89562
陶@@ 89543
巷 89538
氯@@ 89538
人民@@ 89493
体会 89492
陈 89490
育@@ 89481
30@@ 89471
校长 89458
欣@@ 89449
周二 89441
世界@@ 89429
介入 89406
审核 89403
耳朵 89393
课@@ 89356
存款 89330
签@@ 89320
电梯 89275
汽@@ 89251
清洗 89242
墨@@ 89241
摩托车 89232
更换 89231
激发 89189
纪录 89189
瞧 89186
专用 89102
景观 89085
晚@@ 89077
一架 89070
无限 89069
垫 89046
42 89037
休@@ 89031
es@@ 89017
不锈钢 88971
般的 88959
肥@@ 88950
翼 88947
夏季 88934
程@@ 88900
湿@@ 88899
包裹 88866
缩@@ 88843
不变 88755
播放 88750
海滩 88750
阿里巴巴 88748
祖@@ 88738
小麦 88732
夜晚 88699
选民 88692
播 88684
划分 88664
中央@@ 88662
格局 88641
奖励 88639
us 88597
鹰 88533
光明 88526
制成 88519
处理器 88509
34 88508
天下 88507
菜单 88493
交谈 88452
型@@ 88398
眼前 88381
莉@@ 88363
订 88347
历史@@ 88346
稳@@ 88344
摇@@ 88336
敌 88287
无数 88270
卫生@@ 88262
舱 88230
速率 88229
何时 88208
展览 88200
频 88170
美发 88160
吸 88155
毕业生 88124
腐蚀 88105
汗 88101
订@@ 88076
频繁 88076
末 88024
避@@ 87996
煮 87971
优 87966
GDP 87923
屈@@ 87910
尤@@ 87891
主持 87880
差别 87875
焦@@ 87843
深圳市 87817
ac@@ 87802
科技@@ 87796
纳入 87745
气候变化 87707
奇迹 87705
说出 87660
反正 87655
ey 87625
食用 87623
柔@@ 87621
深化 87618
弗 87593
3000 87585
唱@@ 87573
折 87556
涛 87555
撒谎 87519
错@@ 87501
三十@@ 87492
一所 87487
诞生 87480
敬@@ 87471
55 87457
厕所 87388
误@@ 87345
le 87336
宣@@ 87316
Mar@@ 87301
上网 87267
耐心 87255
and@@ 87202
卡尔 87196
公式 87194
懂得 87123
光谱 87100
激素 87064
总额 87054
脉 87032
负荷 87027
去过 87024
求解 87003
客观 86952
可行 86947
读书 86945
建模 86927
不论 86920
擦 86907
涉嫌 86884
集合 86884
增速 86882
战场 86810
反复 86794
略@@ 86793
同一个 86781
碰 86773
表格 86751
奶 86744
有限元 86738
权益 86722
暗示 86716
塑@@ 86701
相处 86668
码头 86627
充电 86601
浅@@ 86597
三天 86592
售 86592
腐败 86580
一眼 86567
抢@@ 86567
酷@@ 86557
红外 86542
小子 86519
潮@@ 86506
诸@@ 86497
一处 86485
性别 86469
一会 86461
分歧 86448
借助 86426
凉@@ 86417
肯 86402
仓 86386
拟 86376
灌@@ 86366
力学 86336
导航 86334
碧@@ 86311
铝@@ 86308
灰色 86305
姆@@ 86298
吹 86293
一体化 86257
潮流 86243
政权 86242
冒 86223
当事人 86191
担保 86154
欲 86123
尽力 86086
一笔 86080
玫瑰 86059
多家 86041
摄像头 86021
旋@@ 86007
相机 86003
经费 85996
再生 85983
酯 85979
娃 85915
菜馆 85850
志愿者 85811
美味 85802
逆@@ 85802
苏州 85797
赛季 85794
预定 85789
正义 85743
它会 85740
升高 85710
多名 85696
状@@ 85671
言论 85659
极为 85623
没人 85612
落后 85568
协@@ 85553
故意 85511
价值观 85502
硅@@ 85495
运营商 85471
累计 85430
处在 85426
大门 85424
延伸 85397
代谢 85368
1995 85338
孤@@ 85312
美联储 85268
约合 85246
级@@ 85246
意愿 85199
烂 85196
使命 85188
企业家 85183
校区 85177
限@@ 85155
单词 85124
执政 85103
筒 85092
死去 85062
等于 85058
锁@@ 85021
股@@ 85013
围 84990
硅 84986
库存 84983
种族 84981
享有 84977
做些 84976
浩@@ 84971
子女 84970
亨利 84952
我刚 84946
宣称 84939
中午 84938
座@@ 84938
实用 84903
不太 84880
间@@ 84852
周五 84850
荒@@ 84827
桂@@ 84825
熊@@ 84802
双手 84786
战士 84782
赚钱 84765
签订 84759
找个 84747
的@@ 84723
基层 84709
答 84700
考验 84683
佐@@ 84668
阻碍 84629
调控 84619
祥@@ 84573
三大 84568
w 84564
精力 84554
利亚 84551
漫@@ 84523
胆@@ 84507
手表 84463
教育@@ 84459
艾滋病 84457
丙@@ 84450
招 84402
席 84396
亭 84390
家居 84376
进攻 84348
不利 84343
抗体 84304
租@@ 84303
醒 84294
遵循 84286
顺序 84275
瞬间 84274
融入 84274
刻@@ 84270
拖 84269
肠 84237
分手 84176
氢 84127
其余 84109
2001 84050
百姓 83989
焦虑 83946
飞行员 83946
凌@@ 83927
执行官 83920
纵@@ 83916
效益 83862
帐户 83808
档 83778
大师 83767
泡@@ 83760
悦 83753
la@@ 83740
盒子 83687
稳 83683
很长 83676
诚@@ 83641
转让 83604
两家 83594
翔 83590
企图 83567
竞争对手 83557
搞@@ 83545
婚@@ 83532
供应链 83520
腹@@ 83506
字母 83480
30% 83478
垂@@ 83478
当选 83476
兔 83452
不止 83450
坛 83448
劳动力 83418
火灾 83408
功 83391
麦克 83370
沈@@ 83361
鞋@@ 83318
钟@@ 83314
大大 83291
就让 83270
CEO 83260
首相 83227
加油 83221
反射 83209
迹 83169
大使 83146
渔@@ 83146
对应 83141
遗@@ 83136
投诉 83133
湖南 83131
辞职 83085
生理 83016
发放 82983
卓@@ 82972
保健 82970
发酵 82940
oo@@ 82917
维尔 82902
顾@@ 82900
磷 82896
军事@@ 82886
溶@@ 82886
豪 82885
十 82879
灰 82878
肠@@ 82877
孤独 82876
渐渐 82870
照明 82821
粘@@ 82812
计@@ 82778
多元 82763
摩擦 82750
英格兰 82739
废@@ 82734
分局 82733
放心 82724
生物@@ 82707
征 82672
性感 82666
詹姆斯 82666
配套 82659
很小 82638
忽略 82619
歌手 82615
帝国 82596
水中 82580
证人 82551
75 82525
巨头 82514
数目 82509
发达 82508
鼎@@ 82486
难度 82478
祝 82476
姓 82462
踢 82444
热点 82439
荷@@ 82430
警官 82429
神奇 82421
微生物 82416
总会 82354
钉 82346
春节 82332
艺术@@ 82313
笔者 82299
一级 82291
进而 82282
本月 82270
℃ 82261
科学@@ 82214
街上 82194
皇家 82166
舆论 82151
环境@@ 82142
火星 82120
日至 82099
预订 82084
劲 82022
批@@ 82019
ha@@ 82010
风暴 82010
忽视 82000
暖@@ 81960
男朋友 81958
简化 81950
编 81949
崩溃 81930
轴承 81917
局长 81913
二是 81898
设法 81865
检 81862
定量 81842
紧密 81823
资讯 81803
衡量 81780
电缆 81778
美国政府 81759
卖场 81757
带给 81739
好看 81723
这句 81716
雇员 81712
手上 81631
相关性 81622
简 81605
猎@@ 81604
世界杯 81594
2020 81582
乐趣 81514
失业 81511
AI 81484
三次 81471
积分 81462
金融危机 81427
闭嘴 81425
化工 81391
目前为止 81385
激情 81380
豪华 81354
示@@ 81301
大选 81294
尴尬 81291
宗@@ 81277
桶 81204
乘@@ 81192
卧室 81182
芝加哥 81180
传说 81163
生物学 81163
射线 81147
售价 81144
搞定 81140
从中 81119
挺@@ 81118
短信 81077
洁 81074
防护 81059
蒸@@ 81051
宏 81045
困扰 80958
埋 80955
一番 80932
博客 80923
不在乎 80912
绑架 80910
脱离 80874
难过 80868
奶@@ 80863
姓名 80853
珠@@ 80846
W 80833
周六 80831
略 80803
厚度 80757
教室 80753
鲜 80731
挖掘 80728
家属 80692
链@@ 80689
不算 80688
信息@@ 80682
付@@ 80680
内存 80662
美的 80643
堆@@ 80632
致命 80632
疼 80616
欲@@ 80608
百万 80591
院@@ 80506
董@@ 80492
莫斯科 80482
各级 80469
第三方 80468
边境 80468
缺@@ 80442
1996 80427
损坏 80414
加剧 80410
饿 80408
时机 80328
欢乐 80328
蛋@@ 80308
爆 80299
戈 80229
任意 80224
式@@ 80223
样@@ 80205
海关 80186
os@@ 80168
浪@@ 80163
粮 80150
税@@ 80106
无需 80053
薇 80039
幕 80033
杀手 80031
2002 80025
储存 80000
沟@@ 79971
齿 79971
复 79934
出血 79871
平板 79851
剧@@ 79842
公斤 79827
安徽 79799
织物 79774
保安 79767
操作系统 79727
孟@@ 79696
指南 79695
尼亚 79663
低温 79652
料@@ 79648
to 79634
中国农业银行 79595
酱 79592
滩 79587
ul@@ 79579
零件 79575
柄 79568
沿@@ 79538
上海@@ 79529
摧毁 79526
气温 79487
遍 79471
赫 79412
老年 79390
球迷 79387
待遇 79376
金属@@ 79363
董事 79344
故@@ 79322
院校 79279
肩@@ 79266
信息化 79231
郡 79230
协同 79223
头脑 79214
迎@@ 79175
荧光 79117
管理@@ 79107
联想 79097
本土 79086
园@@ 79080
容器 79056
服务站 79055
邓@@ 79048
融@@ 79044
认同 79044
ag@@ 79039
胸 79038
目的地 79012
新能源 79011
机械@@ 79001
贵州 78922
牵@@ 78898
从来不 78886
译 78886
壮@@ 78864
慢@@ 78862
审@@ 78853
遇见 78845
纠纷 78784
务@@ 78772
莲 78770
对称 78746
杀害 78746
最快 78740
沉积 78736
亮@@ 78735
马来西亚 78731
胖 78720
割@@ 78718
指纹 78694
几点 78690
65 78675
内涵 78668
解析 78662
复合材料 78658
炉@@ 78607
终止 78571
一头 78555
搭@@ 78554
独自 78550
指令 78546
历@@ 78538
地带 78535
给@@ 78532
剪 78525
剑@@ 78493
迈@@ 78490
体积 78486
保护@@ 78473
写道 78406
谴责 78404
提起 78389
脑袋 78382
岸 78362
液压 78318
跨 78316
全身 78306
冬季 78296
主导 78284
支票 78244
好消息 78241
英镑 78230
偶@@ 78206
钻石 78186
几分钟 78184
伸@@ 78176
乐意 78162
商家 78154
兰州 78144
行情 78142
祝福 78135
腾 78116
ec@@ 78115
信念 78114
宿@@ 78114
荣誉 78092
监@@ 78091
50@@ 78083
一体 78079
恒 78051
肾@@ 78047
相互@@ 78002
保险@@ 78001
老爸 77989
ig@@ 77977
物资 77958
正面 77931
极限 77930
传媒 77905
施 77895
场合 77892
种种 77884
熔@@ 77881
一个@@ 77872
客户端 77868
业主 77864
势@@ 77852
帝 77842
风景 77842
sh@@ 77834
这笔 77825
月球 77821
锌 77803
芳 77801
入侵 77779
图形 77779
暂停 77764
年纪 77757
军人 77741
摆 77728
河北 77713
知识产权 77682
媒体报道 77675
一同 77674
蔡@@ 77665
商人 77664
奥运 77627
泉@@ 77602
绕 77593
会上 77547
od@@ 77538
公务员 77523
屁股 77521
超出 77515
罚款 77501
心脏病 77494
多人 77474
擦@@ 77453
委托 77441
手续 77434
罪犯 77425
昂贵 77424
一线 77396
幻想 77390
健 77382
好吃 77382
不起 77372
车上 77370
崛起 77351
天才 77344
外科 77310
建筑@@ 77294
祖国 77264
中部 77258
任命 77247
z 77241
凉 77231
厦门 77214
新增 77210
us@@ 77185
晶体 77163
机票 77147
弯曲 77133
问问 77126
储备 77120
确信 77103
民族@@ 77049
轻易 77047
喊 77040
隐私 77038
宫@@ 77011
碰撞 76999
甜 76983
夫妻 76972
无效 76966
六个 76933
擅长 76928
善 76920
不像 76914
内在 76874
姜@@ 76873
益 76845
节奏 76819
葛@@ 76817
骨头 76810
伤口 76791
桥梁 76785
随意 76785
充足 76777
解决问题 76770
Y 76736
涂料 76730
虽 76711
化学@@ 76696
用作 76695
炼@@ 76681
习 76670
帮@@ 76656
单纯 76647
上线 76646
智 76625
琴 76623
社@@ 76618
视图 76613
帐 76608
同性恋 76606
勇 76604
火焰 76591
电极 76582
病变 76578
39 76561
大队 76548
弯 76532
推行 76529
狗@@ 76527
插入 76519
一代 76507
120 76499
凭借 76482
太棒了 76479
女王 76479
支援 76478
肝@@ 76459
街头 76451
攻@@ 76424
概率 76424
汽油 76396
悲伤 76337
服用 76335
溶液 76334
发电 76315
积 76312
贫穷 76284
鞋子 76281
洞@@ 76274
哥@@ 76265
催化 76250
还给 76249
关键词 76239
贸易@@ 76214
滴@@ 76213
过渡 76211
斗 76205
运转 76202
燕@@ 76201
处置 76164
星球 76149
桌 76134
好奇 76080
金融@@ 76052
全体 75992
对照组 75979
龄 75976
iPhone 75972
笑@@ 75938
均衡 75838
日本@@ 75832
几何 75822
im@@ 75791
体外 75791
泛@@ 75788
一度 75779
威廉 75777
一股 75776
解除 75758
批 75729
视野 75713
幅度 75704
店@@ 75696
载体 75685
周三 75666
定价 75666
延续 75654
死者 75653
版@@ 75648
中国联通 75606
人力资源 75564
无聊 75563
政党 75546
帝@@ 75537
欺骗 75533
磅 75532
统@@ 75523
炒@@ 75520
二次 75507
鲍@@ 75496
旅@@ 75490
神经网络 75486
视角 75484
av@@ 75466
截@@ 75452
衬衫 75432
芯 75409
磁 75402
适@@ 75399
仓库 75359
裤子 75337
热爱 75333
词汇 75317
前来 75295
主义者 75280
不敢相信 75278
案@@ 75260
腰 75252
一阵 75242
砂 75217
开口 75215
再度 75189
浪 75164
不清 75160
规@@ 75158
起飞 75131
河流 75128
诚实 75115
阵@@ 75112
雄 75086
第五 75050
操@@ 75039
都市 75006
新西兰 74988
诸如 74972
核武器 74955
一方 74952
干涉 74946
肾 74942
钠 74939
J 74935
大人 74918
夹 74911
尊敬 74911
中介 74904
弯@@ 74901
编写 74898
劳动@@ 74897
述 74896
沿 74895
受体 74888
停留 74866
洁@@ 74853
关税 74851
大于 74845
白天 74825
震惊 74805
岛屿 74761
迈克 74751
唱歌 74718
收拾 74704
墙上 74676
骂 74633
戒指 74604
考生 74604
看待 74596
恶心 74584
局@@ 74564
帕 74556
盆地 74546
甚@@ 74543
家乡 74540
借鉴 74526
Car@@ 74504
多样性 74500
留言 74466
保守 74462
谋 74392
强劲 74387
议题 74361
元件 74336
有益 74336
拍照 74314
吐@@ 74281
限 74265
扶@@ 74255
艇 74236
自助 74235
高管 74224
妳 74223
ine 74210
永久 74205
拆@@ 74201
课堂 74183
为止 74176
预约 74153
对照 74129
头部 74107
生病 74097
结果显示 74082
毫米 74076
中华 74051
上半年 74038
et 74035
年间 74027
吕@@ 74018
秘书 74011
可行性 74002
利比亚 73998
少年 73976
惨@@ 73963
宇@@ 73949
餐@@ 73936
拜 73933
浸@@ 73923
掌@@ 73913
联赛 73895
赶到 73887
公益 73879
审 73852
带动 73848
废水 73847
脖子 73846
微波 73841
买卖 73838
新生 73836
竞赛 73821
穆斯林 73809
购@@ 73790
逊 73788
威尔 73785
枚 73737
聊 73731
工作@@ 73727
住@@ 73722
来讲 73721
故 73705
板块 73703
返@@ 73700
改性 73694
砖 73693
口袋 73684
欣 73682
向上 73678
ou@@ 73676
国防 73676
隔离 73674
本国 73651
闹 73635
乐园 73634
拔@@ 73631
断裂 73631
瘦 73623
部落 73608
总量 73603
斑@@ 73584
缝 73569
带上 73553
模板 73552
扩@@ 73514
嘉 73509
图案 73503
乳 73501
株 73498
历 73490
继 73467
油价 73457
魔 73453
流体 73447
冷却 73440
猜测 73431
眼中 73428
平方米 73426
列出 73423
书籍 73419
船上 73401
书记 73390
工程@@ 73387
搭载 73387
卫 73385
姐妹 73384
后续 73374
箱子 73373
拍卖 73361
采 73361
操 73345
挑@@ 73342
难以@@ 73338
ph@@ 73313
ay@@ 73297
51 73295
冠 73283
珍 73239
俊@@ 73235
颗 73233
司@@ 73220
可惜 73193
绝 73175
内衣 73171
良 73160
工作者 73123
真空 73118
46 73113
曹@@ 73092
凡@@ 73088
绝不 73078
录像 73027
频@@ 73017
叶片 73015
权威 73003
冻@@ 72975
应付 72970
偶尔 72940
追 72929
旁@@ 72920
悲剧 72916
邻@@ 72887
玻璃@@ 72876
礼貌 72874
慈善 72869
锋 72860
不良 72858
白人 72851
胎 72850
上下 72828
手工 72824
开发商 72800
在场 72793
齿轮 72788
差点 72785
母婴 72766
锡@@ 72745
此后 72705
香港@@ 72700
看不到 72688
救助 72663
持@@ 72662
所得 72654
千 72652
栏 72639
吞@@ 72613
有钱 72609
文中 72601
解读 72601
依照 72587
经营部 72578
浏览 72575
肺@@ 72568
半个 72542
手臂 72536
导 72534
拿走 72529
提名 72461
彩色 72451
联络 72451
强制 72425
大地 72408
屋顶 72391
御@@ 72383
月亮 72378
收缩 72360
外国人 72359
字符 72335
好人 72321
疫情 72298
贝尔 72296
最多 72287
碎片 72265
纬度 72265
百分点 72260
苏格兰 72246
艾 72235
信用社 72223
他們 72215
丧失 72198
躲 72194
荣耀 72191
天线 72174
中期 72161
支持者 72130
肌肤 72121
悦@@ 72113
44 72101
此举 72096
扣@@ 72074
总之 72045
坦@@ 72017
柱@@ 72001
真理 71994
缺点 71973
那条 71946
激活 71941
祖 71931
企 71922
窗帘 71902
商标 71891
登陆 71885
通报 71870
折磨 71833
不介意 71830
经销商 71769
推迟 71768
印尼 71740
枝@@ 71701
迷 71674
形容 71664
好莱坞 71659
专营店 71649
设想 71640
唐 71590
酒精 71580
顺便 71529
提及 71525
评 71504
框 71497
ent@@ 71481
冯@@ 71473
子宫 71469
迫使 71439
医 71436
暗 71418
农产品 71406
当初 71404
高血压 71362
挡 71340
射击 71329
延迟 71296
电视@@ 71279
摸 71255
牧师 71237
铅 71237
假装 71233
收藏 71226
稍@@ 71219
爱好 71214
坚@@ 71194
严肃 71190
屋@@ 71190
猛@@ 71182
名义 71171
魏@@ 71161
还原 71144
从前 71128
京 71126
狂 71115
圈@@ 71112
编程 71094
电气 71080
忍受 71069
毫无疑问 71031
外交部 71029
贷 71023
为期 70992
膨胀 70989
有效性 70980
吉姆 70930
沃 70910
显 70897
亏损 70894
演习 70877
47 70868
两周 70864
饲料 70850
笑话 70843
中药 70840
地理 70823
露出 70806
精准 70798
交叉 70796
揭示 70787
市区 70779
飞船 70779
插 70771
初期 70767
产能 70730
抛@@ 70724
大连 70706
罗伯特 70670
抵押 70654
机电 70654
赖@@ 70651
海水 70642
涉@@ 70609
器@@ 70594
研究生 70588
海鲜 70569
区分 70555
许可证 70538
Sh@@ 70534
村庄 70533
医师 70532
开发区 70532
战机 70523
密封 70522
意志 70506
43 70493
不准 70481
肖@@ 70475
震 70453
缅甸 70448
瑞典 70434
福特 70425
量子 70406
众人 70383
聚合物 70377
周日 70374
上课 70370
挑选 70343
刘 70330
联合@@ 70330
苗 70324
IT 70320
周四 70290
钢铁 70281
ap@@ 70279
一号 70269
想着 70241
当今 70238
令@@ 70230
研究员 70218
底部 70217
41 70207
摩 70195
增 70184
纺织 70183
Sp@@ 70164
热量 70161
许 70133
置@@ 70129
快餐 70127
人民法院 70122
半岛 70120
跌 70115
作物 70099
罕见 70096
as 70089
锅炉 70042
剩 70041
审批 70036
赛事 70031
险@@ 70031
网吧 70012
模具 70006
沙发 69977
逐@@ 69965
man 69959
旺@@ 69957
比如说 69934
接待 69927
钻@@ 69926
精英 69921
占领 69919
放置 69919
封闭 69915
车子 69907
炒 69890
网格 69876
变动 69868
大赛 69859
浓@@ 69852
自豪 69813
试着 69811
恐怖主义 69800
行程 69788
只好 69785
北约 69779
渡@@ 69778
钱包 69751
戏@@ 69721
感冒 69720
奉@@ 69718
爬@@ 69706
竹 69685
运气 69683
ke 69674
研@@ 69650
脆弱 69644
点钟 69642
变更 69641
船长 69640
氢@@ 69619
ell 69597
后期 69589
附属 69551
刮@@ 69547
油田 69547
苗@@ 69534
爱尔兰 69533
唯@@ 69529
模仿 69493
研究者 69488
引领 69485
裤 69485
浅 69473
修理 69467
份额 69458
吐 69449
渗透 69445
保险公司 69439
培育 69430
例外 69418
勇@@ 69407
湖北 69396
权限 69393
航行 69376
of 69372
小小的 69365
称之为 69356
把手 69352
几周 69348
过滤 69311
水分 69304
碎@@ 69304
弥补 69294
操纵 69291
缸 69291
北美 69255
败@@ 69255
奋斗 69254
童 69245
华人 69242
树木 69242
停下来 69171
老兄 69153
穿越 69149
亚马逊 69137
缩小 69109
晋@@ 69085
收取 69071
溪@@ 69068
一门 69057
获@@ 69056
放缓 69034
演奏 69032
山西 69030
一点点 69027
率@@ 69001
后悔 68975
实业 68966
纽@@ 68958
金融机构 68942
联网 68924
节省 68920
安娜 68900
希拉里 68885
具@@ 68883
堂@@ 68858
一口 68845
邮政编码 68829
恶 68825
参议员 68810
马丁 68768
教学@@ 68751
碗 68743
脸@@ 68734
分化 68715
壁@@ 68686
撞@@ 68663
开设 68632
700 68631
间接 68585
架@@ 68583
瑟 68582
尺 68562
人为 68545
工会 68522
固体 68519
浅谈 68518
青春 68511
鼓 68476
护照 68453
附加 68446
百年 68445
数字化 68419
汪@@ 68418
工业@@ 68389
臭 68388
管理系统 68369
反弹 68365
砂@@ 68359
改革开放 68334
而成 68329
缩短 68313
获悉 68299
这块 68287
无论如何 68263
中断 68262
邪恶 68259
优雅 68252
广阔 68252
心态 68243
稀@@ 68234
中毒 68211
洗衣 68203
裂缝 68184
着手 68182
晶 68172
洪水 68149
耗@@ 68141
学到 68134
辣@@ 68122
庄@@ 68101
暂@@ 68063
策 68061
营业部 68047
人来 68045
尼克 68037
备 68031
几 68027
普及 68019
国产 68010
氛围 68009
生活@@ 68007
娅 67989
小女孩 67981
进出口 67975
钓鱼岛 67969
拥抱 67948
第五@@ 67947
皇 67945
床@@ 67931
映射 67930
um@@ 67891
爷爷 67878
自行 67850
会晤 67822
伤心 67822
职员 67805
罪@@ 67804
男女 67789
人均 67771
问道 67769
杆菌 67762
是@@ 67761
成形 67745
一刻 67730
刑@@ 67713
丢失 67712
坚强 67702
纪@@ 67678
皆 67665
罩 67657
3D 67641
航母 67635
蜂@@ 67630
Facebook 67628
58 67626
折扣 67625
厘米 67623
鸣 67603
见证 67602
价格@@ 67601
总店 67581
发光 67580
聚焦 67575
指望 67556
广告@@ 67555
魔法 67546
新年 67540
数码 67530
航天 67526
姐 67512
供电 67502
走过 67498
下雨 67493
传送 67489
Q 67480
数字@@ 67471
次数 67468
意图 67462
爱心 67461
邮政 67440
整 67424
崇@@ 67411
探 67398
世上 67348
默 67332
顿@@ 67321
师傅 67303
索引 67300
潜艇 67298
ev@@ 67274
西北 67273
过后 67270
合约 67258
阶 67255
煤炭 67251
旗@@ 67236
将近 67234
释@@ 67203
借口 67195
强迫 67191
实质 67173
动物园 67161
长江 67157
口腔 67135
寿@@ 67135
展望 67091
账 67091
感动 67086
竟 67058
票@@ 67054
醒来 67027
行走 67023
金色 67019
绘画 67008
痕迹 67007
女友 66976
虾 66960
别说 66955
举动 66952
2019 66950
觉 66950
分数 66945
火车站 66938
协作 66931
顶级 66907
公共@@ 66905
ob@@ 66898
炮@@ 66898
有害 66877
驾驶员 66866
两大 66862
忠@@ 66845
40% 66833
加密 66828
第@@ 66810
净化 66799
流动性 66799
犹太人 66794
几十年 66783
散步 66783
未经 66782
自然@@ 66779
年初 66778
圣经 66774
滴 66744
制约 66732
四周 66702
把@@ 66689
浴室 66683
组建 66663
Ma@@ 66627
温和 66626
门诊 66625
波士顿 66607
蚀 66590
迷人 66553
纪 66552
开门 66550
熟@@ 66549
寄 66543
圣诞 66525
专项 66523
并发症 66503
己 66499
麻 66492
惹 66491
科研 66491
美女 66482
忠诚 66466
52 66462
大胆 66451
中华人民共和国 66442
伴侣 66437
累@@ 66406
开采 66405
坎@@ 66404
法治 66402
鹿 66351
病理 66346
抛弃 66339
糟 66331
被告 66329
人大 66325
信道 66323
短暂 66319
放大 66317
船只 66311
迎接 66311
锐@@ 66311
检索 66310
约定 66290
附 66281
同情 66248
一行 66245
婚 66227
炸@@ 66218
符 66217
回事 66199
安慰 66184
88 66178
千年 66178
播@@ 66158
类别 66152
49 66149
生产@@ 66099
示 66076
破裂 66044
征收 66029
水稻 66017
锅@@ 66005
均@@ 65964
废 65960
上海市 65925
考核 65914
议程 65903
信息技术 65900
之地 65889
发型 65877
阿拉伯 65852
财政@@ 65851
上方 65845
安置 65842
修订 65830
ay 65825
袭 65803
地狱 65790
这才 65781
总数 65756
清醒 65754
对面 65749
长城 65741
钢琴 65740
下车 65738
.. 65735
陵 65734
江西 65714
逃跑 65709
车里 65708
芳@@ 65705
配方 65695
日本政府 65627
试点 65623
最具 65613
辣 65599
被捕 65593
我用 65584
光线 65569
舞会 65566
增多 65562
植@@ 65532
基督教 65530
当下 65521
候 65513
告 65509
腰@@ 65506
报价 65472
日晚 65462
噪音 65441
CA@@ 65438
布置 65416
尘 65404
努@@ 65383
平稳 65352
稍微 65347
广东省 65311
兹@@ 65308
天赋 65305
调度 65299
360 65284
滚 65272
发病 65216
繁@@ 65216
姿态 65212
凶@@ 65205
心理学 65198
坦克 65195
陌生人 65184
污水 65164
书店 65161
火山 65154
所述 65150
愿@@ 65140
场地 65139
语法 65124
平民 65102
切除 65086
判@@ 65081
80% 65054
染 65052
销售额 65046
训 65024
战胜 65010
雇主 65009
苯 65007
标识 65002
受益 64997
当日 64988
枝 64974
海南 64965
韵 64917
有意 64902
严厉 64882
养老 64879
迁移 64871
沮丧 64868
缺 64868
启示 64839
直径 64823
民主@@ 64814
埋@@ 64783
西南 64782
全年 64765
聚合 64761
崔@@ 64695
肚子 64685
公共汽车 64674
列入 64667
干细胞 64633
古巴 64621
宣言 64613
VR 64583
授予 64558
废物 64530
大豆 64506
斌 64483
旧金山 64472
广州市 64470
漏@@ 64450
年内 64442
上个月 64439
出门 64439
阻@@ 64434
1992 64425
恶劣 64414
寒 64410
诗人 64409
肽 64408
郎 64390
1.5 64356
Re@@ 64340
葡萄 64332
抢劫 64331
人道主义 64330
育 64318
─ 64297
ard 64289
百分之@@ 64272
步伐 64268
身材 64260
陕西 64215
总监 64202
狼@@ 64202
站@@ 64185
竞@@ 64175
星星 64174
英国人 64171
棉 64145
餐饮 64143
少女 64133
各大 64132
生效 64131
夜间 64118
荣幸 64074
米兰 64068
56 64065
琪 64055
芬 64055
1999 64053
争端 64026
效@@ 64025
电脑@@ 64012
烈 64009
日起 63979
高铁 63978
防卫 63955
国有 63939
球场 63939
赞成 63935
走上 63935
饭@@ 63924
买家 63904
战术 63901
巩固 63889
外套 63856
航空@@ 63855
属@@ 63851
怀 63851
另@@ 63849
戏剧 63840
调研 63832
勤@@ 63822
规格 63816
绕@@ 63789
Ar@@ 63784
硫@@ 63774
现行 63754
击败 63744
树立 63741
走路 63730
丰田 63724
市场经济 63724
氟@@ 63723
持久 63708
个别 63706
群岛 63698
父@@ 63681
抵抗 63680
起床 63677
裙子 63663
门店 63661
中小企业 63653
漏 63641
一艘 63632
剩余 63631
德尔 63617
狮子 63611
灾 63608
怒 63593
高科技 63590
跟@@ 63562
一幅 63561
神圣 63548
精密 63544
一辈子 63541
会面 63541
坦 63533
醉 63526
诈骗 63504
烟草 63488
隔 63480
新建 63465
简要 63455
嫁给 63439
烦恼 63434
汉堡 63418
中国工商银行 63403
登上 63402
切实 63400
烈@@ 63380
娘 63374
自愿 63373
自治区 63360
锁定 63353
凯特 63352
在乎 63351
执@@ 63344
控股 63339
气息 63302
辉煌 63296
机组 63282
设有 63268
挤 63248
做事 63241
发展趋势 63238
刑事 63234
而来 63233
抽 63224
一顿 63186
怪@@ 63172
减小 63168
典 63167
下周 63157
环球时报 63151
站点 63139
传奇 63136
这片 63134
Le@@ 63122
1998 63092
介@@ 63074
迁@@ 63057
仔 63055
电动汽车 63052
外出 63047
乃至 63029
1997 63028
寒冷 63015
导向 62993
婚纱 62986
防范 62976
恐怖分子 62935
星期五 62935
各种各样 62925
欧元区 62922
氨酸 62921
高峰 62919
理财 62918
疏@@ 62895
新一代 62873
连锁店 62849
钾 62849
相互作用 62843
冬 62840
身份证 62837
大力 62823
轰@@ 62823
毁灭 62812
阶层 62812
茎 62804
魂 62803
一事 62795
面馆 62772
克林顿 62760
宽带 62754
货车 62720
脏 62719
阴影 62716
诗歌 62694
玲 62675
GB 62656
落地 62647
木材 62636
敏@@ 62634
ud@@ 62633
走廊 62628
昆虫 62620
量化 62593
困 62587
演变 62583
购物中心 62582
演示 62563
路面 62545
喀@@ 62543
亮相 62527
凤凰 62495
闲@@ 62485
罪行 62481
户@@ 62479
含义 62473
人民政府 62459
段时间 62456
闹@@ 62434
肥胖 62432
永恒 62429
女孩子 62422
季度 62420
╟ 62411
螺旋 62384
患有 62366
积极@@ 62357
搜寻 62350
劳 62343
帅 62336
重申 62327
砸 62322
支架 62299
确切 62297
保养 62287
答@@ 62282
仲裁 62272
消化 62260
三分之一 62250
85 62249
斯特@@ 62245
此基础 62235
职能 62232
无比 62231
黏@@ 62212
岳@@ 62196
第六@@ 62173
最优 62167
100% 62164
分割 62135
就此 62117
衰退 62112
做过 62093
鸟@@ 62088
高质量 62087
跃@@ 62079
顾 62066
茂@@ 62058
一流 62039
窗@@ 62026
济 62024
天地 62020
胶囊 62011
不明 62009
滨@@ 62002
示例 62001
消防@@ 61998
虚假 61995
好玩 61976
留给 61968
舍@@ 61954
膜@@ 61949
旅 61932
腾@@ 61923
止 61921
狭窄 61898
驰 61854
老公 61828
水库 61827
停下 61823
学员 61815
城堡 61808
携手 61805
那次 61804
验@@ 61779
姿 61777
椅 61777
大海 61756
流域 61756
新车 61740
宝贵 61725
增长率 61717
指向 61715
助手 61714
附件 61705
快捷 61691
据@@ 61689
抚@@ 61688
绝大多数 61688
颇 61686
早些时候 61673
蒸汽 61667
年级 61649
伪@@ 61636
大城市 61629
敬 61628
楚@@ 61612
拜访 61610
ov@@ 61605
秋 61586
可谓 61585
当成 61584
勤 61577
业界 61563
磨 61563
毒性 61562
无辜 61557
器件 61555
95 61547
镜子 61540
之旅 61535
说谎 61528
访 61514
候@@ 61510
应变 61499
齿@@ 61491
查理 61470
波兰 61465
静态 61453
昆@@ 61432
台北 61428
国防部 61422
危@@ 61383
先前 61367
兼@@ 61362
初始 61338
凸@@ 61330
苏宁 61309
54 61296
水面 61291
瓜 61290
氮@@ 61286
单身 61281
流通 61270
沉默 61249
op@@ 61238
白痴 61222
绝望 61221
注@@ 61215
沥青 61176
淀粉 61172
染@@ 61163
富裕 61141
拉斯 61115
内阁 61111
必需 61109
文件夹 61108
手法 61103
楼梯 61095
会馆 61091
莲@@ 61080
培训中心 61076
不肯 61071
生育 61020
格林 61011
句子 61005
树林 60992
奖金 60979
成型 60964
小龙 60951
做成 60946
遮@@ 60931
弗兰克 60915
APP 60913
宁愿 60913
环境保护 60905
间谍 60903
一分钟 60885
全力 60858
步行 60855
尊@@ 60846
功夫 60826
成年人 60817
保密 60806
蜜@@ 60794
廉价 60787
午饭 60768
一时 60721
泄漏 60696
欲望 60694
经度 60677
同期 60635
报表 60635
反对派 60565
预报 60544
脂@@ 60540
没用 60516
日志 60505
织@@ 60497
牌@@ 60492
册 60488
奶粉 60467
阿根廷 60464
克隆 60456
就行了 60455
缩 60446
ak@@ 60424
默认 60423
游行 60421
巴勒斯坦 60416
并购 60412
结局 60389
全是 60377
缘@@ 60376
辉@@ 60365
灯光 60360
灾害 60353
确立 60351
宿舍 60350
40@@ 60347
半年 60340
深深 60333
瓜@@ 60309
营造 60299
娶 60298
名人 60283
玄@@ 60264
示范 60259
城里 60247
睡着 60223
无线电 60207
商城 60204
偏 60156
栋 60156
官兵 60150
放入 60142
午@@ 60134
排队 60120
运动@@ 60105
免 60080
援引 60075
专卖 60064
术语 60059
哈利 60056
选用 60049
挤@@ 60036
野生 60036
CO@@ 60030
填写 60022
学位 60018
效力 60016
坏@@ 60007
蕾 59976
血压 59974
从此 59972
嘉宾 59966
浦@@ 59957
烫 59932
篮球 59923
提案 59904
拨 59903
径 59901
am 59879
亲密 59877
鼎 59875
and 59874
53 59869
ow@@ 59868
谋@@ 59854
大自然 59853
中国建设银行 59834
老虎 59831
陆续 59827
An@@ 59823
参与者 59809
霞 59807
直线 59793
镍 59791
墨 59770
半导体 59768
热门 59738
登录 59737
面部 59737
具体@@ 59711
水下 59701
侠 59696
挖 59683
去除 59680
妹 59676
码@@ 59669
境外 59664
除此之外 59659
十二@@ 59658
配有 59658
塘@@ 59655
磨损 59652
英语@@ 59647
王国 59645
ch 59626
干吗 59622
真诚 59618
气味 59571
卓越 59560
鹿@@ 59556
优良 59546
诱@@ 59542
十八 59531
留下来 59530
爵士 59496
有名 59480
衫 59479
碰@@ 59466
浏览器 59463
检察官 59461
ic 59445
这辆 59445
捷@@ 59417
每当 59405
双重 59380
事先 59351
违规 59339
整天 59293
屯 59285
挖@@ 59272
初探 59268
听听 59243
疑@@ 59230
日常生活 59215
市中心 59196
风味 59180
祝贺 59175
说实话 59174
铸@@ 59167
解放 59148
爱好者 59139
面板 59127
小时候 59117
AT@@ 59105
执行@@ 59102
哪怕 59101
氏@@ 59090
放开 59075
仙 59073
构@@ 59059
美方 59059
苍@@ 59058
看不见 59054
图书 59047
飞往 59037
油气 59031
昆明 59026
套房 59022
搭档 59013
Web 58995
身后 58990
汽修 58973
粗 58971
底下 58969
际 58950
溜@@ 58949
消防 58946
剧院 58937
燃@@ 58916
二维 58905
住宿 58889
通胀 58838
十足 58836
厂@@ 58811
接入 58809
宁波 58806
培@@ 58802
男生 58802
小编 58789
恋爱 58776
漏洞 58776
律 58768
遥远 58764
万达 58758
lo@@ 58734
淋@@ 58723
休 58722
参议院 58717
门窗 58684
一堆 58680
型号 58678
无可@@ 58667
决赛 58666
消灭 58657
法测定 58656
新娘 58636
打败 58617
渡 58606
高考 58596
小男孩 58564
灵感 58563
交易所 58562
搬@@ 58519
公司@@ 58517
芬@@ 58501
起点 58491
巧 58467
沈阳 58464
口味 58460
不可思议 58454
26@@ 58452
ing@@ 58424
不确定性 58415
东南亚 58373
像@@ 58373
截止 58359
囊@@ 58314
盆@@ 58314
不出 58311
事发 58305
跟随 58273
没见 58271
猴子 58257
男友 58248
恶魔 58234
首歌 58234
锡 58232
漫长 58216
屋子 58212
一副 58208
贫@@ 58129
甲基 58117
以至于 58109
近来 58109
疑问 58104
KTV 58103
谎言 58101
咬@@ 58100
位移 58097
流感 58092
踏@@ 58088
精致 58074
吃惊 58070
发作 58067
模特 58058
变异 58049
涂层 58049
瘦@@ 58043
似@@ 58029
珍贵 58023
动手 58021
前期 58016
预 58015
72 57995
基督 57991
事宜 57988
同行 57986
iv@@ 57985
肯@@ 57977
直至 57967
钻 57966
贺@@ 57965
跑步 57965
遇 57965
拨@@ 57957
联合会 57956
秋天 57953
爽 57942
怡@@ 57938
赶 57919
负载 57906
预警 57893
铃 57881
AR@@ 57858
ID 57857
盆 57850
字符串 57848
鲜花 57840
大使馆 57839
捐赠 57830
牧@@ 57824
桌@@ 57818
过分 57810
接种 57808
标准化 57801
铭@@ 57794
宜 57780
奔@@ 57772
市场份额 57768
对接 57755
予 57754
伯格 57744
要点 57742
文物 57740
窝@@ 57738
音乐@@ 57715
拼 57711
美妙 57705
占有 57693
晚会 57685
分泌 57681
淡 57674
赏@@ 57672
分成 57671
献@@ 57665
念@@ 57659
情节 57654
扶贫 57646
申报 57645
黛@@ 57627
弱@@ 57613
添@@ 57609
鸿 57606
传达 57605
幽默 57603
串 57590
朱 57588
霜 57584
霉素 57572
弃 57568
就是说 57563
穷@@ 57560
ton 57546
提问 57536
粥 57532
泄露 57529
伯特 57523
明亮 57519
暴雨 57496
涂 57491
汇报 57487
下方 57485
别墅 57484
受损 57479
倾斜 57467
串@@ 57466
难以置信 57462
人文 57457
看好 57426
拔 57412
县@@ 57398
月初 57390
似 57387
路店 57364
尔特 57361
你家 57342
界@@ 57317
报复 57307
源于 57298
审理 57289
人力 57276
智力 57268
老大 57259
叙述 57255
计算方法 57254
限度 57214
修建 57212
踩 57210
看作 57171
绳 57171
聊@@ 57159
Jack 57133
稍 57132
取出 57115
一员 57114
平均@@ 57100
遗产 57092
花钱 57089
媒 57069
90% 57066
太大 57055
臭@@ 57046
派遣 57040
规矩 57023
主持人 57022
摄 57020
池@@ 57018
交付 57016
纯粹 57015
这款 57015
传统@@ 57014
屋里 56994
塑造 56991
企业@@ 56982
阻力 56976
兔子 56958
郑州 56958
ex@@ 56955
一首 56955
查找 56931
1990 56927
善良 56912
地毯 56900
80@@ 56896
ty 56896
想像 56890
煤矿 56886
总局 56880
太阳@@ 56877
服务员 56872
上床 56868
棒@@ 56867
生于 56858
主办 56845
译@@ 56841
酚 56837
画家 56829
大事 56828
庄村 56812
涨幅 56801
尺度 56794
态势 56776
二氧化碳 56771
杂 56755
解雇 56734
规 56726
交互 56722
繁殖 56718
滑雪 56707
有事 56705
排列 56693
看电视 56693
ion 56690
个性化 56672
党员 56660
管理员 56656
70% 56653
徒 56653
适宜 56646
妮@@ 56643
走势 56632
二战 56627
涵盖 56622
驾@@ 56616
降解 56613
批发部 56602
桃@@ 56599
澳门 56591
翠@@ 56584
数十@@ 56568
热带 56563
扭@@ 56556
降落 56552
崇拜 56529
本届 56523
旅程 56514
eg@@ 56491
普通@@ 56478
技@@ 56475
星期一 56457
饼干 56457
敦促 56449
忽然 56448
恰当 56433
平常 56429
售@@ 56416
自动@@ 56414
物业 56413
颈 56394
第三个 56392
瑟@@ 56389
丸 56383
原有 56376
销@@ 56356
倡议 56328
仿@@ 56316
凋亡 56276
单个 56268
桑 56267
券 56259
渐@@ 56256
弟 56237
备受 56236
货币政策 56235
殿 56206
广义 56204
发现自己 56199
呼 56196
四处 56178
少数民族 56177
人心 56165
数学模型 56162
招生 56159
草原 56159
客厅 56157
棚 56156
一日 56145
家庭@@ 56139
抵@@ 56132
神经元 56101
灭@@ 56084
户外 56071
上诉 56066
正宗 56066
过多 56049
磁场 56039
恒星 56037
探测器 56026
斯坦 56023
动画 56018
海底 56018
好象 55987
克里斯 55976
生产力 55959
98 55942
全市 55937
线下 55930
收益率 55928
淘汰 55926
觉@@ 55925
感知 55920
摘@@ 55916
电厂 55911
来临 55908
氯 55888
采取行动 55887
颜 55882
很漂亮 55854
苯@@ 55845
加固 55843
ers 55842
特工 55834
纤@@ 55832
出手 55828
少量 55828
卧@@ 55815
El@@ 55814
死刑 55800
比较@@ 55792
多元化 55780
拘留 55776
焊@@ 55772
计量 55770
加载 55745
语句 55718
鼻 55716
器材 55713
园区 55712
护 55711
递@@ 55698
指引 55691
高等教育 55685
振 55684
应有 55681
投资@@ 55652
轻轻 55651
驾 55645
所示 55642
宾 55630
创立 55609
缝@@ 55599
赞@@ 55594
分析方法 55590
尔德 55590
沙龙 55590
电磁 55589
涨@@ 55588
疑 55577
传承 55564
设@@ 55545
利息 55544
开会 55541
衡@@ 55523
闻@@ 55513
复兴 55504
皇帝 55496
尊 55476
生产线 55459
溶剂 55444
此刻 55441
英国@@ 55433
蔓延 55431
辛苦 55431
审美 55400
副总裁 55386
财 55385
音乐会 55380
怪物 55374
孕 55370
光电 55362
傻瓜 55342
有序 55341
沙特 55336
孕@@ 55333
上校 55326
圆形 55325
小伙子 55324
Ad@@ 55323
配送 55323
孙 55322
制订 55301
报酬 55294
一双 55281
军官 55278
上演 55274
怒@@ 55271
损 55243
农商 55236
宽松 55227
成千上万 55212
收回 55204
阻 55194
多项 55193
胎儿 55178
阳性 55157
畅@@ 55155
中国银行 55148
成交 55137
切割 55107
劝 55101
峰@@ 55092
大西洋 55091
浦 55085
膏 55078
着重 55059
六个月 55054
整治 55051
战斗机 55050
巴士 55023
平价 55012
星期六 55008
使用者 54990
茜 54968
赞 54961
澳洲 54957
败 54939
悲@@ 54934
始@@ 54924
网民 54921
己@@ 54887
书面 54881
研讨会 54873
骑士 54869
瓣 54864
方针 54835
诱惑 54832
违@@ 54830
焊 54827
眼泪 54822
眼神 54820
岭@@ 54803
岗@@ 54773
正当 54760
受害人 54751
何 54748
输送 54743
ter 54739
行使 54712
信托 54710
姚@@ 54701
议案 54693
骗子 54684
颜@@ 54681
坡@@ 54674
鸣@@ 54666
一枚 54662
罚 54662
大臣 54658
车主 54649
忠 54648
左边 54636
温柔 54631
有过 54628
数百@@ 54626
这类 54626
OS 54616
if@@ 54611
总书记 54593
答复 54588
额@@ 54566
勾@@ 54563
业内人士 54535
两只 54506
巡逻 54499
pp@@ 54485
箱@@ 54461
医学@@ 54442
演化 54441
化疗 54438
获胜 54433
标准@@ 54428
宝马 54414
服务业 54410
确@@ 54402
人口@@ 54401
封信 54396
有机@@ 54395
不来 54382
逾 54376
咸@@ 54364
辅@@ 54359
途中 54353
女士们 54340
情景 54331
比起 54310
吴 54299
键盘 54289
色素 54244
国际化 54237
责 54233
桌上 54225
赶快 54224
过得 54219
68 54203
猫@@ 54201
晨@@ 54195
派出 54186
笑容 54186
电话号码 54185
哥们 54181
运送 54178
陆军 54169
罢了 54166
电网 54165
吸血鬼 54156
帆 54150
区间 54148
江南 54132
In@@ 54124
杰夫 54122
昏@@ 54115
晨 54088
测试@@ 54066
跌@@ 54064
冲动 54057
搜查 54054
肝脏 54050
偶然 54047
才@@ 54040
il 54038
66 54036
援 54035
反恐 54029
15% 54023
传来 54023
滤波器 54023
染色 54022
童年 54019
创伤 54016
合伙人 54009
瓶@@ 54008
温泉 54004
分支 53995
项@@ 53971
4000 53968
章@@ 53948
伏 53920
抗原 53920
举报 53890
新区 53887
民生 53876
得分 53875
副食 53874
二手车 53869
每人 53863
薪酬 53861
Br@@ 53854
估算 53850
遏制 53847
习@@ 53825
人格 53821
手册 53816
主机 53811
幕@@ 53762
涌@@ 53761
失效 53740
傻@@ 53738
回头 53729
享 53728
背叛 53717
奈@@ 53715
亮点 53705
盟 53686
外表 53681
成效 53657
法律@@ 53655
言语 53627
视力 53626
安妮 53618
注定 53616
微型 53606
捕@@ 53604
资深 53583
某某 53575
穷人 53570
拉面 53555
刑 53543
毫无@@ 53540
望远镜 53524
留学 53523
东盟 53515
缓@@ 53509
息@@ 53503
小孩子 53501
范 53501
调制 53500
节约 53492
长得 53484
外长 53468
记者会 53446
奎@@ 53440
洪 53438
眉@@ 53426
钛 53424
撤销 53422
旅游业 53422
法语 53416
索尼 53404
陌生 53400
绘制 53387
我该 53386
蒋@@ 53378
津 53374
岛上 53369
安保 53367
沉重 53365
污染物 53363
CD 53362
途 53362
续@@ 53358
警惕 53347
路透社 53336
长沙 53319
空白 53311
歧视 53307
选择性 53302
薪水 53300
妆 53299
呼叫 53285
介意 53283
届时 53243
签约 53242
题@@ 53238
社区卫生 53234
筋 53231
生态环境 53229
新城 53227
雷斯 53227
荡 53219
盈@@ 53191
驾校 53187
卡拉 53180
授@@ 53174
租金 53160
天生 53140
二级 53101
无力 53079
果实 53071
改良 53068
卫生院 53066
细胞@@ 53054
削弱 53047
肩 53039
坐标 53036
版权 53033
姿势 53032
治愈 53015
院子 53012
赶上 53005
和解 52993
挑 52989
航线 52987
裁决 52977
两倍 52958
斜 52930
神话 52929
手套 52926
纠正 52922
奴隶 52912
困惑 52903
诉 52901
蚂蚁 52897
解放@@ 52893
通话 52886
以免 52880
会长 52870
黎@@ 52866
生态系统 52862
腹 52855
雇佣 52846
捷 52845
捐@@ 52833
饮 52832
草地 52819
贵族 52807
切换 52798
逃避 52778
慧@@ 52771
星期天 52761
东风 52749
到位 52748
山市 52748
oc@@ 52746
仰@@ 52745
中心@@ 52723
甚 52717
付费 52710
首个 52693
ep@@ 52684
64 52666
讽刺 52662
ent 52659
朝着 52651
结算 52645
袁@@ 52642
填充 52635
管理者 52622
丑闻 52614
包围 52600
一共 52598
艾伦 52597
长期以来 52595
能源@@ 52589
阿拉@@ 52576
id 52563
情人 52561
电话@@ 52557
羊肉 52557
贾 52544
催@@ 52542
安理会 52537
ley 52528
成年 52519
成因 52509
儿童@@ 52506
漂@@ 52496
阳县 52490
焦 52478
善于 52475
临 52471
榜 52464
新生儿 52455
渗@@ 52453
胳膊 52452
轨迹 52448
机动车 52441
子公司 52440
第一步 52436
表达式 52430
估值 52419
银行业 52416
判 52411
掌控 52410
凝胶 52405
像素 52403
老百姓 52399
蓄@@ 52395
客机 52393
% 52383
长远 52374
严峻 52357
好运 52356
贬值 52344
跨越 52340
病情 52336
海峡 52306
鉴别 52258
万吨 52249
毒素 52248
开发者 52246
卵@@ 52244
陈述 52241
见过 52232
封锁 52230
打扮 52228
街区 52223
陷 52215
舟 52214
摄@@ 52208
仆人 52185
墙@@ 52185
胎@@ 52170
电台 52164
定向 52162
燃 52161
非政府 52160
不上 52157
痕 52153
商务@@ 52148
伏@@ 52146
析 52139
想过 52135
晒 52134
石化 52126
MA@@ 52121
扑@@ 52119
墓 52101
烦 52087
一轮 52082
箭 52059
撕@@ 52058
第一天 52053
题目 52030
矿物 52018
柏林 51989
舰队 51981
磋商 51980
裂纹 51979
60% 51977
下班 51968
时说 51964
时报 51962
共同@@ 51960
赞同 51950
纪律 51935
分区 51934
水资源 51902
录音 51870
翅膀 51860
茶叶 51854
末@@ 51830
期货 51822
寻常 51821
盾 51815
广泛应用 51809
电视剧 51805
历程 51798
兴起 51770
所用 51769
醉@@ 51755
话语 51748
之处 51747
感应 51740
硬币 51737
评级 51726
不当 51724
os 51706
想念 51701
一向 51695
公交车 51662
计算机@@ 51656
说真的 51650
陆 51646
不已 51632
礼品 51617
se 51615
> 51611
必将 51602
最有 51601
mm 51598
扯 51579
肩膀 51577
好友 51573
搭建 51571
前方 51569
助 51564
舌@@ 51559
60@@ 51551
否定 51537
二人 51522
一点儿 51518
钢筋 51517
屑 51500
淘宝 51476
盟友 51474
玩笑 51467
法则 51464
工作组 51463
重新@@ 51418
角落 51414
六年 51403
磷@@ 51387
非凡 51372
制服 51367
车祸 51357
庭@@ 51356
短缺 51333
裂@@ 51328
企@@ 51317
不可避免 51310
随之 51305
窄 51301
化石 51296
所致 51296
杆@@ 51286
奔 51282
没能 51282
沿海 51272
肿 51258
城市@@ 51255
61 51243
便捷 51238
卫浴 51234
别忘了 51224
来源于 51213
人选 51182
泪@@ 51181
液相 51171
妨碍 51163
既有 51137
苏丹 51134
染色体 51133
拳 51126
电阻 51115
澳 51112
牢@@ 51109
气象 51104
担@@ 51092
堵 51091
录@@ 51088
议@@ 51084
妙@@ 51075
映@@ 51072
咖 51063
挣扎 51049
这话 51048
莎@@ 51046
选取 51038
暖 51031
右边 51019
四大 50994
司法@@ 50988
单车 50987
手下 50978
变为 50975
老实 50967
雕 50933
间隔 50909
亡 50899
养殖 50897
台风 50880
偶 50860
穴 50859
宴会 50858
夺@@ 50857
所知 50857
绩效 50857
推导 50851
辩护 50844
赌 50841
深处 50832
摄像机 50813
切除术 50807
浅析 50798
专业@@ 50796
人性 50790
戒 50788
七年 50786
流入 50784
彼@@ 50782
战略@@ 50773
等候 50767
发射@@ 50756
不许 50745
岁月 50741
麻辣烫 50734
镜@@ 50728
迭代 50707
米饭 50693
缺失 50688
染料 50674
比特 50669
出国 50667
促 50652
抽烟 50651
济南 50645
早上好 50625
qu@@ 50618
琴@@ 50612
经纪人 50608
争夺 50596
市政府 50590
烦@@ 50585
贪@@ 50580
三角 50570
州长 50569
前途 50565
开通 50562
腐@@ 50552
大批 50549
了不起 50547
在意 50542
计划生育 50540
时空 50529
稀土 50524
幽@@ 50517
访@@ 50516
驱@@ 50501
职业@@ 50493
陆地 50476
我方 50475
发性 50445
嘲笑 50438
奠定 50425
妖@@ 50424
疯子 50423
委会 50417
亚太 50410
传动 50406
卫生室 50394
顶部 50388
赌@@ 50377
匠 50373
IS 50363
脚本 50340
乌 50339
手机@@ 50337
该项 50331
偶像 50313
受访者 50301
缴纳 50300
学期 50295
勘探 50280
灯饰 50279
珍@@ 50274
猜@@ 50258
任期 50250
葬礼 50242
苷 50213
报导 50210
率先 50205
金牌 50191
破碎 50186
卢 50179
ran@@ 50156
生涯 50155
辞 50152
浴@@ 50126
25% 50112
哀@@ 50100
离散 50096
马克思主义 50094
全方位 50090
五十@@ 50089
增殖 50084
放进 50074
不易 50058
运算 50058
固 50057
卡特 50047
= 50044
嫉妒 50036
揭@@ 50036
平行 50028
裸@@ 50028
客气 50022
塆 50021
电视机 50018
前所未有 50017
理论@@ 50006
盲@@ 50006
被动 49998
57 49993
人能 49986
记载 49986
融 49974
反抗 49972
滥用 49969
美术 49962
镁 49961
地层 49955
完毕 49955
ff@@ 49947
兑 49941
奶酪 49940
走开 49940
紫色 49932
est@@ 49921
湾@@ 49920
论证 49914
尼斯 49904
< 49900
更具 49898
终结 49898
廷 49890
处境 49889
握 49889
犯@@ 49885
比率 49882
纹@@ 49875
款@@ 49866
极了 49863
胸部 49855
爱人 49844
碱@@ 49843
打个 49836
沙滩 49834
弦 49829
外资 49825
铸造 49808
MS 49794
辛 49786
优于 49780
旱@@ 49777
滤波 49776
孝@@ 49774
入住 49765
摸@@ 49759
中国共产党 49753
援@@ 49727
负面 49726
零部件 49721
终 49717
路边 49716
中日 49713
棕色 49703
礼拜 49702
健全 49701
今 49692
骑@@ 49690
楼上 49684
娃娃 49683
一次性 49676
现代@@ 49672
垄断 49655
萃取 49651
iPhone@@ 49643
尸 49641
腹部 49640
虚 49640
黑客 49621
推测 49610
明智 49604
智能化 49604
内外 49588
氨@@ 49584
砖@@ 49580
希尔 49562
文具 49560
教徒 49559
ina 49558
比重 49555
特斯拉 49544
图表 49535
250 49525
XML 49523
窑 49519
胡 49513
进度 49512
泰勒 49502
惊奇 49494
地域 49488
唱片 49469
5G 49464
识 49450
抗生素 49449
得不到 49442
女神 49440
茂 49438
样式 49410
宽度 49409
狮 49402
水质 49388
严 49383
国土 49383
宗旨 49367
奖@@ 49364
盗@@ 49363
美学 49343
美洲 49331
资本主义 49292
血浆 49290
糖果 49288
划 49284
伍 49283
不同于 49280
首要 49278
饥饿 49268
评定 49265
眼里 49259
载荷 49258
两张 49256
老天 49249
身为 49235
住院 49231
组装 49205
心理@@ 49190
祖先 49181
胚胎 49175
逸 49171
中等 49165
法定 49158
拥@@ 49157
国际贸易 49155
座椅 49150
灌注 49148
多重 49143
十二 49120
整整 49115
奋@@ 49107
刚好 49099
挤压 49092
沪 49088
四季 49085
产权 49081
门票 49081
10.@@ 49073
辊 49073
粮油 49064
内蒙古 49062
业务@@ 49058
观光 49055
钓鱼 49046
必要性 49045
嫌犯 49035
全民 49033
支配 49031
组分 49020
华尔街 49010
通往 49000
腺 48992
货运 48980
缴 48969
at 48962
果汁 48947
海洋@@ 48931
筹@@ 48925
产业链 48918
伦理 48910
62 48898
一丝 48865
促销 48861
查尔斯 48858
好几个 48850
备份 48845
硬化 48841
公交 48826
棉花 48821
车道 48820
麻醉 48819
非常感谢 48811
段@@ 48805
潭 48804
藤 48803
销售@@ 48797
丹麦 48791
关切 48786
信赖 48780
程序@@ 48765
事后 48764
好转 48757
胰岛素 48751
替换 48740
胡子 48736
大象 48729
做爱 48725
景点 48723
绒 48721
函 48711
恐慌 48710
范畴 48703
薪 48694
集会 48691
东亚 48677
干旱 48663
$ 48647
看似 48647
害@@ 48640
贤 48639
杰出 48636
车行 48623
行事 48620
86 48616
申请人 48614
随即 48610
重大@@ 48603
说起 48601
2.5 48592
排序 48584
劳工 48582
氟 48574
或者说 48564
队@@ 48564
高原 48551
游泳池 48546
储蓄 48533
逃离 48532
景象 48529
一身 48526
防水 48525
诺基亚 48522
无意 48520
未知 48503
更高 48491
苹果公司 48469
趋@@ 48469
开来 48462
敌@@ 48458
岛@@ 48451
捐款 48450
绑 48434
童装 48430
易于 48429
肺癌 48427
邦@@ 48426
不管怎样 48395
分校 48385
立体 48383
财务@@ 48383
表态 48381
谈过 48377
SO@@ 48374
托马斯 48373
国债 48371
魔鬼 48365
添加剂 48357
土豆 48352
叠@@ 48347
农药 48342
反思 48341
淮@@ 48340
饰@@ 48336
并用 48333
叶子 48330
调试 48320
极度 48307
澳@@ 48286
尾巴 48277
发电机 48268
寸 48261
开幕 48252
76 48236
营业所 48225
十分@@ 48222
衬@@ 48208
全省 48201
政治家 48201
态@@ 48190
充分@@ 48184
弥@@ 48182
扭曲 48181
本发明 48177
烹饪 48171
动荡 48169
现任 48161
自我@@ 48157
半小时 48155
硫 48147
拥挤 48135
期刊 48134
堤 48127
猪肉 48126
七个 48098
点燃 48098
孕妇 48093
忍@@ 48085
抑郁 48080
今天下午 48071
过敏 48059
三明治 48035
从小 48026
菲尔德 48020
晚期 48016
争吵 48009
转动 48003
巧@@ 47991
表征 47987
钩 47986
车身 47985
one 47974
| 47961
门槛 47955
启用 47952
生态@@ 47932
材质 47912
总共 47908
古怪 47907
妥协 47903
下调 47901
万辆 47892
概述 47880
试论 47873
集中@@ 47865
辞@@ 47858
一整天 47853
分析法 47853
uc@@ 47850
铭 47850
中华民族 47831
肺炎 47822
氨基酸 47821
综@@ 47821
嫩 47810
往来 47810
掌 47809
ly 47797
燃油 47796
FBI 47776
螺@@ 47776
霸 47775
避开 47773
另有 47763
忘@@ 47757
合肥 47752
录取 47749
垫@@ 47744
转身 47737
辰 47735
防空 47727
密集 47722
琼斯 47720
术@@ 47717
公安机关 47711
震荡 47710
出版社 47683
1500 47670
绳子 47667
产品@@ 47658
多长时间 47657
邮报 47654
柔软 47653
店里 47652
尘@@ 47648
国有企业 47641
作风 47634
根源 47609
俗@@ 47608
PS 47607
脚步 47602
塑 47597
变压器 47592
不动 47591
撤离 47563
第一位 47561
饱和 47561
实证 47539
丹尼尔 47538
珍惜 47534
监察 47523
温馨 47513
残酷 47512
偿还 47490
强壮 47490
Sc@@ 47479
脑子 47478
婴 47472
结晶 47472
辽宁 47472
吵 47468
财政部 47465
淘@@ 47463
预言 47452
污@@ 47446
软件@@ 47446
违背 47445
残疾人 47433
两条 47429
幻@@ 47427
专辑 47420
生产商 47416
俗 47406
植入 47392
冰淇淋 47382
叉 47378
周刊 47373
烷 47372
疯@@ 47366
知情 47355
胆 47345
指挥官 47335
赌博 47335
逢 47335
营养@@ 47332
几率 47323
优美 47320
佬 47314
碟 47307
强势 47303
墩 47292
多样化 47289
误解 47288
纱 47285
用以 47279
郊区 47273
77 47269
特有 47267
毛病 47265
丝毫 47246
政客 47241
构 47227
校正 47220
误 47218
沙县 47209
石油@@ 47206
工商@@ 47202
产品质量 47193
信息系统 47188
众所周知 47187
醚 47187
抵制 47183
通风 47176
自治 47175
日记 47172
毕@@ 47154
不怕 47138
电影@@ 47117
导师 47112
这套 47110
浙江省 47107
SUV 47085
选出 47083
功效 47080
耶路撒冷 47079
干活 47077
又@@ 47076
59 47068
拿来 47056
食品@@ 47055
小于 47054
数额 47054
领导者 47054
操作@@ 47038
东莞 47027
符合@@ 47024
手动 47022
它@@ 47018
韦斯特 47007
海湾 46978
媒介 46977
全程 46968
温室 46966
万名 46962
原创 46949
资源@@ 46949
柴油 46944
中队 46936
高性能 46933
紧紧 46928
磊 46920
轻微 46919
蟹 46918
东南 46916
慈@@ 46904
正规 46893
水域 46880
早点 46876
高频 46871
族@@ 46865
这起 46865
累积 46846
分布式 46841
灭绝 46833
发票 46829
强硬 46829
海盗 46829
维度 46829
捉@@ 46826
打赌 46820
语义 46803
昂@@ 46798
哭@@ 46779
乐视 46777
⋅ 46774
陷阱 46760
新世纪 46752
迄今为止 46744
时会 46731
杜 46724
end@@ 46715
基准 46715
理查德 46711
俄国 46706
气质 46697
正交 46688
教材 46684
囚犯 46677
新一轮 46677
亲戚 46670
温州 46664
华丽 46655
鼠标 46650
高档 46647
晚安 46637
缓 46626
仓@@ 46622
语文 46620
虐待 46619
发给 46609
视网膜 46605
环球 46602
迈 46601
Z 46592
一瓶 46586
曲面 46583
艺术品 46572
装配 46571
山脉 46547
搅拌 46542
西亚 46540
重力 46540
马路 46538
眼光 46537
那家伙 46523
摄影师 46521
治安 46520
氧气 46519
不适 46518
扫 46512
浑@@ 46511
帐篷 46503
尊严 46502
63 46501
工业化 46497
闻名 46496
膝盖 46491
地形 46490
远处 46486
城乡 46473
收音机 46442
绝不会 46436
合作社 46424
畸形 46424
▲ 46422
图文 46420
书写 46418
让@@ 46407
存活 46399
邮票 46391
河南省 46380
影视 46366
突 46360
留学生 46355
被困 46354
狄@@ 46346
一期 46345
汽配 46341
侯@@ 46336
饮@@ 46325
依赖于 46320
完全@@ 46320
伞 46317
撞击 46312
烂@@ 46293
覆 46292
著@@ 46278
青睐 46274
增进 46272
娘@@ 46266
干得 46266
sp@@ 46259
杯子 46259
剧本 46251
影子 46243
失业率 46238
剥夺 46210
鉴@@ 46207
宏观 46205
束@@ 46200
价钱 46193
呈现出 46192
扇 46185
二者 46183
湿地 46172
血糖 46172
临近 46158
专 46155
失误 46143
消毒 46143
浩 46134
浮 46126
外形 46120
海尔 46118
110 46107
冷冻 46100
起源 46099
使人 46089
棒球 46080
丘@@ 46077
热烈 46077
车间 46069
罢工 46063
产出 46058
乐器 46053
双边 46049
敲 46044
侦查 46041
时常 46038
召回 46031
洗澡 46012
克莱@@ 45982
卡片 45975
播出 45969
起初 45966
ell@@ 45965
坝@@ 45964
杰克逊 45952
切断 45939
尽管如此 45938
斯顿 45937
平原 45919
社会保障 45914
运输@@ 45906
全局 45902
披@@ 45898
陪伴 45883
多谢 45880
1991 45879
室@@ 45873
打断 45873
第三次 45867
心肌 45854
奔驰 45837
厨师 45829
宝石 45813
坚信 45801
醋 45799
总代理 45798
伸出 45794
美容美发 45775
抱@@ 45772
假日 45765
重庆市 45757
用地 45755
场面 45751
4G 45741
助力 45735
山上 45729
笑声 45725
里斯 45723
中国移动通信 45716
头痛 45715
开拓 45707
Sam 45704
主管部门 45702
伍@@ 45702
死亡率 45701
摇 45699
搜@@ 45686
上空 45668
山东省 45668
科学技术 45654
常态 45653
隐瞒 45645
巢 45642
涌 45640
迁 45629
门业 45623
舌 45621
发展@@ 45615
一下子 45611
牛排 45600
欧美 45597
遇@@ 45594
管理人员 45580
分行 45579
一贯 45574
几十@@ 45569
闭 45568
AS@@ 45565
最高@@ 45562
首尔 45562
店铺 45551
刷@@ 45549
在外 45549
裕@@ 45535
有毒 45532
佛教 45531
阿姨 45531
研究@@ 45527
到期 45525
船员 45514
核电站 45508
河北省 45504
朵 45495
须@@ 45494
警报 45491
Bar@@ 45486
最长 45484
氧化@@ 45477
中共 45452
合作@@ 45444
娱乐@@ 45439
上车 45436
原型 45432
有所@@ 45428
一封 45423
税务 45421
回国 45416
某种程度 45414
横向 45406
柏 45405
证件 45397
小儿 45387
四川省 45384
阴 45379
本科 45374
盘子 45356
后代 45354
托管 45343
当晚 45337
相位 45326
已知 45324
中石化 45320
编号 45306
矮@@ 45284
算了 45272
服务部 45271
78 45268
篇文章 45262
铝合金 45246
大致 45244
what 45238
战役 45237
j 45227
入境 45220
高尔夫 45209
冻结 45207
恐龙 45204
国务卿 45203
撤@@ 45202
听众 45199
掩盖 45198
冷战 45195
描绘 45195
切尔西 45191
β 45182
上台 45181
辅导 45177
小狗 45165
逆 45160
尸@@ 45151
加盟 45147
选定 45135
中说 45130
测验 45128
双向 45125
鸭@@ 45119
制动 45115
喷 45102
炎@@ 45102
鼠@@ 45102
夏威夷 45093
经贸 45093
水管 45087
ew@@ 45079
葬 45071
两组 45064
人工@@ 45060
一家人 45049
万家 45049
另一@@ 45025
商会 45000
嘴里 44998
原材料 44979
外汇 44976
做个 44964
笨蛋 44962
博弈 44958
向量 44955
萧@@ 44940
电力@@ 44937
汀 44929
金融市场 44929
香蕉 44928
投资人 44916
定理 44889
大麻 44883
挪威 44879
万一 44856
这时候 44851
化妆 44847
如果说 44841
夸@@ 44830
野生动物 44818
铅@@ 44818
牢 44817
盖茨 44816
不小 44808
十五 44808
台上 44801
陪审团 44798
臣 44793
三是 44789
利物浦 44768
嘴@@ 44765
一看 44762
亩 44761
存放 44759
变性 44755
分发 44741
阀门 44740
兆@@ 44739
老化 44739
蜜蜂 44734
共计 44733
兆 44716
雾@@ 44706
燕 44701
陛下 44695
炭@@ 44693
响@@ 44692
禁 44685
升值 44672
67 44669
快要 44665
精心 44663
塞尔 44660
鲍勃 44653
微观 44651
阁下 44650
猴 44645
漫画 44644
散射 44643
克拉克 44639
新华网 44639
会计@@ 44635
爆破 44627
领取 44617
业内 44611
人气 44595
哭泣 44592
孤立 44587
突变 44586
典@@ 44580
宋 44572
混沌 44572
脾气 44557
厂家 44529
鼓舞 44524
倾听 44523
回避 44522
斯基 44521
晚间 44518
强有力 44509
马英九 44503
振兴 44499
表决 44486
痒 44484
诊 44483
一趟 44481
宴 44479
认出 44478
况 44477
仍@@ 44476
签字 44468
庞@@ 44466
日元 44463
礼服 44462
很强 44455
贼 44455
微小 44442
所作 44436
抹 44435
簿 44428
免疫@@ 44424
酸性 44400
氧化物 44395
特异性 44391
掉@@ 44390
巨额 44385
瑜伽 44373
新村 44365
减弱 44364
星系 44354
定性 44349
一千@@ 44344
腺@@ 44343
皮革 44336
称呼 44328
鸟类 44327
称赞 44322
壶 44304
Ex@@ 44300
生产总值 44245
拉伸 44243
疾@@ 44238
替@@ 44232
ad 44229
凭@@ 44229
协 44219
裙 44214
履@@ 44209
推理 44205
近代 44192
杂交 44171
耍 44168
吻合 44166
便于 44154
一幕 44140
汗@@ 44135
做点 44130
依托 44127
路口 44125
惹@@ 44120
终身 44108
客车 44099
恶性 44098
瞄准 44096
出租 44090
有何 44053
茨@@ 44051
ann@@ 44025
说不定 44022
机型 44018
江苏省 44011
摊@@ 44009
张家@@ 43998
前沿 43996
性状 43990
炸 43983
约翰逊 43983
斤 43980
中美 43964
改为 43959
灾区 43954
耀@@ 43952
消费@@ 43933
水晶 43931
小朋友 43919
口气 43918
触发 43904
正要 43892
卸@@ 43889
地基 43886
忧虑 43881
恶意 43878
既@@ 43876
残留 43869
几位 43867
服从 43865
咽 43848
枯@@ 43824
奇异 43814
Har@@ 43803
击中 43803
宣传@@ 43801
自定义 43790
艳@@ 43790
安市 43778
Mc@@ 43766
功能@@ 43755
药业 43753
梯@@ 43733
分辨率 43731
救济 43730
兑换 43726
勃@@ 43719
谣言 43712
翼@@ 43711
鲜明 43692
拘@@ 43689
晚饭 43688
凹@@ 43686
自觉 43684
卤@@ 43670
林肯 43662
账号 43660
悬挂 43648
驾车 43646
打印机 43645
祷告 43635
Am@@ 43606
征服 43602
尔顿 43600
拱@@ 43600
邻 43599
妊娠 43596
锐 43570
雅虎 43569
新闻网 43555
蒸 43553
杠杆 43552
打扫 43549
保障@@ 43548
喜悦 43546
欠@@ 43533
阅 43518
防守 43518
大片 43509
强奸 43505
重构 43495
辽@@ 43493
长久 43480
示威 43479
三人 43477
羽@@ 43477
抹@@ 43472
昭@@ 43470
沉 43467
众议院 43453
滨 43445
祭 43440
屏@@ 43435
秘@@ 43433
偏见 43429
绞@@ 43428
赵 43423
彻@@ 43420
ub@@ 43397
东海 43396
学费 43396
酸钠 43389
用药 43359
倍@@ 43356
AC@@ 43350
财经 43329
紧缩 43326
口号 43324
真是太 43321
商品@@ 43292
无奈 43285
娇@@ 43281
多糖 43273
侨@@ 43272
向下 43269
87 43268
近似 43261
浆@@ 43260
嘴唇 43255
精灵 43217
序 43213
赞赏 43212
are 43210
马车 43202
八个 43201
余额 43188
CD@@ 43182
滴滴 43176
迟@@ 43175
AM@@ 43170
蜡烛 43168
酒楼 43163
参赛 43149
理智 43149
双眼 43148
充分利用 43134
同伴 43121
亚当 43117
不吃 43116
置于 43101
ter@@ 43091
人质 43087
蒸发 43086
通货膨胀 43084
IN@@ 43072
灾@@ 43058
表示@@ 43053
视线 43053
舰@@ 43047
截面 43043
克里 43041
天上 43039
哲 43029
向导 43028
说完 43028
之力 43017
矢量 43015
核实 43006
跃 42999
告别 42990
秘书处 42973
转基因 42970
伊丽莎白 42964
零售商 42958
震动 42957
粒@@ 42951
La@@ 42947
集群 42946
萎缩 42940
朴 42928
气象@@ 42925
香味 42917
身影 42916
车库 42900
IC@@ 42896
音频 42891
巡@@ 42890
稻@@ 42888
占用 42884
网络安全 42878
鲨鱼 42865
哈哈 42858
流传 42857
香烟 42849
山县 42841
脏@@ 42839
医学院 42825
邻国 42823
弹簧 42817
鱼类 42812
副作用 42811
炼 42810
显示器 42809
江市 42798
ang@@ 42796
卖出 42782
冻 42767
景色 42760
照射 42758
敲@@ 42753
侵蚀 42751
气球 42749
mar@@ 42748
抓获 42747
IS@@ 42744
机身 42734
进口@@ 42727
导游 42724
盲 42723
五分钟 42722
身高 42719
关系@@ 42718
新人 42718
八年 42715
职业生涯 42708
楼市 42701
党内 42699
两岸关系 42695
列为 42692
罪名 42692
溢@@ 42687
魂@@ 42679
简介 42673
呆@@ 42670
01 42669
柴@@ 42663
恭喜 42661
扭转 42661
副本 42660
总线 42655
听力 42648
演说 42643
何种 42641
96 42640
家常菜 42639
下一代 42635
标本 42613
经济效益 42609
线程 42604
树上 42603
负债 42603
秋季 42597
裔 42584
清新 42581
轮廓 42578
颁发 42566
荷载 42564
粉末 42563
首位 42556
梯度 42551
烫染 42545
刊 42542
第七@@ 42537
乾@@ 42517
油漆 42516
・ 42504
着陆 42482
耳机 42480
这台 42472
笔记本 42467
all 42463
ice 42457
关键技术 42457
下半年 42446
吸毒 42446
韦 42445
QQ 42443
巨人 42433
构件 42433
致使 42431
件@@ 42426
深受 42423
员@@ 42409
虫@@ 42409
史上 42407
展出 42406
大战 42399
小偷 42396
io 42395
拆 42388
总有 42384
判定 42376
传染病 42365
和平@@ 42350
900 42325
直觉 42325
分级 42305
订购 42303
爱上 42297
古典 42295
公安 42285
进球 42277
裁判 42272
绿化 42269
世人 42249
选票 42247
廊 42223
受过 42221
卖掉 42215
多达 42213
洛克 42213
不断@@ 42212
省份 42199
搜索引擎 42188
无锡 42185
制止 42184
塑性 42172
网球 42169
车队 42169
张力 42168
衰 42168
填 42167
抽象 42167
前任 42156
格尔 42156
悟 42155
创造性 42153
担当 42148
ill@@ 42147
打工 42146
俊 42145
阵列 42136
光滑 42126
粘 42124
用水 42119
比利时 42103
米尔 42100
袋子 42090
市值 42087
不怎么 42080
锦 42063
首选 42044
寡@@ 42043
所有权 42040
盈 42036
休假 42034
净利润 42021
鞭@@ 42014
打死 42009
高潮 42007
塑料@@ 42003
尼尔 41998
墙壁 41997
主教 41992
集团公司 41990
血流 41975
带回 41970
之道 41968
重返 41968
间隙 41967
200@@ 41963
哈里 41963
祖父 41956
SP@@ 41950
男士 41943
加重 41933
押 41928
警探 41920
脊髓 41914
真心 41897
奥斯@@ 41896
奶油 41895
预后 41895
这有 41892
永不 41891
过剩 41889
更糟 41887
明珠 41868
获利 41860
序@@ 41857
夸张 41854
仅为 41852
放电 41848
接头 41832
铬 41832
会计师 41822
万个 41820
LED 41817
解剖 41816
主角 41807
相连 41804
电视节目 41803
游览 41788
大火 41781
ation 41776
调解 41768
拆除 41752
多大 41750
管理层 41745
倡导 41728
艰苦 41727
辣椒 41725
粤@@ 41720
哈尔滨 41698
漆@@ 41696
怡 41695
灌 41688
十三 41657
养老金 41655
鹏@@ 41651
瓶子 41650
散发 41644
买下 41640
片段 41640
界定 41639
享用 41638
扰 41638
评分 41629
支付宝 41625
攻 41623
真菌 41609
党派 41605
争 41597
品味 41597
赖 41594
180 41588
代表性 41583
宅 41575
尖叫 41572
楼下 41571
eb@@ 41569
动词 41566
气管 41557
桐@@ 41544
do 41535
欺诈 41534
钢管 41529
ort@@ 41528
相继 41512
干掉 41511
外贸 41501
受不了 41497
付钱 41479
71 41478
恤 41476
实验@@ 41471
研究成果 41466
俯@@ 41465
缺损 41463
春季 41462
梨 41460
爱德华 41456
骨髓 41456
维奇 41455
技 41453
简便 41452
没收 41434
趣 41432
残忍 41431
覆@@ 41408
贤@@ 41407
讲座 41397
新款 41391
壮 41390
境界 41387
席@@ 41386
动员 41384
富人 41382
脸色 41381
人间 41378
恰@@ 41374
禁令 41374
慕@@ 41366
不远 41360
波特 41360
加深 41359
蓬@@ 41359
晚报 41354
三名 41353
不妨 41338
信件 41334
刹车 41331
练@@ 41324
WTO 41323
容忍 41312
拒@@ 41309
赢@@ 41307
刊登 41306
订阅 41302
― 41298
炎症 41281
赞美 41276
星期二 41266
德拉 41265
雨水 41253
陵@@ 41248
北极 41234
奉献 41228
会儿 41220
台阶 41210
掩@@ 41206
enn@@ 41203
一小 41199
一倍 41198
批判 41174
数据中心 41174
商学院 41172
們 41171
学历 41169
亦@@ 41135
途@@ 41133
0% 41128
增幅 41122
仗 41113
创下 41112
奖学金 41098
雀@@ 41092
黄河 41089
核查 41082
珍妮 41081
搞砸 41076
句@@ 41071
甜蜜 41055
右手 41045
蛇@@ 41044
道德@@ 41034
起步 41032
藤@@ 41015
报刊亭 41012
民调 41007
监 41000
罐@@ 40999
革@@ 40992
亲人 40991
晕 40981
思想@@ 40978
栽培 40975
入手 40974
公认 40964
招标 40964
ind@@ 40958
澄清 40948
推销 40940
清晨 40932
全家 40931
亡@@ 40929
热水 40929
电位 40927
山羊 40922
弧@@ 40922
武力 40907
用力 40907
ler 40896
监督管理 40887
促@@ 40885
生动 40878
马尔@@ 40876
衰老 40872
交通事故 40871
投放 40867
不及 40863
哥伦比亚 40861
着急 40855
面具 40855
○ 40853
处分 40850
复杂性 40847
判处 40846
丑 40842
生化 40840
硝@@ 40833
矮 40832
园林 40830
监禁 40828
植 40825
源性 40804
关门 40800
涅@@ 40794
大笑 40793
老朋友 40784
残 40782
耐 40776
关掉 40769
忙碌 40765
四分之一 40761
说来 40758
品尝 40752
结构性 40752
设在 40752
帧 40744
眼下 40739
营地 40731
纳税人 40730
飓风 40729
不定 40727
滋@@ 40726
霸@@ 40725
美甲 40722
光芒 40717
一切都是 40713
营收 40712
ant@@ 40709
镇上 40707
yn@@ 40697
ib@@ 40694
仪表 40689
蠢 40688
合资 40684
多媒体 40683
简历 40682
一口气 40681
承载 40678
设计@@ 40678
挽救 40677
制药 40674
拐@@ 40674
溶 40673
行人 40673
敏感性 40661
唑 40658
转子 40653
食品安全 40624
篮@@ 40619
眼球 40613
咳嗽 40600
取向 40595
史蒂夫 40579
特里 40579
区块 40577
变迁 40575
John 40564
卵 40563
大宗 40555
新华 40546
6000 40531
格斯 40527
名酒 40524
朴槿惠 40521
共同体 40517
挡@@ 40516
宁静 40515
一夜 40513
做饭 40511
茅@@ 40511
无所@@ 40506
酸奶 40505
址 40503
针对性 40499
综合性 40497
脉@@ 40493
乙醇 40492
名词 40485
税率 40483
公开@@ 40480
ge 40473
AR 40471
丘 40464
泪 40464
捕获 40462
独 40454
定律 40445
一新 40441
辈 40441
犹如 40430
侵@@ 40428
不堪 40424
楚 40414
毅 40414
妙 40413
自制 40400
成品 40395
劫 40394
农业@@ 40386
横 40383
裕 40383
受理 40380
块钱 40371
73 40370
操控 40370
涵 40367
与众不同 40356
醛 40355
闪电 40352
赞扬 40351
喜剧 40336
地下水 40325
山庄 40315
务实 40309
著作 40298
阔@@ 40297
69 40286
沧@@ 40286
贯彻 40269
太久 40262
线条 40260
借贷 40250
伪造 40245
送往 40241
办事 40236
有种 40235
烤肉 40219
挪@@ 40213
2.0 40204
增添 40198
藻 40193
戒@@ 40189
燃气 40180
赛车 40177
宁夏 40174
芽 40163
82 40156
处理@@ 40151
独家 40151
传出 40143
顶尖 40143
丹尼 40142
大学@@ 40138
前者 40137
断层 40123
门外 40122
雇 40118
指甲 40116
势头 40112
太过 40104
癌@@ 40102
两国关系 40097
全面@@ 40090
听取 40085
梯 40085
裁@@ 40084
α 40080
捕 40079
按时 40075
低迷 40068
霾 40061
烧伤 40059
委内瑞拉 40053
下游 40030
驶@@ 40030
牛仔 40029
违约 40029
叠 40025
面上 40015
艳 40013
海边 40009
电磁@@ 39997
拦截 39995
流失 39993
城县 39991
医疗@@ 39976
陪@@ 39971
哼 39970
可笑 39962
享@@ 39961
也好 39960
线上 39952
题材 39946
好极了 39944
外来 39937
吉他 39933
捕捉 39933
掺@@ 39930
福建省 39918
冈@@ 39906
教导 39904
梳理 39893
惯@@ 39891
馆@@ 39888
对话框 39879
物料 39866
那晚 39866
玩耍 39862
毫不 39859
桃 39851
蓝天 39850
开创 39842
特大 39833
祖母 39826
这使 39823
修饰 39819
福州 39818
SPA 39814
杏@@ 39814
厌恶 39813
甘肃 39809
侮辱 39779
伪 39768
瞩目 39768
莎拉 39759
懒@@ 39758
忍 39740
推翻 39735
ER@@ 39733
熊猫 39733
TV 39732
丽莎 39732
机密 39732
家纺 39726
浇@@ 39723
不成 39719
割 39717
例行 39714
当做 39714
高出 39712
瀑布 39709
契约 39703
多余 39692
多层 39690
换句话说 39689
地下室 39685
蜘蛛 39684
时许 39677
两点 39668
琼@@ 39663
山姆 39658
难受 39654
写信 39642
容纳 39632
胞 39629
高等@@ 39626
等离子体 39614
回落 39613
可疑 39611
电站 39611
Par@@ 39610
南路 39609
摔@@ 39607
禾 39603
徒@@ 39601
内置 39589
Google 39588
摄入 39587
基质 39562
祸 39562
当场 39561
外语 39556
偏差 39554
脚下 39554
解决办法 39549
四种 39547
自称 39540
天猫 39522
出名 39509
鸡肉 39508
雕刻 39500
保姆 39499
委@@ 39492
有空 39492
峰值 39484
穷 39480
喉@@ 39463
马克思 39460
92 39449
唇 39449
乳腺癌 39431
厌倦 39419
坎 39416
每位 39412
万物 39411
降价 39410
盛大 39409
IC 39407
AP@@ 39403
人事 39400
彩虹 39378
水电 39376
消极 39371
经济社会 39366
怎 39365
原发性 39363
自卫队 39361
婊子 39349
挥@@ 39347
贝斯特 39347
水量 39341
隐 39339
昂 39325
亨@@ 39323
现已 39320
侦探 39301
分辨 39299
市场化 39291
朝阳 39288
此项 39283
闸 39280
专题 39277
祭@@ 39266
两侧 39258
施行 39258
吉米 39257
磁盘 39256
舌头 39255
外媒 39254
渝 39243
十个 39239
菲尔 39235
那会 39232
写下 39230
不禁 39225
仍旧 39214
维多利亚 39214
东莞市 39212
降临 39204
CS@@ 39201
绵@@ 39194
一个个 39188
五月 39186
变暖 39180
坑@@ 39175
iz@@ 39166
行为@@ 39161
车厢 39154
直流 39150
迟 39145
侵略 39140
遗址 39135
大米 39121
源自 39118
逃脱 39117
浴 39112
放射性 39110
科目 39105
激光器 39104
好了吗 39093
後 39089
褐色 39080
弃@@ 39079
跨境 39076
拟@@ 39053
忧@@ 39048
浴缸 39042
侵权 39041
经营者 39039
坤 39034
政府部门 39034
赐 39032
不应 39016
多边 39004
用量 39004
投行 39002
抬@@ 39002
暨 38994
开发@@ 38989
首批 38989
晕@@ 38979
柔性 38978
注视 38964
高度重视 38961
忍不住 38956
必定 38944
扶持 38940
89 38935
乔布斯 38930
咯 38929
玩意 38929
极具 38920
爪 38916
女装 38903
山谷 38899
神父 38896
枫@@ 38891
木头 38888
津@@ 38883
天津市 38880
笨 38877
这本 38876
我妈 38871
咱 38866
水位 38852
时尚@@ 38838
奇妙 38837
交警 38836
不太@@ 38829
哟 38817
有罪 38816
点头 38816
责@@ 38807
愈 38806
水准 38801
激进 38800
同盟 38796
ip@@ 38794
浓 38788
绑定 38785
东路 38779
农家 38775
宇航员 38773
硕士 38772
失控 38766
用心 38761
作证 38760
多多 38758
不顾 38753
狗狗 38740
润滑油 38739
制剂 38732
沾@@ 38728
路由 38719
剧烈 38717
十分钟 38708
斯蒂@@ 38708
时装 38698
中旬 38697
警局 38686
阅@@ 38686
ir 38685
鲸 38684
瓦斯 38677
一致性 38664
犹豫 38660
那场 38660
葡萄@@ 38659
皇后 38657
瓷 38652
西路 38652
角膜 38648
不足以 38643
笔记 38636
习俗 38630
不时 38626
ES@@ 38624
叛@@ 38606
oun@@ 38601
实质性 38601
坏事 38598
词语 38568
组织@@ 38567
复活 38563
难得 38559
石材 38558
内战 38556
AP 38545
吉利 38541
沉淀 38531
交际 38525
尽头 38523
开辟 38521
东区 38519
炭 38513
TA 38509
一手 38505
引 38504
低调 38491
25@@ 38487
符@@ 38475
国民经济 38474
白血病 38474
代理人 38472
在我看来 38471
服装@@ 38470
科尔 38466
Tr@@ 38463
慧 38445
精子 38440
寂寞 38439
纺织品 38435
诅咒 38435
海报 38434
创造力 38433
郊 38433
一页 38431
关怀 38426
钢板 38426
81 38424
登记@@ 38411
雕塑 38409
仲@@ 38407
几百@@ 38402
同胞 38392
续 38392
苏珊 38381
志愿 38377
精美 38377
朝鲜@@ 38375
牌照 38369
沙拉 38368
动摇 38364
达成协议 38346
显微镜 38331
酒业 38331
ass@@ 38327
毫@@ 38309
ist@@ 38307
劲@@ 38304
关上 38303
伴@@ 38302
这样的话 38298
慷慨 38297
$TERM@@ 38296
传闻 38294
召@@ 38294
假定 38293
集装箱 38290
白酒 38285
阴谋 38280
国际法 38277
夜里 38271
人行 38262
雇用 38248
想来 38244
五十 38240
门前 38239
准时 38238
灶 38234
演练 38227
渗 38215
采取措施 38194
效能 38191
之声 38186
梨@@ 38176
抛 38172
全球性 38166
歌唱 38164
泵@@ 38157
蝴蝶 38154
庄园 38146
项链 38145
妓女 38139
膝 38138
色谱法 38130
08 38127
萍 38125
74 38123
祂 38111
骗@@ 38105
六月 38103
如意 38103
海里 38102
被告人 38100
梳@@ 38092
融化 38087
查处 38076
红军 38071
重型 38071
侧面 38070
欧洲@@ 38067
美体 38059
喝一杯 38054
上司 38051
海伦 38049
材@@ 38046
预处理 38042
迄今 38038
结构@@ 38036
骨骼 38034
创办 38028
手枪 38023
筑 38023
渔船 38018
浪费时间 38013
上传 38010
赏 38005
婆 38001
惯例 38001
字体 38000
折叠 37999
拳@@ 37993
速递 37986
映 37985
新品 37973
界限 37970
时间表 37969
并行 37966
奥地利 37965
ill 37962
说得对 37961
枪支 37959
斩@@ 37957
ace 37953
筑@@ 37943
谱@@ 37942
非正式 37924
十大 37910
客服 37910
逆转 37908
压制 37905
用到 37894
福音 37889
声誉 37887
11.@@ 37873
研 37873
装潢 37873
柜台 37859
衣柜 37857
嘴巴 37853
毛巾 37849
肝癌 37844
83 37838
超声波 37835
讯息 37824
体检 37810
ce 37801
束缚 37801
解答 37799
亏 37797
以内 37791
ore 37785
凝聚 37778
奥迪 37778
竞技 37776
追究 37775
忠实 37763
发表声明 37760
一九@@ 37757
珍珠 37755
警长 37755
检查@@ 37749
力学性能 37743
不久前 37728
匿名 37728
导管 37725
养护 37722
老家 37721
构想 37711
GPS 37709
ess@@ 37708
通行 37689
布鲁@@ 37688
鹤@@ 37688
ma@@ 37680
款项 37678
患@@ 37673
旋 37668
上游 37641
詹@@ 37638
导入 37626
大夫 37623
源头 37623
24@@ 37622
遭@@ 37617
朋友圈 37605
暑假 37603
反应器 37602
经营@@ 37598
撰写 37595
详@@ 37593
劳动者 37592
外交@@ 37589
赤字 37589
纲 37582
目击者 37581
误会 37576
自家 37567
ot 37563
中是 37549
首脑 37548
特权 37542
普通人 37536
款式 37535
PS@@ 37532
毫不@@ 37532
仪@@ 37530
进军 37523
浪潮 37517
驱 37517
充分发挥 37513
演唱 37513
赌场 37513
博览会 37508
纽约时报 37507
会员国 37503
预先 37500
探究 37482
亲属 37473
存储@@ 37473
纪委 37473
荆@@ 37467
教育部 37450
不太好 37446
灵活性 37439
传真 37438
使者 37438
身子 37433
显现 37429
欺@@ 37420
撑 37411
飞行器 37411
蜂蜜 37410
老年@@ 37407
信誉 37404
矿床 37398
摩根 37395
榜样 37387
剪切 37370
外星人 37366
讨@@ 37364
服役 37359
商务部 37355
芬兰 37354
应用@@ 37349
乎 37345
per@@ 37344
救护车 37342
十五@@ 37339
宿 37334
中将 37311
弓 37310
启发 37304
自私 37301
电子地图 37295
ate 37294
情愿 37290
塔利班 37288
棵 37287
遥感 37287
创业者 37281
91 37278
下令 37277
离去 37271
剥@@ 37270
太快 37270
账单 37270
开除 37269
运河 37264
概括 37259
值得注意 37257
计数 37254
大幅度 37235
迫@@ 37234
堪@@ 37225
确诊 37224
储 37217
盐酸 37212
泄@@ 37205
雕像 37194
猛 37193
亲切 37190
密钥 37186
Michael 37185
拿下 37181
午夜 37175
毁掉 37171
恐怖袭击 37167
短时间 37167
越过 37165
靶@@ 37164
林铭 37157
草坪 37153
12.@@ 37152
比利 37152
不高 37151
老妈 37146
渔业 37136
精神病 37132
认 37132
番 37124
拨打 37121
波长 37110
Con@@ 37093
吵架 37089
Java 37088
上限 37088
前行 37085
Th@@ 37082
邮箱 37082
绝缘 37078
奖项 37076
开头 37075
不动产 37072
互利 37071
泊@@ 37063
舱@@ 37061
撑@@ 37055
增值 37044
烘焙 37041
App 37034
磷酸 37032
整体@@ 37031
电动机 37031
冈 37016
固定@@ 37014
物理@@ 37014
袍 37011
葡萄牙 37010
石墨 36998
省级 36995
盲目 36994
布尔 36992
尽情 36986
任职 36984
多位 36984
评审 36984
本能 36983
Windows 36981
垃圾@@ 36980
130 36970
低估 36970
共产党 36970
联邦政府 36968
羡慕 36967
没想 36947
商量 36945
ker 36938
高品质 36937
篮 36935
装有 36933
较强 36933
深入@@ 36932
东方@@ 36929
柳 36909
病房 36908
索马里 36907
甩 36903
掀起 36878
数年 36878
93 36877
炸药 36869
抬头 36863
区内 36861
外卖 36861
小屋 36857
上年 36855
时髦 36853
弱点 36851
最少 36843
色谱 36838
高精度 36835
地表 36831
硬度 36828
涡轮 36825
急剧 36802
长春 36801
封面 36800
哎 36798
厄@@ 36788
遗传算法 36788
me 36787
人造 36780
外交政策 36780
身处 36780
身穿 36776
弟子 36773
不必要 36772
最高法院 36771
迈阿密 36770
医保 36767
中性 36762
馨 36762
奴 36761
钢铁@@ 36760
贿赂 36757
上门 36756
奢侈品 36755
克拉 36743
募集 36739
侵入 36731
损@@ 36729
犯人 36729
尝 36725
李克强 36719
混合@@ 36716
主观 36713
他来 36706
羽 36686
名声 36683
但愿 36681
发生率 36672
79 36660
凤 36658
关键@@ 36657
造影 36657
无知 36651
诱发 36650
隔壁 36647
着力 36644
矿业 36640
即时 36638
黄金@@ 36637
这段 36635
悬浮 36625
阶级 36623
下属 36622
上任 36621
Ed@@ 36620
维斯 36614
鳞@@ 36613
赠@@ 36610
绅士 36609
分量 36600
100@@ 36598
党委 36597
政务 36595
村子 36592
而出 36583
落下 36581
原先 36578
鹅 36574
底层 36573
Pro@@ 36569
下行 36566
妻 36562
个子 36561
分层 36558
历史性 36548
显而易见 36546
会为 36543
PC@@ 36540
央视 36527
树枝 36525
邱@@ 36518
词典 36517
惨 36515
国旗 36512
零食 36503
砂锅 36500
同类 36499
阐明 36495
回升 36487
生命@@ 36485
被判 36479
幸@@ 36474
投影 36474
蠢@@ 36474
瘾 36472
电影院 36471
王林 36470
分部 36469
男装 36466
溶解 36461
医药@@ 36457
乙 36455
芦@@ 36455
特质 36447
ug@@ 36445
搜救 36445
日称 36445
留意 36442
大衣 36441
肯尼亚 36439
低价 36436
席位 36435
丧@@ 36428
深远 36428
仔@@ 36427
潘 36422
分组 36420
悠@@ 36418
吩咐 36416
离不开 36409
走私 36409
所在地 36401
交流@@ 36399
▼ 36398
底线 36388
体育馆 36381
殖民地 36375
愈合 36374
诠释 36369
主力 36368
南北 36368
筹备 36367
大雨 36357
室外 36357
林业 36356
尼日利亚 36343
礼仪 36338
十八@@ 36335
亚太地区 36324
榆@@ 36321
IBM 36320
第一批 36320
当地人 36314
索赔 36297
逃走 36297
兼容 36291
泛 36275
二十年 36274
展会 36274
共同努力 36273
ee 36265
闷@@ 36263
粮@@ 36262
sc@@ 36260
恐@@ 36259
虽@@ 36247
布里@@ 36240
法新社 36237
震撼 36225
物理学 36221
厨@@ 36218
坏人 36216
三国 36214
掌声 36214
最强 36213
意味 36210
高大 36210
决不 36206
血症 36203
闪烁 36202
台独 36198
镀@@ 36194
机床 36185
卷入 36181
配偶 36180
坯 36177
喝点 36165
花生 36165
本法 36158
不通 36156
不合理 36153
用车 36151
兽@@ 36142
对冲 36138
多功能 36136
潜水 36136
赞助 36125
84 36111
Cl@@ 36111
丧生 36110
偿 36107
侦察 36103
机动 36103
潮湿 36102
颁布 36096
酰胺 36095
开着 36094
本田 36092
意识形态 36089
吸入 36082
外壳 36082
默克尔 36082
开幕式 36078
凝 36077
星期四 36069
糊@@ 36065
上将 36061
莹 36058
呈@@ 36048
杯@@ 36035
满意度 36033
城市化 36028
dy 36025
拼命 36021
题为 36021
化物 36016
念头 36015
做生意 36011
挑衅 36007
纺@@ 36006
问候 36004
狂热 36003
支助 35999
浓缩 35997
传言 35984
茶庄 35983
外地 35979
统筹 35977
裤@@ 35975
借款 35974
托尼 35972
情侣 35961
ra 35960
过时 35959
家沟 35957
× 35948
去年同期 35945
纷@@ 35943
番茄 35940
尤指 35929
追逐 35928
役 35925
吉祥 35923
解放军 35923
缓和 35922
迪克 35922
买入 35916
IPO 35914
晓 35912
空袭 35898
调动 35896
排斥 35895
合成@@ 35894
烧结 35893
据称 35887
锥@@ 35887
阵营 35883
急救 35879
荒谬 35863
放大器 35859
艾米 35856
你别 35855
克尔 35855
面孔 35850
拐 35849
重启 35849
哮喘 35847
尤 35844
ah 35835
遵@@ 35830
软骨 35827
AN@@ 35822
逸@@ 35815
麦当劳 35814
招募 35808
搜集 35803
堵塞 35797
到时候 35782
二十 35778
贡@@ 35777
相比之下 35775
总汇 35773
斯坦@@ 35771
棍 35771
先锋 35762
偷走 35748
有点儿 35748
肯尼迪 35748
队友 35743
与否 35742
水流 35741
星期三 35737
阳台 35733
多岁 35731
上调 35730
舰艇 35724
溃疡 35716
曼联 35715
枪击 35712
裁员 35712
雕@@ 35708
别动 35706
市委 35706
苹果@@ 35704
三位 35703
碱性 35699
格雷 35688
国防部长 35687
帐@@ 35686
污 35684
旭@@ 35678
何处 35677
强力 35673
忙@@ 35671
好评 35670
验 35668
躲@@ 35665
是非 35663
钓@@ 35661
双胞胎 35660
徐 35654
未必 35648
出口@@ 35646
深层 35646
ue 35637
废除 35635
读取 35634
金融服务 35627
商业模式 35623
资金@@ 35621
触 35617
勉强 35616
先天性 35615
格外 35606
近几年 35606
珀@@ 35600
票房 35600
聘 35596
警察局 35586
备用 35579
安倍晋三 35577
氨 35569
简洁 35566
ik@@ 35565
ack 35562
通用@@ 35549
海地 35544
有史以来 35527
会议室 35516
蜡 35513
块@@ 35507
换成 35488
磁性 35469
动用 35466
湿度 35465
高手 35464
佩 35463
柴油机 35463
一到 35460
可乐 35451
海拔 35449
香水 35447
肢 35437
熏@@ 35431
伙伴关系 35429
特区 35428
欢 35425
引力 35424
ick@@ 35415
不佳 35415
五金@@ 35415
技术人员 35415
激 35413
几家 35398
初中 35396
增生 35387
Mike 35386
预应力 35385
不便 35377
揍 35377
谁@@ 35377
粗糙 35368
缓存 35365
短短 35363
光子 35361
随机@@ 35361
不下 35354
胆固醇 35349
97 35348
够@@ 35346
盗窃 35338
时段 35334
羽毛 35321
上级 35316
第六 35313
热闹 35307
复方 35300
让步 35300
学习@@ 35287
法国人 35282
统计数据 35279
高新技术 35275
岸@@ 35269
入学 35266
光伏 35263
识@@ 35263
旅游@@ 35260
交通运输 35249
补助 35246
查明 35243
胚@@ 35242
滋味 35241
通信@@ 35238
科夫 35234
劫@@ 35233
数学@@ 35231
纪检委 35224
最美 35213
鹰@@ 35212
右侧 35211
促成 35207
先知 35205
种群 35204
廉@@ 35199
好不好 35195
稍后 35193
解开 35192
开出 35190
拓扑 35190
衰@@ 35182
纵向 35165
山顶 35160
心思 35157
胖@@ 35151
世界银行 35145
尝@@ 35145
高达 35144
一词 35143
牛仔裤 35140
刑法 35139
固化 35137
纺 35137
开工 35127
驱动器 35127
扯@@ 35126
哲@@ 35120
雌@@ 35116
地中海 35112
气流 35102
砍 35101
升起 35096
静电 35087
动漫 35081
礁 35080
北区 35073
培 35072
过量 35068
陶 35068
出路 35063
统计学 35063
三月 35060
对立 35059
植被 35058
罪恶 35057
养成 35050
巧妙 35049
事态 35045
吃掉 35041
巾 35040
使馆 35039
现状及 35038
打架 35032
虚拟@@ 35031
羊毛 35009
北路 35004
扑 35003
Mat@@ 35002
BS 35000
颠覆 35000
打交道 34990
这部分 34989
出身 34984
国民@@ 34984
洒 34984
西雅图 34969
毛泽东 34962
犯罪@@ 34962
复习 34951
孙子 34949
产业@@ 34946
瑞克 34928
布兰@@ 34923
吓@@ 34922
供水 34920
先是 34918
上尉 34901
整改 34901
发热 34899
ah@@ 34891
日后 34891
终点 34891
硬盘 34889
洞穴 34888
橱柜 34887
察@@ 34867
慌@@ 34867
多方面 34865
常数 34859
兼职 34854
宣告 34853
黑洞 34852
额度 34846
以期 34845
长安 34826
嵌入式 34824
淹没 34818
相遇 34814
aw@@ 34809
灿烂 34802
富含 34799
以防 34794
抢救 34793
发音 34782
谭@@ 34782
肾脏 34767
掩饰 34761
四月 34760
难忘 34753
抑郁症 34751
三点 34750
真想 34745
高位 34745
你們 34744
水暖 34742
恢复@@ 34741
骚扰 34738
铀 34735
纳米@@ 34734
袜子 34733
消息人士 34719
湖泊 34711
佛山市 34709
选中 34709
攀@@ 34708
沉降 34708
Qu@@ 34704
嘿@@ 34697
齐全 34695
端口 34694
传导 34693
贯穿 34689
无视 34687
多样 34684
战后 34671
租房 34671
逼近 34663
遗体 34662
精华 34661
Ⅱ 34646
人有 34644
反击 34644
污泥 34633
og@@ 34632
果然 34631
捡 34629
油脂 34628
饺子 34622
原文 34620
多普勒 34619
适量 34619
获奖 34615
裁定 34615
队列 34610
工艺品 34605
IM@@ 34604
仇恨 34604
布莱@@ 34597
左侧 34589
婚庆 34586
固有 34585
公投 34579
收敛 34577
细分 34575
亚历山大 34570
决 34565
投降 34565
崭新 34562
填补 34559
誉 34558
跑道 34553
柠檬 34549
举止 34547
处方 34546
菊 34544
提倡 34543
微波炉 34532
者@@ 34532
旭 34530
接管 34528
直观 34527
牛肉面 34524
来回 34514
侵害 34510
阻挡 34510
狐狸 34508
加班 34506
婴@@ 34506
演绎 34500
一圈 34494
微量 34494
评判 34494
弘@@ 34491
莱斯 34491
克里@@ 34479
指着 34475
精细 34472
颈部 34467
利用@@ 34466
海豚 34466
眠 34464
细致 34463
永 34462
钙@@ 34458
糊涂 34457
EC 34455
无所谓 34454
CC 34452
源代码 34451
衍生 34443
国防@@ 34441
陈汐 34421
摩西 34414
古城 34411
押@@ 34402
凸显 34395
出场 34390
丛 34386
遗忘 34385
刚度 34380
那好 34378
柬埔寨 34376
麦克@@ 34376
准确性 34373
议 34364
退化 34362
Ro@@ 34361
影院 34359
无人驾驶 34358
繁忙 34350
场上 34348
安县 34346
直营店 34341
纸张 34339
据介绍 34338
花朵 34333
风机 34328
Di@@ 34321
歧@@ 34309
注射液 34309
询 34306
红包 34304
贷@@ 34304
面粉 34299
颖 34295
主演 34294
施加 34293
阜@@ 34293
枢纽 34277
表述 34268
变态 34263
奏 34251
复发 34250
化解 34244
参照 34242
统 34236
郁@@ 34236
肠道 34228
矫@@ 34226
匆匆 34222
Ne@@ 34216
聊聊 34208
摆在 34203
时钟 34203
肉类 34200
草莓 34195
驴 34193
犹太 34192
计算@@ 34192
重症 34192
管理中心 34191
94 34188
160 34187
适应性 34184
海啸 34175
旗舰 34174
纯化 34174
一般来说 34171
水源 34169
结石 34162
一品 34161
足浴 34145
始于 34139
重心 34139
丛林 34133
公积金 34131
家庄 34131
尔曼 34130
糊 34125
日程 34123
上衣 34117
军舰 34117
支局 34117
暴风雨 34116
怀特 34114
亏@@ 34109
奉 34108
字典 34099
光度法 34090
此案 34087
生殖 34080
访问@@ 34079
野外 34077
联手 34071
降温 34069
笼 34066
训@@ 34061
径@@ 34055
建设@@ 34052
后台 34044
邵@@ 34024
愈@@ 34023
甲板 34020
凯文 34018
消化@@ 34016
建构 33998
握手 33994
猎人 33988
植物@@ 33984
延 33981
领带 33971
显著性 33966
产业化 33961
灰尘 33959
环球网 33959
不太可能 33958
预示 33958
十九 33956
儒@@ 33949
幼儿 33948
垮 33945
甲状腺 33945
称号 33945
鞋业 33940
盼 33932
上映 33930
哈佛 33926
偷偷 33925
坦白 33925
科研@@ 33924
后退 33918
资质 33914
出境 33911
打来 33911
Jo@@ 33910
发生变化 33905
搅@@ 33904
小事 33902
充当 33901
洁净 33891
症@@ 33891
支公司 33889
富豪 33888
润滑 33887
审视 33882
雅典 33879
硫酸 33866
数百万 33862
银行家 33862
照看 33856
降水 33855
薛@@ 33854
纳税 33849
巨大@@ 33845
酱@@ 33845
荒 33844
引爆 33839
嫁 33832
期权 33832
1200 33825
强国 33815
空间@@ 33812
联邦调查局 33810
喊@@ 33804
佐 33792
里克 33791
法律法规 33786
全国@@ 33783
摊 33776
接触@@ 33767
开业 33766
毛衣 33766
召唤 33757
电线 33757
发行@@ 33745
葡萄糖 33741
二号 33732
互联 33730
触摸 33729
阶@@ 33727
导出 33721
稳定@@ 33720
逼@@ 33719
红细胞 33714
8000 33713
采样 33712
莉莉 33710
萧条 33709
关节炎 33703
半径 33702
闯@@ 33697
干洗 33693
出卖 33692
嵌入 33689
苦难 33673
AD@@ 33672
金斯 33669
详情 33665
1980 33661
村里 33660
困@@ 33655
条纹 33649
一月 33645
web 33644
七月 33644
摔 33637
不开 33634
脂肪酸 33633
辩 33622
一笑 33615
攀升 33614
迅@@ 33614
昏迷 33600
自民党 33598
忽@@ 33597
瘫痪 33593
保持@@ 33578
說 33569
叮@@ 33557
饲养 33551
官网 33550
巴斯 33546
团伙 33540
来得 33540
虹@@ 33536
中风 33528
患儿 33528
耗 33527
十月 33526
拖延 33521
面包@@ 33520
干脆 33519
递交 33518
棘手 33516
紫 33511
发掘 33510
指导@@ 33503
机体 33502
旅途 33499
正确@@ 33499
家用 33498
王家 33494
侦@@ 33493
数控 33490
屁@@ 33488
瓷砖 33484
铸 33482
赋@@ 33481
力气 33475
经纪 33474
文书 33470
砍@@ 33469
压迫 33460
被害人 33459
现今 33458
捍卫 33457
绍@@ 33456
那件事 33452
总能 33446
q 33441
珠海 33440
除去 33436
显示屏 33435
身亡 33431
刀具 33421
卵巢 33418
芭@@ 33415
心跳 33412
野蛮 33405
布拉@@ 33400
飙升 33399
响起 33383
食堂 33380
一一 33376
na 33369
淋巴细胞 33369
群落 33359
饱@@ 33359
锤 33355
饮用 33354
服务区 33347
05 33344
劣 33336
单片机 33336
顿时 33336
模样 33335
渔民 33335
情人节 33334
冲洗 33333
电量 33331
太小 33328
总公司 33311
威士忌 33309
日方 33304
衣物 33304
恩斯 33302
锯@@ 33301
特别@@ 33290
农村@@ 33286
发艺 33282
翅 33274
西装 33273
友善 33266
求助 33261
基因组 33257
澜 33253
膀胱 33249
无情 33243
演唱会 33235
爷 33231
显微 33225
络@@ 33225
吊 33224
救治 33220
办公@@ 33218
贩 33213
闷 33212
西区 33208
恭@@ 33205
闽@@ 33191
技术创新 33187
Ph@@ 33183
驰@@ 33183
密切相关 33182
废弃 33176
路段 33173
储层 33170
购房 33168
傍晚 33164
琼 33161
之夜 33146
却@@ 33144
美景 33143
品牌@@ 33141
受力 33140
返 33135
萨姆 33131
做梦 33129
提取物 33125
也门 33117
名片 33113
召集 33108
纲领 33107
澡 33100
代数 33098
幸存者 33096
独一无二 33091
鉴 33078
艺人 33077
中间@@ 33075
高空 33074
模拟@@ 33072
坏消息 33066
革新 33065
咖啡@@ 33056
个人信息 33055
萌@@ 33049
ner 33046
谋杀案 33040
修补 33039
动性 33034
流血 33030
这篇 33028
夹克 33026
常州 33010
接电话 33007
曼哈顿 33006
绣 33003
胁迫 32998
水产 32996
印度尼西亚 32991
观赏 32991
爵 32987
日内瓦 32986
穿戴 32986
尔多 32982
风情 32979
洋葱 32968
管家 32968
〕 32965
搞笑 32964
跨国 32961
覆盖@@ 32960
送来 32959
查阅 32957
瓶颈 32955
奥斯卡 32945
圣诞老人 32942
掩护 32940
洗手间 32939
叫声 32938
探析 32933
图标 32923
水性 32923
必不可少 32919
同等 32917
保卫 32908
所长 32903
民用 32903
臂@@ 32899
小鸟 32895
蒙古 32895
平凡 32885
坪@@ 32883
ang 32873
东北部 32873
口径 32870
锋@@ 32863
佛山 32859
工地 32854
鸟儿 32852
原子@@ 32851
极化 32843
党中央 32842
更能 32829
妇@@ 32827
老是 32824
阴道 32821
乡镇 32819
实地 32815
有期徒刑 32814
带宽 32811
急需 32811
离职 32811
黎巴嫩 32807
云南省 32802
决定性 32801
良性 32798
朝鲜半岛 32796
卫生间 32793
悉尼 32782
首发 32781
审讯 32779
感恩节 32776
风光 32762
体育场 32761
天呐 32757
弓@@ 32756
高级@@ 32752
农民工 32751
柯 32742
他家 32738
吼 32738
双语 32732
损耗 32731
预见 32728
饶 32728
电报 32724
锰 32718
甲醛 32712
就行 32711
献给 32705
法人 32704
渠 32698
叙 32692
三十 32688
火花 32688
气动 32687
出资 32684
甜心 32677
求婚 32673
核心@@ 32672
想象力 32669
转发 32666
口感 32664
之路 32659
躲避 32657
蒲@@ 32649
长征 32649
新颖 32648
挫折 32641
诉求 32639
陪同 32636
迦@@ 32632
奇特 32631
背部 32627
饱 32627
出差 32626
挣 32621
两款 32613
ok@@ 32611
衰竭 32611
粉碎 32610
抬起 32609
闯入 32596
诉@@ 32591
〔 32587
家湾 32578
戴尔 32565
民营 32563
日本首相 32555
ick 32554
初级 32554
革 32553
汉字 32552
智利 32544
心血管 32542
巡视 32540
挨@@ 32536
低成本 32535
热处理 32535
不信 32532
数组 32532
咀 32529
坟墓 32529
过高 32527
自然资源 32520
伤亡 32512
青蛙 32499
住所 32496
辨识 32491
耸@@ 32489
试验@@ 32485
爽@@ 32480
胞@@ 32473
13.@@ 32471
预备 32469
未成年人 32468
杉 32468
备案 32465
泳@@ 32464
傅@@ 32462
狂欢 32461
万亿美元 32457
闻到 32451
亲吻 32450
最大化 32450
湘 32446
中兴 32444
牵引 32441
TE@@ 32435
法学 32435
出自 32434
放过 32434
破解 32427
高尔夫球 32424
参考@@ 32420
瞧瞧 32419
佩戴 32417
树叶 32406
添 32406
虹 32404
这支 32402
恰恰 32398
En@@ 32397
遇难 32395
耕@@ 32391
敬畏 32387
那一刻 32382
国家级 32381
马云 32377
for@@ 32375
拉斯维加斯 32372
豹 32370
熙 32361
经济衰退 32359
福德 32352
学业 32346
混合物 32346
质量@@ 32340
新高 32337
说好 32331
保管 32327
独立@@ 32325
衍射 32325
渴 32322
多地 32320
浑身 32320
大面积 32319
盲人 32312
扣除 32309
南极 32296
ion@@ 32291
纳德 32291
缴@@ 32290
往返 32288
发售 32284
环保@@ 32284
客栈 32274
don 32271
法令 32271
背面 32268
饮酒 32268
教皇 32265
迷你 32259
酸盐 32256
彬 32254
点评 32250
降到 32250
不利于 32249
湖南省 32246
叙@@ 32243
ack@@ 32236
屏蔽 32225
强烈@@ 32221
表面@@ 32221
难点 32212
ey@@ 32206
努力@@ 32206
甘 32205
为啥 32203
AL@@ 32200
第九@@ 32198
羟基 32196
握@@ 32195
馅饼 32193
偿@@ 32190
米歇尔 32184
喉咙 32182
推拿 32182
蒂斯 32177
太高 32174
多万 32172
趁 32164
面料 32161
斯塔 32159
水上 32158
资本@@ 32156
见解 32155
支持率 32151
斯科特 32148
婴幼儿 32131
奥林匹克 32129
大哥 32122
年里 32122
枕头 32122
管辖 32121
晚些时候 32120
车轮 32113
利亚@@ 32112
肮脏 32108
察 32104
中山 32101
饮用水 32098
证券@@ 32094
收养 32090
英特尔 32086
一再 32082
姬 32077
德国人 32075
IMF 32074
丑@@ 32072
↓ 32071
Wal@@ 32069
ry 32067
两项 32062
狱@@ 32060
龙虾 32059
威力 32058
监测@@ 32056
键@@ 32055
残疾 32051
高山 32051
栗 32043
强行 32040
基督徒 32037
讲解 32034
号门 32033
贪婪 32023
懒 32022
甲烷 32014
举起 32013
机车 32010
坚固 32009
桌面 31998
费城 31998
备忘录 31996
查出 31983
全美 31972
23@@ 31969
引人注目 31967
金字塔 31963
听证会 31961
硅谷 31959
脆 31958
缺口 31956
帖 31949
反射@@ 31945
学术@@ 31943
分娩 31942
泥土 31940
高水平 31940
身旁 31935
宫殿 31932
溜 31930
烯 31916
惊 31911
戳 31911
铅笔 31909
限于 31909
昨天晚上 31907
十一 31906
那座 31905
纠@@ 31903
要死 31898
Mon@@ 31897
口碑 31897
聆听 31896
兴隆 31895
烟雾 31892
房租 31891
翁 31882
沃尔@@ 31875
头顶 31873
知识@@ 31869
地质@@ 31867
监督@@ 31867
紫外线 31865
靓@@ 31860
建设性 31859
打出 31857
硕@@ 31855
藉 31852
霉 31851
热线 31848
颤 31848
痰 31847
临床意义 31841
半夜 31840
典礼 31836
灌溉 31836
联合国@@ 31836
疑似 31833
一则 31826
维亚 31825
室友 31823
步入 31822
敢@@ 31821
右翼 31819
冒犯 31816
临界 31814
适度 31809
加利福尼亚 31807
司令 31803
我本 31803
环绕 31787
霍 31787
孔子 31780
Gre@@ 31776
饰演 31774
儿女 31771
客户服务 31770
逗@@ 31765
巨型 31764
抄@@ 31763
所能 31760
刮 31759
刊@@ 31746
扁 31746
闪 31743
靖@@ 31742
排水 31737
位居 31713
晋 31712
果园 31711
谷物 31703
民航 31700
投标 31698
甸@@ 31698
医疗保险 31697
蛮 31693
Android 31690
涡@@ 31687
招待 31686
抚养 31679
明明 31676
com 31671
决策@@ 31670
背上 31668
安德鲁 31664
纳斯 31661
厨 31659
秦 31659
行长 31659
编队 31653
而后 31646
尼泊尔 31645
参见 31644
活化 31638
耕地 31633
南区 31629
简易 31628
那辆 31627
萨拉 31624
修理厂 31622
持股 31621
高清 31615
接纳 31613
不难 31611
喝醉 31609
凯瑟琳 31608
图象 31605
偏离 31600
行车 31600
涩 31591
Bro@@ 31590
穗 31590
酵母 31588
Ca@@ 31585
收费站 31575
申 31575
趟 31575
芒 31574
利斯 31572
暴 31572
幕后 31568
尽早 31567
门诊部 31564
九月 31563
爱因斯坦 31562
看成 31561
侯 31560
身体健康 31560
乳房 31554
棋 31553
中外 31551
千米 31551
距@@ 31546
咨询@@ 31545
Ge@@ 31544
中产阶级 31543
对华 31542
洲@@ 31540
晚宴 31537
马拉松 31536
魔术 31535
兑现 31530
爸妈 31525
宽容 31520
方言 31520
th 31519
守护 31519
简短 31519
五大 31516
图为 31515
公共服务 31507
高通 31506
头条 31503
关爱 31501
唇@@ 31501
竟@@ 31501
企鹅 31500
唤醒 31497
预料 31497
贝克 31496
金正恩 31493
排出 31490
支队 31487
南宁 31484
线性@@ 31484
非常高兴 31481
愁 31472
急诊 31469
音响 31466
冠状动脉 31460
作文 31442
国家电网 31441
红酒 31437
复合@@ 31436
发烧 31432
Col@@ 31431
枣@@ 31431
依次 31427
健身房 31425
斯科@@ 31420
两类 31399
旗帜 31397
荡@@ 31393
概况 31391
电场 31390
妄@@ 31389
支柱 31388
太晚 31386
水解 31379
二维码 31378
缩减 31376
火爆 31372
70@@ 31366
路易斯 31359
租车 31356
号线 31354
透明度 31347
美金 31344
语气 31342
中小 31339
黄油 31333
诚意 31328
相爱 31326
生存@@ 31318
吵@@ 31312
流产 31308
安卓 31307
吉林 31306
优异 31296
地理@@ 31292
煮@@ 31292
评选 31291
本报 31290
秒钟 31289
重重 31280
维也纳 31277
驱逐 31268
笼@@ 31265
仕 31258
用餐 31253
大奖 31247
拨款 31247
王朝 31243
日渐 31241
制冷 31240
很多年 31240
愚@@ 31235
血小板 31235
地向 31233
旋律 31233
中华@@ 31231
禅@@ 31230
辩@@ 31229
专心 31228
深夜 31220
衬 31219
异议 31217
交代 31216
安定 31215
SD@@ 31214
恋@@ 31213
杖 31212
矩 31206
跟上 31205
照料 31204
笛 31198
海滨 31196
紧急@@ 31195
交货 31192
信封 31190
出任 31188
ach@@ 31185
见见 31177
灵敏度 31171
1989 31168
窗外 31166
隐患 31163
我见 31162
竖@@ 31157
扁@@ 31156
国家队 31153
财产保险 31146
饰品 31146
投票@@ 31145
没人会 31142
我想 31139
头儿 31138
深厚 31135
票价 31133
高等 31129
分光 31128
信徒 31126
此地 31110
Bl@@ 31107
一届 31107
直销 31107
头盔 31103
纪念日 31094
ian 31082
数据分析 31082
今年以来 31079
葛 31077
玩意儿 31076
呕吐 31070
郎@@ 31069
滑坡 31063
发改委 31062
欢呼 31061
洗浴 31056
披萨 31053
洗衣机 31052
DA 31049
光源 31045
矿山 31045
世家 31043
现阶段 31038
经济危机 31038
土壤@@ 31033
渣@@ 31032
刃 31031
红利 31029
赔@@ 31028
我试 31024
汞 31019
置换 31019
钻井 31018
lie 31012
遍布 31009
近年 31008
长期@@ 31006
牌子 31003
内部@@ 30999
商用 30996
吉尔 30989
铵 30984
纤维@@ 30974
得来 30973
脊 30972
阻塞 30971
李某 30967
萌 30967
赠送 30959
移交 30956
隐形 30952
感恩 30947
国庆 30946
BBC 30943
报名处 30943
噩梦 30941
参 30940
克莱 30937
置业 30927
氨基 30925
疏散 30924
数月 30923
水泵 30921
传染 30918
出事 30914
幽灵 30913
针织 30910
过滤器 30906
坠毁 30905
行者 30903
az@@ 30897
硒 30893
不论是 30887
株@@ 30887
健康状况 30886
递给 30881
迈出 30877
违法行为 30875
蜡@@ 30874
可视化 30872
纹身 30872
书法 30863
偏好 30862
接地 30862
ity 30861
卜@@ 30856
班级 30848
致辞 30847
q@@ 30845
用法 30844
岁@@ 30826
录制 30825
140 30823
更长 30823
黎明 30823
每晚 30821
亲近 30813
宽敞 30812
安心 30795
无法@@ 30792
琳娜 30792
两边 30789
点子 30788
纹理 30785
扇@@ 30777
籽 30773
II 30768
点火 30766
低压 30752
废话 30750
婚姻@@ 30742
SQL 30736
寨@@ 30735
打包 30734
门市 30733
突发 30728
流出 30727
描写 30726
资源管理 30718
怀念 30717
地步 30715
建筑工程 30711
银行@@ 30705
颇为 30703
谈及 30700
寿 30699
语言@@ 30697
访华 30694
Su@@ 30692
实际@@ 30692
熵 30689
金砖 30682
前线 30681
编织 30681
本报记者 30679
博拉 30668
青海 30667
妥 30663
敞开 30662
加权 30661
猛烈 30660
仇@@ 30652
今早 30651
加息 30648
婷 30647
人要 30646
凑@@ 30646
婆@@ 30642
虚弱 30635
性爱 30634
挂牌 30634
无机 30632
内科 30629
新浪 30627
函@@ 30625
娟 30623
开销 30621
矩形 30616
氰@@ 30613
弹道导弹 30612
脾 30605
布艺 30591
光荣 30589
彰显 30584
金山 30584
Co@@ 30576
绘 30574
一分 30572
以致 30569
已久 30567
降雨 30567
触及 30555
嘘 30553
祝@@ 30548
积极性 30548
稳健 30542
坏死 30538
退役 30536
照相机 30531
承 30529
套餐 30526
化学品 30524
宽恕 30524
风力 30521
第一季度 30515
罚@@ 30512
滑动 30511
说些 30510
1988 30506
裁 30505
致电 30503
腿@@ 30501
所处 30496
篮子 30496
Ros@@ 30492
延误 30486
名烟 30479
蜜 30479
后方 30477
轰炸 30477
使用@@ 30473
腔@@ 30472
敦@@ 30468
执照 30465
of@@ 30463
出示 30456
泊 30454
情报@@ 30453
BP 30451
营业@@ 30450
个案 30445
拟合 30443
走访 30439
花卉 30436
馨@@ 30435
争执 30434
乙烯 30433
负面影响 30433
伽@@ 30432
极致 30432
框@@ 30430
充实 30424
孤单 30424
4S 30417
屋子里 30412
猜想 30412
边上 30411
红旗 30407
述@@ 30404
吃晚饭 30387
等国 30387
克拉@@ 30385
匹@@ 30380
归纳 30379
呼吸道 30377
肢体 30371
逝 30371
巧合 30366
革命@@ 30362
茶业 30353
辖区 30353
邪@@ 30351
唔 30345
尹@@ 30343
凶 30342
津贴 30337
看书 30337
炫@@ 30332
之情 30329
莎士比亚 30324
另一边 30323
该文 30322
带你去 30321
前一天 30318
传到 30309
我爸 30306
起草 30304
患上 30302
亚特兰大 30296
排行榜 30296
肘 30295
防务 30295
韧性 30287
障 30278
辨@@ 30277
紧急情况 30276
分理处 30272
佣金 30271
转速 30266
锚 30257
达尔 30255
金融时报 30252
延期 30251
um 30246
坚实 30245
堪称 30242
庆典 30242
此处 30234
尤为 30230
枪手 30230
杭@@ 30228
调查结果 30223
劝@@ 30220
稿@@ 30214
全文 30213
国人 30211
拦@@ 30200
激光@@ 30192
原告 30191
大方 30190
安徽省 30190
斯克 30185
会员卡 30176
莱特 30175
联动 30172
铁矿 30171
文体 30169
血栓 30156
文学@@ 30155
跌幅 30141
眉 30135
遍@@ 30133
美术@@ 30129
缠@@ 30126
之日起 30123
因特网 30121
内膜 30119
拉丁美洲 30119
后卫 30115
iPad 30113
纱@@ 30112
喷射 30111
涉案 30111
边坡 30111
躁 30110
合一 30109
积极参与 30109
悬崖 30106
Tom 30104
淫@@ 30101
建筑师 30098
萝@@ 30097
行列 30096
医疗器械 30095
蚕@@ 30094
写入 30089
面条 30082
墓@@ 30081
美联社 30078
倒塌 30077
奏@@ 30074
借给 30071
醇@@ 30066
顶端 30066
大都 30065
堰 30064
胀 30057
流场 30054
扶 30053
居家 30052
工序 30051
口中 30049
性命 30049
吴煜 30048
戴维 30041
之星 30040
粘度 30035
南京@@ 30031
终极 30028
冰川 30018
度量 30014
空间站 30009
吞 30008
揭露 30006
弄清楚 30001
熟练 30001
市政 29999
小小 29997
农田 29996
钞票 29990
合力 29986
络 29983
来访 29982
比喻 29981
翔@@ 29981
好笑 29974
下个月 29972
凡是 29972
办案 29969
豆腐 29966
讲究 29964
得益于 29963
小家伙 29960
晒@@ 29959
出动 29958
恐怖@@ 29955
居民@@ 29948
莉亚 29945
彻 29942
国籍 29937
消 29934
代理@@ 29933
护肤 29933
不用说 29932
CNN 29926
甜点 29924
● 29918
实物 29911
多孔 29910
畅 29906
利用率 29904
检察院 29903
电容 29903
连接@@ 29903
颈@@ 29901
表中 29898
钢材 29895
剂@@ 29894
重金属 29890
光辉 29880
笔记本电脑 29880
增量 29852
美分 29848
览 29847
路过 29835
一团 29833
这门 29829
军事行动 29826
一大@@ 29825
阵容 29825
丝绸之路 29823
人民检察院 29816
斯诺 29815
列举 29810
纤维素 29808
卫视 29806
活动中心 29803
十字 29801
缓冲 29795
见鬼 29795
两会 29794
高盛 29793
总有一天 29788
350 29786
包容 29784
鸽子 29784
核准 29783
体温 29778
卡扎菲 29777
不大 29772
叹 29770
游离 29765
日产 29764
野兽 29762
天主教 29758
贫困@@ 29755
有待 29753
造就 29748
开花 29742
劳务 29741
手势 29731
栓塞 29728
闸@@ 29728
责任@@ 29721
球赛 29720
残余 29715
米勒 29715
武汉市 29714
纽约市 29713
喘 29709
并发 29708
知晓 29702
一大堆 29698
剖析 29696
芯@@ 29690
煲 29684
短语 29683
anc@@ 29677
MS@@ 29676
削@@ 29671
摇滚 29668
特种 29667
基础@@ 29665
几句 29663
旅行@@ 29657
氯化@@ 29657
第八@@ 29657
皮特 29653
调查@@ 29652
加沙 29650
液晶 29647
农作物 29646
晖 29645
安宁 29644
中原 29641
疲@@ 29635
危 29633
峡谷 29631
拉动 29628
私房 29628
邻近 29628
壁垒 29625
摩尔 29624
万圣节 29622
手腕 29622
发展前景 29619
目睹 29619
颇@@ 29619
AC 29618
阈值 29616
桂林 29611
智能@@ 29609
法制 29608
鹤 29606
一侧 29605
歇@@ 29604
迷路 29604
遇上 29603
照相 29602
肺部 29602
廖@@ 29599
中世纪 29592
救灾 29591
体力 29588
带我去 29588
滚动 29587
椎@@ 29583
电子产品 29579
叠加 29577
网点 29576
结尾 29575
伪装 29572
载人 29570
作弊 29567
契机 29567
中新社 29562
坳 29558
丰盛 29556
体制改革 29553
九年 29551
文艺 29547
布里 29546
外交官 29545
贺 29545
之家 29541
ct 29540
香肠 29539
之心 29537
民事 29536
胃癌 29535
世界卫生组织 29528
溢 29522
充斥 29521
方位 29521
专业化 29515
一季度 29513
面对面 29513
14.@@ 29512
口头 29511
胜任 29509
脱欧 29509
抵 29508
东南部 29506
这太 29503
窒息 29501
pl@@ 29493
银河 29490
本市 29489
晓得 29484
号楼 29483
爱丽丝 29480
高点 29473
17.@@ 29471
妇 29471
搜狐 29470
问卷 29468
海马 29464
不宜 29463
弹药 29462
沃尔玛 29462
头疼 29460
稻 29451
火力 29448
微妙 29447
煤气 29442
子系统 29437
下手 29436
伍德 29434
气相 29426
首饰 29419
三分之二 29418
陷@@ 29417
换个 29416
芝@@ 29416
难怪 29416
中央政府 29413
择@@ 29412
病因 29411
访谈 29410
by 29409
起码 29409
字节 29406
非常@@ 29406
匈牙利 29399
舟@@ 29398
除外 29398
男孩子 29394
公元前 29393
智库 29392
社团 29391
来电 29389
暖和 29386
织 29385
要花 29383
早日 29381
阀@@ 29381
小岛 29374
中美关系 29367
化名 29367
天鹅 29367
斋 29367
激起 29367
鸭子 29360
狠狠 29355
悔@@ 29354
颜料 29354
审计@@ 29353
奢华 29352
火热 29350
车展 29344
贵阳 29340
重叠 29338
休克 29332
殴打 29332
一栋 29328
祭司 29319
丝绸 29315
发病率 29315
上场 29314
模态 29311
通讯社 29306
屠杀 29303
脑子里 29301
问及 29301
安全感 29297
跨国公司 29293
犯下 29292
有效率 29290
箭@@ 29289
参选 29286
重塑 29286
一棵 29285
抗氧化 29284
起伏 29283
白银 29282
责备 29277
减缓 29271
星座 29270
域@@ 29263
爆料 29261
捧 29253
美观 29250
中西部 29249
Pa@@ 29248
耿@@ 29244
善意 29240
环比 29239
电化学 29236
黑龙江 29235
装满 29231
奶牛 29229
长寿 29225
听从 29222
脱贫 29219
秦烈 29218
整洁 29217
一无所知 29215
茶楼 29215
内饰 29205
凝固 29199
马力 29196
时代@@ 29194
看望 29187
营运 29186
淡水 29184
柴 29182
水手 29181
室内@@ 29177
号召 29176
嘎@@ 29176
布莱恩 29176
我俩 29170
DS@@ 29167
人寿保险 29167
本该 29159
视察 29154
九龙 29153
不说 29150
所有者 29149
丛@@ 29147
再有 29147
邮局 29147
高速@@ 29147
万科 29144
涌入 29130
厨卫 29122
适 29117
岳 29114
互相@@ 29111
刚性 29109
缺血 29108
优越 29107
现年 29102
生产工艺 29097
通讯员 29093
财物 29085
历经 29070
实战 29069
点心 29054
芙@@ 29049
主场 29046
私下 29041
屎 29037
铁矿石 29035
这幅 29032
局限性 29031
面貌 29026
强者 29022
初创 29017
热潮 29017
前夕 29016
画廊 29014
迪士尼 29014
往常 29009
郭 29007
想见 29006
佛罗里达 29004
通向 29004
南昌 29003
万人次 29000
背包 29000
香槟 28994
les 28993
更强 28990
贞@@ 28988
胜过 28986
族自治县 28984
筒@@ 28984
拥 28980
敏捷 28975
拉美 28974
玩游戏 28971
同位素 28968
长江@@ 28963
拉开 28961
口音 28958
国企 28958
生长因子 28958
化学物质 28957
抽屉 28955
等效 28951
光泽 28949
买房 28942
拒 28942
栖@@ 28942
鹅@@ 28941
发觉 28940
湖北省 28940
南瓜 28939
胖子 28937
体型 28936
7000 28934
厂房 28927
冰冷 28926
压缩机 28918
抵御 28918
集体@@ 28916
韵@@ 28912
乒乓球 28908
共和党人 28908
血迹 28906
文化遗产 28905
香料 28901
番@@ 28898
只用 28895
镇政府 28892
实话 28891
放学 28891
锦标赛 28890
稳态 28887
都行 28887
可信 28885
升温 28877
抑制剂 28877
敷@@ 28877
观察员 28877
给定 28874
光栅 28855
高职 28854
踏上 28850
回顾性 28848
壹@@ 28848
煎 28848
单体 28847
性价比 28847
能为 28845
平方公里 28840
沿线 28839
纳粹 28838
癫痫 28834
专员 28832
吉林省 28825
科学研究 28825
公报 28823
玉米@@ 28823
微粒 28822
高地 28821
ath@@ 28820
认真@@ 28818
八月 28817
意向 28814
妖 28813
可观 28812
省委 28811
时速 28808
FT 28806
交通工具 28802
曼谷 28801
示威者 28797
宠 28795
跳跃 28795
用户@@ 28792
乐团 28780
支护 28779
模糊@@ 28778
踢@@ 28778
傲 28770
销毁 28769
楼盘 28756
碘 28755
蜂 28755
买方 28750
师范大学 28741
肚@@ 28740
伯爵 28738
海面 28736
– 28723
债权人 28718
不受 28715
CN@@ 28712
貌似 28706
纬 28704
珀 28698
脱硫 28696
天花板 28692
高强度 28688
迫切 28687
歌剧 28686
Fl@@ 28680
22@@ 28678
那年 28673
雄性 28673
屁 28672
承包商 28671
窑@@ 28670
角度看 28669
每隔 28668
律@@ 28665
管控 28663
色情 28655
中小学 28652
缘故 28652
事务@@ 28651
迷失 28647
脱落 28646
食管 28646
名誉 28645
恰好 28645
抬 28643
地下@@ 28640
改装 28637
口语 28635
罢@@ 28635
敢于 28634
机上 28633
栓 28626
共振 28622
维修中心 28617
1.2 28614
抗菌 28612
看重 28612
荷 28610
无尽 28606
酰@@ 28601
包装@@ 28600
泪水 28598
通告 28590
末端 28589
左手 28586
现货 28584
抨击 28583
阻抗 28581
专业人士 28580
為 28578
怕@@ 28577
新来 28577
勇士 28576
中非 28575
建设工程 28575
托德 28574
芽@@ 28573
睿 28566
回合 28562
蘑菇 28561
肖 28554
大坝 28548
ID@@ 28547
小丑 28547
聘请 28547
付给 28542
论点 28536
our@@ 28530
风筝 28530
人次 28529
顺着 28529
确 28526
蚊子 28526
谐波 28526
冶金 28520
货币@@ 28517
谋求 28515
生产率 28514
ok 28512
柔和 28510
信用证 28508
故障诊断 28499
乃@@ 28498
英文@@ 28497
咱俩 28495
前锋 28493
手持 28489
ere 28486
电荷 28486
减速 28485
墓地 28484
ry@@ 28482
良心 28478
司令部 28474
晟 28465
结构调整 28463
瓦尔 28462
地球@@ 28460
记忆@@ 28457
军团 28455
不曾 28454
谣 28454
皱 28453
傲慢 28449
射频 28439
歌声 28437
下巴 28427
探险 28427
蛋白酶 28427
脊柱 28418
有所不同 28417
摩托 28414
烃 28411
AA 28409
一九九@@ 28409
CR@@ 28404
此人 28403
奔跑 28397
畅销 28397
经由 28379
山水 28374
扰乱 28370
活泼 28368
pH 28365
印刷@@ 28364
大腿 28362
开放式 28358
疑惑 28356
犹@@ 28355
软弱 28350
抵消 28349
建国 28348
贝拉 28348
微微 28342
影视@@ 28338
喂@@ 28336
宪章 28334
三家 28332
作案 28329
牙科 28326
功课 28321
MP@@ 28320
金星 28319
三级 28315
空气污染 28307
薯 28304
片刻 28299
辛格 28297
验收 28295
日本共同社 28294
愉悦 28291
狮@@ 28290
甸 28289
09 28285
过夜 28279
碑 28278
地盘 28277
华尔街日报 28270
检疫 28265
物价 28264
相对@@ 28260
瞎@@ 28257
上下文 28256
家务 28241
微弱 28238
起身 28234
削 28233
螺旋@@ 28233
农夫 28227
od 28222
结构设计 28216
钉@@ 28216
咖啡馆 28212
我敢 28210
15.@@ 28203
力争 28195
漫步 28195
袖 28192
南通 28191
Cor@@ 28182
体系结构 28181
值得一提的是 28178
斯塔@@ 28178
炒作 28178
便会 28176
牧 28171
修正案 28170
修好 28164
插件 28163
登机 28163
宠物@@ 28162
正当@@ 28162
ica 28160
入睡 28158
冰雪 28156
券商 28148
特意 28147
警卫 28145
02 28139
肥料 28139
CF@@ 28137
指针 28137
① 28135
重度 28131
颤抖 28131
年末 28126
酚@@ 28124
光束 28121
扎克 28116
要不是 28109
立法会 28104
不容@@ 28099
皮质 28098
奈 28092
公元 28090
流向 28085
切口 28084
贡 28084
哨@@ 28083
壮观 28083
呵呵 28078
概@@ 28075
益处 28071
一百 28070
沉浸 28070
水里 28068
扔掉 28067
宏观经济 28065
De@@ 28061
邹@@ 28058
Bo@@ 28054
二元 28052
禽@@ 28049
俄罗斯@@ 28046
据此 28044
地去 28043
会场 28038
整齐 28037
相识 28033
呼声 28030
斐@@ 28030
Wor@@ 28029
常识 28019
限定 28017
奢侈 28015
十六@@ 28013
小姑娘 28013
切片 28007
缺席 28005
三角形 28000
羞@@ 27994
肤色 27991
交替 27989
武术 27988
妆@@ 27987
幻觉 27987
选拔 27984
复仇 27981
严重@@ 27979
各界 27975
晃 27974
贸 27969
里程 27963
杀掉 27962
李先生 27960
丢掉 27956
医疗机构 27951
水电站 27948
购物广场 27947
芙 27946
装载 27946
纪录片 27944
反向 27941
振荡 27935
产业园 27934
戊@@ 27930
只想 27929
自有 27925
特尔 27918
金刚石 27917
Be@@ 27916
才华 27914
德州 27912
早饭 27911
绝大部分 27905
必然@@ 27904
镉 27901
打仗 27898
珊瑚 27895
沸@@ 27894
快速增长 27889
希特勒 27887
高分子 27887
务必 27885
测井 27884
初始化 27882
API 27881
递 27881
坚果 27880
Sch@@ 27877
谨@@ 27877
国际货币基金组织 27876
误导 27873
安迪 27870
75% 27868
泼@@ 27866
团聚 27860
怎样才能 27858
迷惑 27855
Si@@ 27853
反驳 27852
咋 27852
山村 27851
that 27847
州区 27841
缠 27839
窃 27836
粒度 27836
韩联社 27832
瑜 27830
哺乳动物 27821
知觉 27817
佰@@ 27815
业余 27814
纠缠 27812
分类@@ 27811
一条@@ 27800
训练@@ 27799
长老 27796
谜 27794
伐 27792
低廉 27791
公共卫生 27790
出错 27788
天体 27788
江县 27788
第二章 27774
盟@@ 27772
实惠 27770
债@@ 27767
半数 27766
找回 27763
001 27756
再现 27756
所得税 27753
中欧 27752
位子 27748
美国国会 27747
这颗 27743
悲惨 27740
免受 27736
鬼魂 27735
事业单位 27734
管局 27734
青年@@ 27732
炎热 27725
私募 27725
能耗 27724
分形 27719
寄给 27714
工商 27711
内核 27710
慰安妇 27708
黑龙江省 27707
恐吓 27702
星际 27700
丰厚 27699
垂 27697
开发人员 27691
核算 27691
兴市 27685
裁军 27683
比亚 27678
控制权 27676
哈尔 27672
时要 27672
不能@@ 27666
僵尸 27665
在此之前 27665
髓 27664
乃是 27657
栏目 27657
腹泻 27654
宠@@ 27652
剧情 27644
紊乱 27639
媒@@ 27634
很久 27634
百合 27633
标注 27629
波音 27626
David 27625
身着 27623
公爵 27621
沿岸 27614
维权 27613
成份 27612
空气质量 27603
Un@@ 27594
老太太 27591
体操 27588
库克 27588
倒闭 27584
坚守 27581
马铃薯 27581
现身 27580
品位 27579
克鲁@@ 27578
搭乘 27577
娜@@ 27574
所作所为 27574
就职 27569
幢 27565
朴@@ 27554
圈子 27549
妞 27546
宪@@ 27545
la 27544
专属 27541
注释 27537
招待所 27536
该市 27533
很酷 27532
怪异 27527
正直 27526
布莱尔 27525
哲学家 27522
姑@@ 27520
里程碑 27515
ith 27514
牧场 27506
支气管 27504
这辈子 27502
妈咪 27500
充电站 27497
反应堆 27497
算子 27494
综合@@ 27493
合计 27486
村镇 27486
搏@@ 27485
经受 27484
山地 27483
不可或缺 27481
四十@@ 27477
尼亚@@ 27476
到场 27475
白细胞 27474
Rob@@ 27472
台湾地区 27466
里亚 27460
姿@@ 27456
安全带 27455
设计方案 27455
跑车 27455
有点像 27454
猎物 27453
牢固 27449
0.05 27447
G20 27447
矫正 27446
停滞 27445
译文 27445
最先 27443
缓缓 27439
平衡@@ 27437
Ba@@ 27432
合法权益 27428
信号@@ 27425
频谱 27423
高低 27422
互补 27421
定居 27421
垒 27420
身心 27420
万亿元 27419
市场需求 27419
三角洲 27418
仁慈 27416
滞后 27415
老头 27413
炫耀 27412
悄悄 27410
学说 27408
戴着 27402
OS@@ 27401
数据源 27398
健康@@ 27394
体质 27391
榜单 27390
全自动 27389
出院 27387
宅@@ 27387
金子 27387
拉德 27386
低下 27385
口岸 27382
窗体 27382
丢@@ 27379
路程 27379
卖方 27378
致死 27377
...... 27376
脱水 27372
美德 27365
嫌 27355
花粉 27355
歌词 27352
民营企业 27352
堵@@ 27351
山路 27351
洗车 27351
向往 27349
主播 27347
矿井 27339
归还 27338
16.@@ 27334
剧场 27327
03 27326
责任感 27323
中立 27322
进出 27311
■ 27308
当心 27304
con@@ 27303
析@@ 27303
阿曼 27298
忧 27296
毁坏 27293
计划@@ 27293
无烟 27292
越大 27292
毁@@ 27275
沁@@ 27273
袜 27270
相干 27269
滞@@ 27256
囊肿 27253
ip 27252
海量 27252
消费品 27251
自由基 27245
放射 27244
玩得 27235
一辆车 27232
客运 27231
冷却@@ 27229
靴 27227
PD@@ 27225
人去 27219
师父 27219
窃@@ 27219
施压 27217
卖家 27213
详 27211
冥@@ 27208
赠 27208
患病 27207
改编 27206
害羞 27205
悲哀 27201
万年 27200
越是 27197
水力 27196
投机 27191
迪拜 27189
死后 27187
河道 27184
计画 27183
辐射@@ 27183
菌株 27176
撕裂 27173
赣@@ 27163
骆驼 27163
立委 27162
相符 27159
流畅 27158
靶 27158
琳@@ 27157
热心 27154
银行卡 27149
废墟 27147
其后 27133
清水 27131
纽约@@ 27128
扭 27126
崩@@ 27124
面子 27121
ss@@ 27120
冠心病 27114
否决 27114
开放@@ 27108
教科书 27107
此种 27103
梭@@ 27102
人生@@ 27100
市场竞争 27094
现实生活 27091
外交部长 27085
华夏 27084
山西省 27082
公顷 27081
烷@@ 27079
会话 27077
ins 27075
ef@@ 27073
华侨 27069
贵方 27069
冲浪 27061
刑罚 27061
潜能 27060
视频@@ 27059
真实@@ 27057
向着 27056
夕 27056
细则 27056
Ben 27049
亮度 27046
乳液 27040
疲惫 27040
封装 27039
PCR 27036
马里 27031
兄 27029
ash@@ 27027
近距离 27019
溅 27014
勺 27011
驯@@ 27009
石家庄 27008
布什总统 27006
卧 27005
长途@@ 27005
SS@@ 27003
河水 27002
诺夫 27000
怨@@ 26997
生鲜 26996
分散@@ 26992
江泽民 26991
河边 26991
abc 26989
滞 26989
实习生 26988
微分方程 26987
基本原理 26986
借用 26980
紫外 26980
高昂 26977
凸 26973
ne 26968
口服 26967
法在 26967
中止 26966
结实 26965
压抑 26961
厌@@ 26960
书中 26958
注明 26953
美人 26953
ard@@ 26950
伸 26945
岛内 26941
∶ 26939
差分 26938
疟疾 26936
四点 26934
存储器 26929
骏 26929
职场 26922
评委 26920
工况 26918
双层 26917
料理 26917
迭@@ 26913
淋巴结 26910
里奇 26909
表皮 26907
匹 26905
管理工作 26901
自发 26889
骑马 26889
解散 26885
祝愿 26883
棚@@ 26882
ong 26877
普尔 26877
翡翠 26872
离子@@ 26871
出具 26870
指挥@@ 26869
华联 26865
跟我来 26864
Fi 26862
五角大楼 26855
回路 26850
飞翔 26848
孵化 26845
爱国 26845
实用@@ 26842
心理学家 26838
禽流感 26838
聚氨酯 26837
一旁 26831
木业 26830
那段 26828
抗议者 26822
好几@@ 26821
宰@@ 26818
洒@@ 26818
筛@@ 26818
应激 26817
贯@@ 26816
活塞 26810
膳食 26808
克制 26807
户口 26805
石昊 26803
依法@@ 26798
证词 26798
音乐家 26780
军区 26776
钓 26776
嫌疑 26774
窖 26774
缺氧 26773
耀 26771
斥 26764
票据 26763
趣@@ 26762
卢旺达 26754
家家 26753
网路 26753
笼罩 26747
野心 26747
椒 26746
姜 26744
鲜血 26744
Charlie 26737
社保 26736
开端 26728
住处 26726
是否是 26726
誓言 26726
2500 26725
点半 26720
乔丹 26717
传输@@ 26717
伊尔 26716
该车 26716
ET 26712
工贸 26711
进食 26709
传给 26705
未曾 26705
打通 26703
抓紧 26703
宁县 26701
控告 26698
拾@@ 26691
海口 26690
称作 26689
说明书 26688
想不到 26686
着火 26677
乐于 26675
秃@@ 26674
联社 26674
上周五 26672
寻 26670
撇@@ 26669
陕西省 26669
AM 26667
充 26666
在世界上 26665
合理性 26661
沃尔特 26658
每股 26656
筹集 26654
频频 26653
警示 26647
栗@@ 26642
郝@@ 26637
残骸 26629
磁带 26626
左转 26625
Max 26623
住手 26622
转录 26621
中起 26615
危及 26614
三元 26613
抑@@ 26611
花园里 26606
雀 26606
胰@@ 26605
下台 26599
九个 26592
阵地 26590
排放量 26588
高贵 26588
胡萝卜 26586
太阳系 26585
德斯 26584
追赶 26575
野餐 26573
恶性肿瘤 26572
物业管理 26566
兽医 26558
伊斯兰教 26556
ane 26554
ect@@ 26554
约瑟夫 26553
保住 26544
喉 26544
ust@@ 26539
打着 26539
揽 26539
仕@@ 26538
见识 26534
宏伟 26533
系统性 26530
螺栓 26530
水体 26526
一封信 26525
悲观 26521
实用性 26520
滥@@ 26520
叙事 26514
欧洲人 26514
底特律 26513
初次 26512
辆车 26511
地为 26508
和谐社会 26505
维和 26502
化学成分 26498
期盼 26496
日历 26494
副局长 26492
执政党 26491
测量@@ 26490
穆 26486
Apple 26482
星期日 26482
橄榄球 26473
对准 26470
跟进 26462
露西 26461
密封@@ 26458
杂质 26442
售后服务 26440
打发 26436
液化 26436
窦@@ 26435
写出 26434
超高 26434
西蒙 26433
成本@@ 26430
晃@@ 26427
扬州 26426
小伙伴 26425
立案 26416
轩@@ 26416
三倍 26414
一连串 26412
西北部 26412
变速箱 26411
规划@@ 26411
召 26410
Gl@@ 26405
铸铁 26401
浓郁 26398
漂浮 26392
RO@@ 26386
多于 26386
喜好 26380
整晚 26379
波浪 26379
机能 26377
警戒 26376
28@@ 26374
刷新 26372
ve 26370
吓坏 26369
之初 26367
览@@ 26367
日语 26365
邀 26365
民间@@ 26363
卡罗 26361
庙@@ 26358
西南部 26358
千万别 26355
海绵 26353
新星 26352
汇聚 26348
仅次于 26345
微机 26342
re 26339
棋@@ 26336
遗嘱 26336
弘扬 26335
钳 26333
兔@@ 26332
晴@@ 26329
肉体 26326
估@@ 26323
忘掉 26323
粉红色 26321
相邻 26320
火炬 26319
哨 26303
标的 26302
这人 26301
Ab@@ 26300
套装 26297
凯蒂 26296
SE@@ 26293
庇护 26288
3.5 26279
别管 26276
承包 26268
移除 26267
几小时 26265
茗 26264
芳香 26263
反腐 26262
网易 26262
小型@@ 26261
小费 26260
首届 26253
从根本上 26252
黑莓 26251
搏 26249
35@@ 26246
第三季度 26242
就业机会 26241
接手 26241
黄瓜 26240
侍@@ 26237
着迷 26236
巢@@ 26235
电力系统 26234
第三章 26233
纪念品 26232
大众@@ 26231
放手 26229
掺杂 26220
歇 26219
拓@@ 26218
介 26217
法对 26207
梦幻 26206
三条 26203
矿石 26203
腊@@ 26203
佛罗里达州 26200
央@@ 26198
安东尼 26198
打动 26198
我省 26194
使用寿命 26193
港元 26192
腹腔镜 26189
自然界 26189
欧洲央行 26185
军用 26180
大熊猫 26180
枣 26179
萨德 26173
院士 26173
基因@@ 26167
境地 26165
op 26163
匆忙 26162
伐@@ 26152
语境 26148
餐桌 26148
解脱 26147
军演 26146
咽@@ 26145
ase 26143
防火 26143
夺走 26142
考虑一下 26141
西班牙语 26139
鳄鱼 26136
试剂 26133
发疯 26127
典范 26120
发力 26119
叹@@ 26116
入选 26115
线圈 26114
赢家 26112
王先生 26110
对外开放 26108
夫斯基 26105
金矿 26097
环形 26096
洗涤 26086
增益 26079
放宽 26076
某事 26075
府@@ 26072
Twitter 26071
灌木 26069
穆罕默德 26068
轰炸机 26063
赶来 26061
只见 26054
特产 26054
开源 26050
分析@@ 26049
指挥部 26047
诊治 26047
期内 26045
近乎 26044
基石 26041
高涨 26039
救命 26038
量表 26037
地缘 26036
抗性 26036
详细信息 26034
布斯 26033
首领 26031
阳极 26027
保温 26025
平滑 26023
方向盘 26023
旦 26023
班机 26022
凯西 26020
揭开 26019
唯有 26018
性行为 26017
甫 26016
星光 26014
孩 26013
楠 26012
行动计划 26012
Peter 26010
仔细@@ 26005
肚 26004
ana 26003
一队 26002
推断 26002
一波 25995
怎@@ 25993
芝 25993
保险箱 25992
福克斯 25982
民意 25975
坞 25968
诡异 25964
保护区 25962
填料 25962
县级 25960
水池 25959
戴上 25958
部份 25958
魔力 25958
有线 25957
龙头 25954
MRI 25953
谈起 25946
阻尼 25941
科比 25940
摆放 25934
长长的 25930
两党 25929
用处 25927
数据处理 25926
检查一下 25924
中国人民银行 25923
池塘 25923
誓@@ 25923
敞@@ 25921
合伙 25920
多点 25917
衰减 25909
For@@ 25907
回购 25907
韩国政府 25906
测定方法 25900
规程 25895
来往 25890
巫@@ 25884
外围 25879
轴向 25877
严密 25862
高尚 25861
阐释 25859
101 25857
1987 25857
缅@@ 25853
看一看 25850
粮食@@ 25850
乔伊 25847
磺@@ 25845
金发 25838
屯@@ 25835
客户机 25833
正向 25833
爹 25833
平壤 25831
疲软 25830
出版物 25828
欺负 25828
中文@@ 25823
亿日元 25821
智商 25819
跳动 25819
95% 25817
逗 25815
COM 25814
高价 25812
搜 25811
警员 25809
理想@@ 25801
哑@@ 25800
本性 25800
专门@@ 25797
伤者 25792
遥控 25792
女郎 25787
一例 25784
晚点 25781
27@@ 25779
店主 25778
房东 25775
急于 25771
扭矩 25770
甜美 25763
大叫 25761
求求 25760
中场 25757
加利福尼亚州 25755
人事@@ 25752
琴行 25747
波形 25746
苍蝇 25745
乃 25744
异性 25741
ive 25735
打球 25732
收据 25731
归来 25730
1985 25729
动力@@ 25728
兰德 25720
取得成功 25718
传热 25716
优秀@@ 25715
钦@@ 25715
法官大人 25714
黑白 25712
中路 25708
全球@@ 25708
邮寄 25707
抑制作用 25706
之王 25702
老兵 25701
交易@@ 25700
上路 25698
二期 25696
就象 25696
活性剂 25695
车票 25695
转弯 25693
借此 25690
反过来 25689
程式 25688
趋于 25683
屏障 25682
推向 25682
承办 25680
my 25678
笨@@ 25674
切削 25670
麻醉@@ 25670
粘膜 25669
尔森 25667
亚瑟 25664
利好 25664
法制@@ 25663
米粉 25662
脑海 25662
兴建 25660
超人 25660
增高 25659
大王 25658
衍生物 25657
清华大学 25654
水肿 25651
减税 25650
拉夫 25649
1986 25648
秘 25647
事要 25646
出演 25646
小船 25645
筋@@ 25644
形态学 25636
今天上午 25635
穿刺 25635
倒霉 25634
分工 25633
暴跌 25632
契@@ 25627
蔚@@ 25626
北京大学 25621
铂 25621
珊 25618
地处 25615
人中 25612
程序员 25612
仿 25603
麻辣 25602
妈@@ 25601
第七 25599
酗酒 25598
疑虑 25596
虚构 25592
出价 25589
盒@@ 25588
聚类 25588
浸 25584
07 25583
一晚 25583
为首 25583
阴性 25582
拉姆 25576
报考 25572
笋 25570
公关 25566
圣地 25566
新冠 25564
色调 25559
牛顿 25557
真实性 25550
紧迫 25549
嗜@@ 25542
稀释 25542
清算 25537
精选 25537
职权 25535
肝炎 25532
完整性 25529
粘土 25526
去掉 25524
渔具 25522
工作岗位 25521
国度 25520
转过 25520
捞 25515
扰动 25513
涨价 25505
十六 25500
用电 25499
椭圆 25495
蹲 25494
月光 25490
步枪 25487
窦 25487
孔隙 25483
该校 25483
遥@@ 25482
彬@@ 25481
发挥作用 25478
晴 25477
究@@ 25477
其间 25476
豫@@ 25476
油画 25467
全国性 25464
Pat@@ 25462
灼@@ 25461
香气 25461
商户 25455
赴@@ 25455
叉@@ 25452
wor@@ 25451
黑夜 25450
奥尔@@ 25447
好些 25445
推移 25445
村委会 25443
换取 25442
本体 25441
诱人 25441
把戏 25437
沙子 25437
CAD 25435
Gar@@ 25433
拓 25432
徘徊 25431
堕落 25430
正值 25430
师生 25427
客观@@ 25424
廷@@ 25420
一出 25414
耗费 25414
勒斯 25412
夷@@ 25411
时分 25411
国会议员 25410
坚 25405
韩立 25404
西瓜 25402
can 25401
痘 25401
印第安人 25400
LG 25397
唉 25397
某一 25389
开火 25388
不良@@ 25387
贫血 25387
与会 25385
悉@@ 25385
功能性 25384
综合症 25382
并不知道 25377
我市 25377
过错 25375
无线@@ 25373
格拉 25370
该机 25368
顽@@ 25366
平息 25365
开办 25365
旅店 25365
份@@ 25362
重现 25362
薪资 25361
营销@@ 25353
喝咖啡 25336
敦 25336
熙@@ 25334
追捕 25334
台球 25330
搬家 25330
游艇 25326
统治者 25326
滑稽 25325
邪 25325
危险性 25323
Hol@@ 25315
棒极了 25313
感谢您 25310
续航 25308
倘若 25305
好比 25305
个股 25304
勤奋 25303
锚@@ 25299
Wh@@ 25295
跪 25294
簇 25292
分会 25287
海军陆战队 25284
高新区 25283
努 25282
前台 25279
知名度 25279
1.6 25278
威尔士 25276
椰@@ 25276
纯洁 25276
服务公司 25272
特许 25270
拉克 25265
价位 25263
咪 25262
聂@@ 25262
改正 25249
06 25246
成都市 25246
工作站 25245
包子 25243
拽 25240
搬迁 25235
监局 25235
一站 25228
动向 25224
时任 25224
化剂 25222
谎 25222
骏@@ 25221
办学 25218
殖民@@ 25217
锂 25217
心率 25214
牙医 25208
接连 25206
人才培养 25205
心理健康 25205
衔接 25202
空前 25201
台湾@@ 25198
坦言 25197
域名 25197
规范化 25197
应得 25194
樱桃 25189
删@@ 25187
水利 25187
订婚 25185
婆婆 25182
浸泡 25177
遗传@@ 25170
姆斯 25168
电泳 25165
辱 25158
你方 25157
大风 25155
策@@ 25155
李家 25153
沸腾 25153
动人 25151
缴费 25151
被盗 25148
愤@@ 25143
陈水扁 25143
CM@@ 25142
钴 25140
牟@@ 25135
控制中心 25125
地被 25124
静止 25124
检讨 25123
挽回 25120
04 25117
夏日 25114
才行 25112
抽取 25111
自然灾害 25109
mg 25107
绿色@@ 25107
散布 25105
养老保险 25104
逊@@ 25103
殷@@ 25100
蓉 25095
妇人 25093
中情局 25090
侵袭 25088
三十年 25086
惟一 25085
罢 25078
再生能源 25077
AI@@ 25075
est 25074
誉@@ 25074
一模一样 25072
搞清楚 25067
坚硬 25066
深入研究 25062
秘鲁 25062
洛阳 25058
盛世 25057
201@@ 25056
暑 25054
增压 25053
正常人 25053
疆 25050
世间 25049
熟知 25049
数千 25048
羞辱 25044
夸大 25042
陈枫 25041
商界 25039
整数 25038
完工 25028
慎@@ 25027
饲@@ 25026
悠久 25021
多方 25018
邢@@ 25011
宗教@@ 25009
莲花 25000
不感兴趣 24992
商务酒店 24983
聘用 24982
com@@ 24981
菊@@ 24977
很久以前 24976
不规则 24973
会来 24973
布鲁塞尔 24964
购物@@ 24964
乏味 24963
走到 24963
架子 24961
鲸鱼 24961
膛 24960
霍华德 24960
脸部 24958
沃尔沃 24955
超标 24955
跨界 24953
压电 24950
岔@@ 24950
福岛 24948
粗鲁 24947
银色 24947
得意 24946
笼子 24940
蹦@@ 24938
乖乖 24934
哪种 24925
拌 24921
冷漠 24919
立马 24918
壮大 24913
免疫系统 24908
空气@@ 24908
电信@@ 24905
屈服 24903
大为 24899
捣@@ 24899
引人@@ 24897
极力 24891
伴有 24882
薄弱 24882
巴格达 24876
看清 24875
获益 24874
德里克 24872
拢 24872
径向 24871
委托人 24869
专访 24867
cl@@ 24865
外人 24865
离心@@ 24863
袋@@ 24860
大屠杀 24853
尖锐 24850
德勒 24847
调速 24846
承载力 24844
逛 24839
秘诀 24837
价格上涨 24836
大盘 24835
螺纹 24835
一心 24831
两地 24831
架飞机 24827
电能 24827
澎湃 24823
新任 24822
轰 24822
绒@@ 24820
前列腺 24818
大气层 24818
僵局 24815
摄氏度 24813
Windows@@ 24810
指明 24810
盗 24810
桂 24807
恐 24806
被誉为 24801
隐蔽 24797
升至 24785
IF@@ 24781
可控 24780
数十年 24779
已婚 24777
火烧 24776
乡下 24771
省市 24770
喝水 24769
布鲁斯 24769
哈佛大学 24766
梵@@ 24765
抗战 24763
铃@@ 24758
农贸市场 24757
别无选择 24751
嫁@@ 24751
轮椅 24748
王后 24747
火鸡 24744
内裤 24743
赛场 24741
他俩 24740
族人 24736
灯泡 24730
管线 24730
这么久 24730
截然不同 24729
发表@@ 24728
皮瓣 24727
胃口 24725
一站式 24722
十几@@ 24720
画像 24718
荣获 24718
文斯 24717
工艺@@ 24708
克莱尔 24706
车载 24705
中国台湾 24703
无损 24702
per 24701
监护 24695
雷诺 24695
施工@@ 24694
分期 24691
掘@@ 24690
信息安全 24686
电影节 24684
无罪 24681
后勤 24680
走运 24679
出局 24676
无缝 24674
器具 24672
天后 24672
LO@@ 24670
两份 24670
畏惧 24667
宣誓 24664
随访 24663
萨尔 24660
难看 24660
油墨 24658
捕鱼 24655
CE@@ 24652
后门 24652
布莱克 24651
深海 24643
激增 24642
O2 24641
官司 24640
权重 24640
共产主义 24639
诺言 24634
私人@@ 24633
兴盛 24629
地道 24627
护航 24623
规避 24621
故宫 24620
浓厚 24618
守卫 24616
惠民 24616
稳固 24615
心想 24613
轻轻地 24612
忙于 24608
地雷 24605
危险@@ 24604
人际关系 24603
幼 24602
粉色 24598
友情 24597
客户@@ 24597
ST@@ 24592
社会学 24590
并称 24588
纪念@@ 24588
旺盛 24587
捉 24586
ean 24583
右转 24579
马拉@@ 24577
下个 24576
超大 24574
驾照 24573
故乡 24570
小队 24567
外伤 24566
淋 24564
新手 24562
霍尔 24559
硕 24558
值班 24557
浮现 24556
AS 24555
植株 24553
处处 24548
鞘 24545
Ra@@ 24544
店员 24543
心目 24543
国有@@ 24541
稳步 24541
29@@ 24537
伸展 24536
增长速度 24536
难免 24534
辽宁省 24529
转而 24527
袖@@ 24526
魄 24525
巫师 24522
厌烦 24521
本着 24521
群众@@ 24515
嫩@@ 24507
监理 24505
起火 24503
过往 24503
聋 24497
断面 24491
流行病学 24489
艰巨 24489
骨架 24487
可变 24486
代理商 24485
两分钟 24480
掷 24478
衰落 24477
学生@@ 24472
挡住 24472
小学生 24470
摄影@@ 24466
纠结 24463
光彩 24462
脊@@ 24459
循环@@ 24457
火山@@ 24455
农村信用 24454
互信 24452
问过 24452
NBA 24449
民族主义 24446
喇叭 24445
cm 24443
引来 24441
焚烧 24441
臀部 24436
达拉斯 24436
猜猜 24430
膏@@ 24429
宁市 24428
剖@@ 24418
布雷 24418
知识分子 24417
何不 24412
流水 24410
国产@@ 24406
旅行者 24406
标志性 24404
气泡 24403
加盟店 24402
三季度 24400
竞争者 24400
颂 24399
就读 24392
二阶 24389
谢谢你们 24387
Ev@@ 24381
对阵 24381
被称作 24381
土地@@ 24380
吞噬 24379
西湖 24378
悲痛 24370
这首 24366
摔倒 24362
章程 24359
站立 24356
轻型 24356
尝尝 24353
犯错 24352
蹄 24351
文件@@ 24350
斯科 24350
动能 24349
浮动 24342
变质 24340
激怒 24339
用不着 24339
先行 24337
没人能 24336
ation@@ 24329
高斯 24328
撤出 24325
种植@@ 24324
隙 24320
马特 24320
过期 24317
放射@@ 24316
那家 24313
决策者 24311
总计 24311
ber@@ 24310
增至 24310
慰 24310
BA 24309
犯罪现场 24309
甲醇 24308
女演员 24302
核电 24302
思念 24300
疗 24300
硫酸@@ 24299
女巫 24297
脑部 24289
转为 24289
永久性 24285
足迹 24285
生机 24283
计算结果 24283
仓储 24280
运动会 24280
坠落 24278
一段@@ 24276
最受 24274
18.@@ 24272
庭审 24272
局限 24271
导电 24270
人手 24268
低收入 24266
豁免 24259
减压 24258
口罩 24256
万平方米 24247
电邮 24247
耐药 24247
十字架 24246
ks 24241
查查 24240
较差 24236
编辑器 24232
物理学家 24231
命题 24224
虚拟现实 24223
光盘 24222
固态 24220
MBA 24213
腐烂 24213
透镜 24213
学习者 24212
蓝图 24212
拳击 24207
农户 24202
彭 24197
镇压 24197
瞬@@ 24195
理工大学 24191
AT 24190
法国@@ 24187
不光 24184
维修@@ 24181
抉择 24177
蝙蝠 24174
谅解 24171
地震@@ 24170
饱受 24170
失衡 24168
俄方 24162
特派团 24162
便携式 24161
记录@@ 24157
三亚 24149
CC@@ 24147
狩猎 24147
座谈会 24146
吓人 24143
剧中 24140
豪华@@ 24137
刻意 24136
地理位置 24133
嵌@@ 24132
航运 24131
ney 24129
真不错 24125
靴子 24122
皇室 24121
数个 24120
监管部门 24120
露面 24120
三号 24118
绘图 24117
贴心 24113
创业@@ 24111
拆卸 24110
斑点 24109
球形 24102
皂@@ 24099
扎实 24096
清白 24094
卡路里 24093
夺取 24091
城镇化 24089
let 24084
养分 24083
职人员 24079
现存 24075
透视 24075
深深地 24071
孤儿 24068
战略性 24066
外婆 24064
空心 24064
牲畜 24059
好坏 24057
里奥 24055
主导@@ 24053
兼顾 24053
中来 24048
朋@@ 24046
波导 24044
贯 24044
MA 24042
饶@@ 24042
拳头 24040
烟台 24040
走走 24038
淋浴 24036
再来 24032
行政部门 24031
南京市 24029
钢结构 24029
界线 24028
首款 24025
活动@@ 24024
战斗@@ 24023
弟兄 24021
建设项目 24015
共鸣 24013
起始 24013
狭@@ 24012
韩国@@ 24011
园艺 24010
om 24006
农机 24005
卡梅伦 24005
人造@@ 23995
修女 23995
酶@@ 23994
酒家 23993
集成电路 23993
背着 23991
台词 23989
外侧 23989
中称 23987
Ⅰ 23981
OK 23980
相等 23979
矿区 23977
围巾 23976
德利 23976
错误@@ 23974
ps 23972
二零零@@ 23970
周期性 23967
门户 23964
不仅如此 23960
余地 23959
果断 23955
太原 23953
千元 23949
严谨 23947
挤出 23944
产妇 23943
谊 23943
立方米 23939
我花 23935
邑 23934
股票市场 23933
布拉 23929
抗拒 23929
前列 23924
生命周期 23923
虾@@ 23923
开发计划署 23922
奴@@ 23921
不带 23920
Sy@@ 23919
优选 23915
开个 23913
倒下 23898
贱 23895
产值 23893
英国政府 23892
万亿 23891
中式 23891
橙色 23890
虫子 23890
太平 23885
学术界 23884
率领 23882
挑战性 23879
乘车 23877
储量 23875
纪念碑 23875
通路 23874
一匹 23872
钢笔 23872
盎司 23870
全场 23868
扇门 23867
迎合 23866
沙特阿拉伯 23863
赛道 23859
气压 23854
再也不会 23846
驱逐舰 23843
威尼斯 23842
好孩子 23839
敏锐 23837
IA 23836
荒唐 23836
克森 23834
时间@@ 23834
抗震 23829
TP 23824
堡@@ 23824
欧文 23821
栽@@ 23819
来信 23818
催化@@ 23814
王室 23814
窥@@ 23814
零售@@ 23812
新政 23811
沾 23807
体育运动 23803
克利 23801
发生器 23799
神情 23796
混淆 23792
展览会 23791
幅@@ 23791
硼 23791
西红柿 23790
逻辑@@ 23788
几名 23786
大局 23786
万台 23785
呼吸@@ 23783
中学生 23781
不至于 23778
打车 23777
菲利普 23777
高产 23777
露天 23776
征税 23775
重伤 23774
无礼 23773
细化 23772
这艘 23772
饮品 23772
耕 23769
Pro 23766
日趋 23759
经验@@ 23758
结肠 23757
变频 23755
遇难者 23752
鑫源 23750
净值 23749
落户 23749
水印 23748
至此 23748
那人 23748
膨@@ 23745
捐献 23743
失调 23742
年来 23737
公务 23736
泳 23732
细腻 23731
杰瑞 23730
证监会 23728
感官 23726
呼唤 23725
叔 23722
百分比 23722
PA 23720
河里 23719
一瞬间 23717
ya 23715
独有 23715
总算 23714
二月 23709
汤米 23708
孜@@ 23707
最坏 23706
便民 23703
enny 23700
ml 23699
崇高 23697
亲手 23693
贮@@ 23692
安全局 23689
整形 23678
葱 23678
勒索 23676
销售量 23675
彦 23674
爷@@ 23674
猎 23674
瘦身 23674
肥皂 23674
防护@@ 23674
第一名 23672
板材 23671
探针 23670
责令 23668
广大@@ 23666
John@@ 23660
蓄电池 23659
11@@ 23656
男女@@ 23656
ook 23654
挣钱 23654
总的来说 23652
穿透 23652
中途 23647
排查 23646
检方 23646
Fre@@ 23645
糕 23645
渲染 23644
窃取 23643
埠 23640
走来 23640
采纳 23640
股本 23639
隐喻 23638
吸收@@ 23636
绵羊 23636
育种 23634
会议@@ 23630
二极管 23623
印发 23623
闹钟 23623
转载 23621
骚乱 23621
天文学家 23620
伸手 23618
通讯@@ 23618
班上 23616
} 23615
口市 23612
烤鱼 23612
表单 23610
失眠 23609
阳光@@ 23603
瞎 23596
塑胶 23595
砷 23595
过早 23591
屡@@ 23585
ash 23582
三层 23579
位数 23578
夸 23578
闪光 23578
em 23574
减排 23570
计算公式 23566
撤退 23560
公路@@ 23557
落入 23556
有线电视 23554
人行道 23548
虔诚 23547
戴维斯 23545
发电厂 23544
巴拉克 23544
营救 23544
极好 23542
绿地 23539
鸡尾酒 23538
0.01 23534
de 23532
非法@@ 23529
co 23528
上天 23528
姐@@ 23525
湖区 23525
特纳 23525
交所 23524
埃里克 23523
黄焖 23522
端的 23519
恒大 23518
补给 23516
Sam@@ 23511
一击 23511
徽@@ 23511
共建 23510
幸好 23510
石膏 23510
IL 23503
芒果 23502
MP 23499
救生@@ 23499
读过 23499
走近 23499
茱@@ 23497
陀 23496
夺得 23491
迎 23491
第二季度 23488
雌性 23488
工党 23485
Serv@@ 23483
保护主义 23483
核能 23478
合法性 23475
本赛季 23473
0.5 23466
马达 23466
iss@@ 23465
坐落 23464
外汇储备 23464
太平@@ 23463
本报讯 23458
ia@@ 23454
童话 23453
人性化 23451
按键 23450
麦凯恩 23450
12% 23448
深感 23448
崖 23447
考古 23447
皆@@ 23441
项目管理 23439
枪杀 23437
滨海 23437
钻孔 23437
兜@@ 23435
校准 23433
雏@@ 23433
有无 23432
蚁 23428
日军 23427
骗局 23427
ol 23426
否 23425
开发利用 23425
大理石 23422
政协 23420
远方 23419
完备 23415
堆积 23414
请来 23414
全过程 23413
挑剔 23412
抽出 23411
琦 23411
注册@@ 23407
糕点 23406
家庭成员 23405
照亮 23405
课程@@ 23398
瓷@@ 23396
键入 23396
弧 23393
蓝牙 23392
前置 23391
第一件 23390
向来 23389
多态性 23389
活儿 23388
孢子 23387
上皮 23383
中子 23383
人用 23380
分担 23378
瑞斯 23373
管理体系 23372
鞍@@ 23372
这样一来 23369
手掌 23368
PM@@ 23366
沉积物 23366
台当局 23365
存量 23364
穿梭 23364
郑 23364
300@@ 23363
诸 23360
少年@@ 23359
截 23358
碘@@ 23357
人才@@ 23356
疾 23353
矿物质 23353
本期 23352
erry 23349
并联 23347
公示 23346
age 23345
华北 23345
可可 23345
农资 23344
Sha@@ 23339
增值税 23338
拱 23337
批量 23336
收紧 23336
早前 23333
乳腺 23329
斯汀 23325
皱@@ 23325
祈求 23321
张家 23320
Char@@ 23317
整顿 23316
适应@@ 23316
{ 23315
田野 23315
还款 23311
处以 23310
您好 23306
格兰@@ 23306
评为 23306
盛宴 23302
1984 23301
all@@ 23300
下水 23296
园林@@ 23292
首脑会议 23292
力求 23290
江西省 23290
川县 23288
传播@@ 23286
管理器 23285
寸@@ 23280
连续@@ 23279
蓬勃发展 23278
赶走 23277
分明 23272
不理 23271
使用权 23271
变化规律 23270
丈 23269
令人满意 23269
分析表明 23269
姚明 23268
东北@@ 23267
售出 23266
愿景 23263
SA 23262
致敬 23260
泳池 23259
连任 23253
历时 23252
关键问题 23249
山坡 23245
游玩 23243
子孙 23242
踏 23234
床单 23228
参展 23216
拆迁 23216
北大 23211
性生活 23211
星巴克 23211
交响@@ 23207
无人@@ 23206
高级官员 23206
同年 23204
分流 23198
灭火 23195
环境污染 23193
疲倦 23190
推特 23189
ek 23188
大蒜 23188
塌@@ 23183
餐具 23183
报案 23182
南县 23179
地铁站 23178
那本书 23178
生死 23172
CA 23171
打过 23167
狱 23162
社会化 23156
小波 23150
绘@@ 23150
工件 23148
试样 23146
卫生所 23140
扩充 23138
小提琴 23137
目击 23136
刘家 23134
大不了 23133
当今世界 23133
受灾 23132
赚@@ 23132
多亏 23131
陀@@ 23129
切开 23127
自来水 23126
协调@@ 23120
ct@@ 23119
内特 23116
来不及 23115
国情 23113
神经系统 23113
胡同 23110
煎@@ 23109
血统 23108
咒 23106
无能为力 23106
生命力 23105
原位 23104
一团糟 23100
处长 23100
丽人 23096
不良反应 23092
翘@@ 23092
听觉 23090
被控 23087
冰岛 23086
电气@@ 23085
萝卜 23082
帽@@ 23081
境@@ 23076
P2P 23074
劫持 23073
链条 23069
佑 23063
一维 23061
不合 23058
反演 23058
皱纹 23049
收看 23048
盟国 23048
语言学 23048
烟气 23047
寺庙 23046
显出 23046
转会 23045
咱@@ 23043
红十字会 23042
木门 23041
联络@@ 23040
司法部 23038
一枪 23037
领导小组 23037
疗@@ 23035
谢谢您 23035
水泥@@ 23034
斯里兰卡 23028
半天 23027
下旬 23022
市场营销 23022
go 23021
栅 23013
澄@@ 23009
一节 23005
德曼 23005
纯度 23004
波斯尼亚 23001
涉 23000
价值@@ 22992
起重机 22991
场馆 22989
蕴@@ 22989
抽样 22988
凭证 22987
CP@@ 22983
全套 22983
破坏性 22983
采矿 22983
单调 22977
那件 22977
一小部分 22976
再用 22976
蓬 22974
人文@@ 22973
大纲 22971
可口 22969
戈尔 22967
剑桥 22965
中央银行 22964
供热 22964
Sa@@ 22962
河口 22962
滔@@ 22962
民事@@ 22961
碳纤维 22956
韧带 22954
钼 22951
取样 22950
相片 22946
车门 22946
转运 22945
世贸组织 22944
商讨 22937
辨别 22937
美术馆 22935
飘 22935
日讯 22934
风扇 22931
理学 22928
戒烟 22927
中年 22920
打折 22919
Galaxy 22915
布满 22915
裹 22915
粉煤灰 22910
张开 22909
锯 22909
商业化 22908
议长 22903
万能 22902
核酸 22902
动脉@@ 22901
一年@@ 22898
政府军 22895
绳@@ 22895
重回 22892
装饰@@ 22891
我們 22890
凌 22886
太空@@ 22886
核对 22886
过失 22886
分队 22880
大洋 22879
矿工 22879
卫生部 22867
电讯 22863
有多@@ 22862
请参阅 22860
NASA 22855
一阵子 22852
婴童 22846
薯条 22846
黄酮 22844
国税局 22841
深渊 22834
考量 22833
旅游局 22831
绝佳 22831
馄饨 22831
im 22827
压缩@@ 22827
蒂姆 22827
终生 22819
相近 22818
泄 22815
房里 22814
巡航 22813
电容器 22809
ant 22807
另一半 22807
Sarah 22806
这天 22806
游说 22805
公益@@ 22803
脚趾 22798
韩方 22798
犬@@ 22797
巡逻@@ 22795
毯子 22791
剃@@ 22790
借钱 22786
卜 22785
修炼 22783
白云 22782
CH@@ 22781
擅自 22776
光灯 22772
少于 22772
这能 22771
下场 22769
一律 22767
精明 22766
前不久 22764
可悲 22760
清真寺 22757
伊斯 22756
曙光 22754
二十世纪 22753
移动@@ 22748
舔 22748
自尊 22747
往前 22745
叫醒 22743
循@@ 22743
涵@@ 22742
实验性 22738
私 22738
公平@@ 22737
出入 22737
组长 22735
皮带 22731
油藏 22730
公车 22729
厄 22729
血性 22729
诊疗 22729
宁可 22723
徐州 22723
滤 22722
光照 22721
匙 22718
极高 22718
一国 22716
怜悯 22716
提振 22716
省政府 22711
空缺 22709
不予 22708
总体@@ 22707
蛮@@ 22701
怀着 22697
HT@@ 22696
活下去 22695
永生 22693
丙烯酸 22690
僵@@ 22690
水利@@ 22690
霉@@ 22689
头衔 22688
仆 22687
太远 22687
著称 22682
那份 22682
鲜艳 22682
四次 22681
多伦多 22678
检修 22677
狠 22676
详尽 22676
狠@@ 22670
雁@@ 22669
tr@@ 22668
晋升 22665
土著 22660
聚乙烯 22660
大有 22658
登场 22653
摩擦@@ 22649
贵州省 22648
拜登 22644
学界 22643
髓@@ 22643
乏 22642
捏 22637
到访 22636
阿拉斯加 22635
公安部 22633
商品房 22633
制卡 22631
带入 22631
亭@@ 22630
妻@@ 22630
Joe 22629
世代 22627
糟@@ 22627
载有 22626
精通 22624
成功率 22623
惯性 22621
蝶@@ 22618
航海 22615
斯蒂芬 22611
饥@@ 22605
当地政府 22603
里德 22603
敷 22601
Don@@ 22599
印度洋 22599
贩卖 22599
ma 22594
专栏 22590
垢 22590
倾 22588
堤@@ 22588
汽 22587
自然保护区 22585
镇痛 22582
飞行@@ 22579
平面@@ 22577
裸 22576
腹腔 22575
马桶 22574
内有 22571
惠普 22566
漫 22563
肇@@ 22562
疹 22560
第一家 22559
挂钩 22555
焰 22555
御 22553
棱@@ 22553
源泉 22544
砸@@ 22541
毛发 22540
西安市 22540
联系人 22539
预案 22537
起源于 22535
潜 22534
灯具 22534
绝缘@@ 22532
化学反应 22530
半球 22528
杂种 22526
理疗 22526
围着 22524
PP@@ 22522
档@@ 22522
就医 22521
电解 22521
黏膜 22521
日益@@ 22519
马德里 22518
乙酸 22517
路由器 22515
风景@@ 22514
暗杀 22508
亚伯拉罕 22507
口腔诊所 22504
少儿 22501
不容 22499
恋人 22499
直达 22493
谱仪 22492
腰椎 22490
小幅 22486
世界级 22485
套管 22483
二氧化@@ 22481
金融体系 22481
战斗力 22473
各有 22471
成交量 22470
冷水 22467
芙蓉 22467
带子 22466
该行 22463
外衣 22462
人民网 22459
激酶 22459
以南 22458
串联 22456
测算 22455
际@@ 22455
区域性 22453
潭@@ 22452
ta 22451
0.0@@ 22450
热议 22449
盐水 22447
格鲁吉亚 22446
ess 22444
纤 22442
茅台 22436
皮层 22435
门市部 22434
政变 22432
裸体 22429
酸酯 22423
平坦 22422
西斯 22422
拓宽 22421
追查 22421
for 22415
岩体 22413
不全 22412
Mac 22408
个人电脑 22402
手脚 22402
卡通 22400
有效期 22400
相差 22399
拉里 22398
巨星 22397
本事 22397
表层 22397
遂 22393
联通 22391
瑞德 22390
射流 22388
凯尔 22386
英俊 22385
粪便 22381
轨@@ 22381
广播公司 22372
握住 22372
七点 22368
卑@@ 22367
管理模式 22366
更进一步 22364
娇 22363
入狱 22362
祸@@ 22361
服务质量 22360
高阶 22355
竭力 22354
直言 22347
画画 22345
1979 22341
逗留 22338
关键字 22334
James 22333
Luc@@ 22333
牛津 22332
之手 22326
这所 22326
少校 22323
必备 22323
专利@@ 22322
据统计 22322
主席团 22319
车手 22319
轻度 22318
地税局 22317
捐助 22313
至上 22313
肤 22307
弦@@ 22306
胚 22306
结核 22305
恢复正常 22303
闯 22302
听过 22300
一脸 22292
新版 22291
玛丽亚 22291
匀 22290
磁共振 22290
质地 22290
航天@@ 22289
格里@@ 22280
谱分析 22280
释 22277
元首 22276
地块 22272
墨水 22272
报社 22270
看吧 22265
立体@@ 22262
合物 22258
Frank 22255
感性 22252
加速度 22250
酯@@ 22250
医用 22249
知不知道 22247
意想不到 22246
格林@@ 22246
瑞秋 22246
说服力 22244
薪@@ 22243
对流 22241
挣@@ 22240
蜀@@ 22235
★ 22229
轧 22227
私营 22224
O2O 22223
行进 22222
金融业 22219
督@@ 22218
希腊@@ 22217
高炉 22215
新政府 22213
讳 22213
眠@@ 22212
约旦 22212
ure@@ 22211
Li@@ 22210
户籍 22210
碰巧 22210
贝蒂 22210
想得到 22207
平均水平 22196
修士 22193
嗪 22193
逐年 22186
本案 22185
轨道交通 22185
FC 22183
1.8 22182
褐@@ 22180
颐@@ 22178
HIV 22176
缆@@ 22174
绩 22173
st 22170
内陆 22168
追溯到 22166
麻痹 22166
埃尔@@ 22164
分段 22163
琪@@ 22162
罗斯福 22160
Alex 22159
门徒 22159
鹦鹉 22159
喷雾 22158
针刺 22157
血腥 22154
首府 22154
喝杯 22152
无形 22150
罐头 22150
间距 22150
网购 22146
工作日 22145
最棒 22141
嫌疑犯 22139
星空 22139
弹头 22138
咖啡机 22131
察觉 22130
南美 22128
常年 22127
把门 22123
立足 22120
悔 22117
按揭 22115
温家宝 22114
每种 22107
特色@@ 22107
普遍认为 22104
一味 22103
下落 22103
劣@@ 22103
杀人@@ 22101
不育 22100
着想 22100
限额 22100
丑陋 22099
米线 22099
口腔@@ 22097
二年 22095
热力学 22094
存货 22092
在一起 22091
素养 22088
不对劲 22084
母语 22083
喝茶 22081
校园@@ 22081
需求量 22080
圣地亚哥 22078
日化 22078
管子 22078
流逝 22075
消防员 22075
一班 22074
哄 22068
中医药 22067
接吻 22064
盏 22064
年份 22062
气囊 22061
肖恩 22060
上层 22059
涌现 22058
安德@@ 22052
器械 22051
常见@@ 22047
昔日 22046
很感兴趣 22044
转换成 22043
拉尔 22040
事是 22038
投资银行 22038
互助 22031
35% 22030
为准 22028
透析 22027
每秒 22023
莱德 22023
领导@@ 22023
He@@ 22022
大大的 22018
匪@@ 22015
涂抹 22012
通用汽车 22011
千里 22010
始 22009
迫不及待 22005
麦克斯 22004
申诉 22001
高官 22001
交通银行 21998
天性 21998
搁置 21998
乳酸 21994
工作效率 21994
发了 21993
ow 21991
一角 21988
统一@@ 21986
化肥 21983
杉@@ 21983
小猫 21980
这栋 21979
打听 21978
高跟鞋 21973
衬衣 21970
新书 21967
ap 21966
毫无意义 21966
死因 21964
胺@@ 21962
帖子 21958
Em@@ 21955
十四 21955
玛丽@@ 21955
聪 21951
总和 21949
兴旺 21946
印花 21946
全能 21944
淑@@ 21943
一回 21942
产后 21942
拇指 21938
眼看 21938
无穷 21937
复原 21936
屠@@ 21934
鼓掌 21929
绿洲 21927
皂 21926
柔 21925
仰 21917
迈进 21915
漠@@ 21914
RE@@ 21913
表现@@ 21913
普查 21912
美式 21908
风景区 21903
蒙特@@ 21899
江湖 21894
� 21894
广播电台 21891
归咎于 21890
杭州市 21890
霖 21888
中国外交部 21887
进一步提高 21886
反感 21885
缔约国 21884
up 21882
交会 21882
兰人 21879
第一章 21878
噪 21876
石英 21875
而行 21875
松弛 21873
海事 21873
购房者 21871
下沉 21867
壁纸 21866
一具 21864
妇女@@ 21864
ai 21862
微量元素 21861
int 21859
第四章 21858
丢下 21857
橙 21850
测绘 21849
瘫 21849
户外@@ 21847
玻@@ 21846
中级 21843
情怀 21838
丢弃 21833
议定书 21833
控制技术 21832
国美 21830
坠 21830
哎呀 21829
Al 21827
发展观 21827
放出 21825
细心 21821
Or@@ 21819
巅峰 21817
大堂 21816
四方 21812
多处 21812
洼 21810
产地 21809
传染性 21809
高额 21808
The 21807
庆幸 21805
出品 21803
欣慰 21803
短期内 21803
帕克 21800
烘@@ 21800
Mac@@ 21799
洽谈 21799
微分 21796
通气 21795
GIS 21792
床垫 21791
几分 21788
落到 21787
停火 21785
渭@@ 21785
关键在于 21783
缩水 21782
迷信 21780
筛查 21779
章节 21775
菜肴 21774
加之 21773
舒 21773
流浪 21772
主宰 21770
停电 21769
结核病 21768
柜@@ 21766
啉 21760
惯 21756
位列 21755
° 21754
地里 21753
内疚 21752
品类 21751
固定资产 21750
展现出 21745
中尉 21744
摇头 21744
ts 21742
罗杰 21740
搞错 21735
名额 21734
搬进 21734
se@@ 21732
电子设备 21728
转到 21728
活性@@ 21727
闲 21717
城南 21715
忧郁 21714
深化改革 21714
神色 21714
麦克风 21712
un 21709
形貌 21708
耶夫 21708
在职 21707
配额 21706
不快 21705
评论家 21705
波斯 21701
一滴 21698
紧凑 21693
呗 21691
片子 21691
﹐ 21691
撤回 21690
圆柱 21688
三项 21687
中山市 21687
Bet@@ 21683
王某 21683
丹佛 21682
突击 21681
孕育 21680
如图 21678
无家可归 21678
魁@@ 21673
沐浴 21671
庭院 21667
实用新型 21661
小行星 21659
年报 21658
经理人 21658
黔@@ 21658
交出 21657
海运 21655
用语 21655
城墙 21654
冲绳 21653
前妻 21653
枫 21645
调查报告 21644
基体 21639
常委 21639
人寿 21635
归属 21634
药剂 21634
微博上 21633
哈萨克斯坦 21629
嚼 21627
宣扬 21627
办公桌 21626
皮鞋 21626
定量分析 21625
等离子 21624
致富 21623
一个多 21621
ies 21620
埋葬 21620
亲子 21619
炖 21619
反对党 21615
下达 21613
流利 21613
无锡市 21612
格雷@@ 21609
天真 21608
工资@@ 21608
教育局 21604
基底 21603
献 21602
之争 21601
副总经理 21600
1982 21599
HTC 21598
接待@@ 21596
Chuck 21595
他杀 21595
低头 21595
贸@@ 21592
打招呼 21590
附带 21587
德语 21584
衣橱 21583
烧毁 21581
自律 21581
德里 21580
邓小平 21578
电子科技 21577
仑 21576
骑车 21576
招商 21573
四天 21571
全息 21570
往后 21568
契 21567
美容中心 21567
较长 21564
剥离 21563
盛会 21563
大树 21562
得起 21561
叶青羽 21558
培养基 21558
呐 21557
拼写 21557
钦 21556
食谱 21555
卡塔尔 21550
动静 21548
之源 21547
果蔬 21546
接通 21544
公民@@ 21543
扔@@ 21541
这群 21541
趋 21537
图纸 21528
洗手 21524
测试方法 21524
只得 21523
放假 21522
ass 21518
阿森纳 21518
创业板 21516
忌 21516
定为 21515
脓@@ 21515
寓@@ 21514
罕@@ 21514
自行@@ 21513
摆动 21511
蝇 21511
生产者 21508
非得 21508
铣@@ 21507
伞@@ 21505
关押 21505
害死 21503
朗德 21502
臣@@ 21502
哀悼 21499
岸边 21499
餐饮@@ 21498
二手 21497
合影 21497
脱掉 21495
手游 21493
能干 21492
医护人员 21491
摇摆 21485
枕@@ 21482
立法@@ 21479
近视 21478
度假村 21473
理会 21472
俱@@ 21470
更快 21467
前辈 21466
溃@@ 21466
浙@@ 21464
空闲 21463
翅@@ 21462
创新能力 21461
技艺 21461
分社 21457
规章 21456
解密 21456
科学院 21455
19.@@ 21453
ster 21453
一经 21453
筹码 21453
甘肃省 21450
敲门 21449
细小 21449
比分 21448
ro 21447
冯 21446
组织者 21446
理所当然 21445
450 21441
波段 21440
阿布@@ 21439
醒过来 21435
另一名 21433
奎 21433
现实意义 21429
陡@@ 21429
弗兰@@ 21426
宪 21423
ox 21420
海信 21419
火腿 21419
喘@@ 21418
动植物 21417
DE@@ 21415
凹 21413
渐 21412
核试验 21411
上前 21410
预估 21410
祛@@ 21409
趣味 21409
峡 21405
蚊@@ 21403
斯堡 21402
受够了 21400
普通话 21400
饮水 21397
尿道 21396
图像@@ 21394
来得及 21391
锈@@ 21391
保守党 21379
聚丙烯 21377
瑶@@ 21371
连环 21371
凯利 21359
棋牌 21354
篇章 21350
轮流 21350
四肢 21344
地段 21344
略有 21342
射程 21337
连同 21333
风险管理 21333
卓 21332
轧@@ 21332
新世界 21331
经济性 21331
追随 21329
三分 21328
安抚 21328
浊 21327
全职 21324
特约 21323
无声 21321
休闲@@ 21318
天文 21317
已然 21317
服务器@@ 21317
禽 21317
退后 21316
长相 21316
歪@@ 21314
Ap@@ 21313
心爱 21311
阻断 21311
赔 21309
` 21308
反腐败 21308
越高 21308
监察@@ 21306
盈余 21305
凹陷 21304
螺钉 21299
超级@@ 21299
印度@@ 21297
幸存 21297
抗争 21297
疮 21296
股东大会 21296
越发 21296
予@@ 21293
事实证明 21292
滋 21289
温度场 21287
估价 21285
哈特 21285
自体 21283
壳聚糖 21282
八卦 21281
生日快乐 21280
孢@@ 21274
解释一下 21274
贫 21267
构筑 21266
橘@@ 21266
思索 21265
犹大 21265
商机 21263
UI 21259
武士 21259
陕@@ 21259
中西医 21257
精心@@ 21256
金刚 21256
老式 21253
共同点 21250
内镜 21250
中亚 21249
难堪 21244
细微 21243
巴尔@@ 21242
橙@@ 21242
镶@@ 21242
工商局 21240
预防措施 21240
扣押 21239
貌 21238
找寻 21237
三周 21231
家政 21230
层层 21229
栅@@ 21228
不爽 21223
塔尔 21223
认罪 21221
同性 21217
顶层 21216
住院@@ 21215
斜坡 21215
好奇心 21213
Mod@@ 21212
线粒体 21211
血脂 21207
农庄 21205
觉醒 21200
烯@@ 21197
五点 21196
寿司 21195
汽车装饰 21192
贮存 21190
埃尔 21189
化工@@ 21188
实实在在 21188
有效@@ 21188
白领 21182
睾丸 21178
古董 21177
干杯 21176
ood 21173
上行 21172
BC 21171
加里 21165
杀戮 21165
过大 21164
好点 21163
出炉 21162
开罗 21162
民主党人 21160
接替 21159
测量方法 21159
结婚@@ 21158
马尔 21155
外加 21154
大全 21154
实测 21151
就任 21151
热衷于 21148
花序 21148
制片人 21144
巴尔 21144
毅@@ 21142
吃点 21141
而定 21141
联邦@@ 21141
截图 21140
流器 21140
简约 21140
求职 21138
天然@@ 21132
溺@@ 21132
病菌 21129
啥@@ 21126
堰@@ 21126
罚金 21126
蜜月 21126
违纪 21126
开裂 21125
流行@@ 21125
bu@@ 21124
掏@@ 21122
稽@@ 21122
膜炎 21122
Bur@@ 21121
丹尼斯 21119
这批 21114
晨光 21112
热水器 21110
次日 21103
馀 21103
正确性 21102
鸽 21100
告诫 21099
问到 21098
五天 21095
交织 21095
跆拳道 21095
第一条 21094
起着 21094
卒 21090
白内障 21090
用手 21088
花瓶 21087
ear@@ 21086
奶茶 21086
情境 21085
物件 21085
若干@@ 21084
批次 21081
淤@@ 21075
饺子馆 21068
强制性 21067
战友 21067
冤@@ 21065
走动 21064
绣@@ 21063
内皮细胞 21062
岂 21048
决不会 21047
宝贝儿 21044
时才 21044
初衷 21041
城店 21038
统计@@ 21033
集结 21033
活性炭 21032
不符 21027
青春期 21022
凄@@ 21020
进取 21020
上部 21018
大家庭 21013
税务@@ 21013
茗茶 21013
\ 21011
自由贸易 21011
经验丰富 21009
艰辛 21009
傻子 21007
雄厚 21005
问世 21004
kg 21003
调节@@ 21003
妹子 21001
情绪@@ 21000
插手 21000
租用 20998
就业@@ 20996
收支 20996
花瓣 20995
族群 20992
911 20991
37@@ 20987
胡锦涛 20985
水县 20983
失事 20981
布鲁克林 20981
靠着 20981
影业 20979
六点 20976
前去 20976
开拓@@ 20966
斯托 20962
受众 20959
高度@@ 20959
大大提高 20957
As@@ 20955
遗迹 20955
双边关系 20954
贱人 20954
脾@@ 20946
魏 20944
说是 20943
黄土 20938
TPP 20937
名牌 20937
防控 20937
发型设计 20934
则@@ 20933
听话 20931
怎能 20931
极少 20931
170 20930
粗暴 20929
衔 20928
钱财 20928
生前 20925
网通 20925
1978 20923
定罪 20923
忠告 20923
对峙 20922
标定 20922
砌@@ 20922
宫颈 20919
经济损失 20919
火车票 20912
腰带 20912
食者 20909
苍白 20907
克劳@@ 20904
低频 20899
洛夫 20891
锻@@ 20891
一秒 20890
财报 20889
千万@@ 20885
概念@@ 20885
平县 20883
约翰@@ 20882
试用 20881
消息@@ 20879
甩@@ 20878
监听 20877
议论 20876
宗教信仰 20874
棺材 20872
几张 20869
顺风 20869
我点 20868
肃@@ 20868
历来 20867
跌倒 20867
通知书 20865
生子 20864
痉挛 20862
免税 20861
碎石 20860
医疗保健 20859
年会 20859
工作量 20858
模块化 20858
领事馆 20856
咨询服务 20852
大通 20851
肋 20851
储蓄@@ 20850
尽全力 20845
引诱 20844
饭菜 20844
抓捕 20842
关键因素 20841
外周血 20839
锤子 20839
经济体制 20838
钣 20834
Paul 20833
古希腊 20832
血脉 20831
lin 20830
轮子 20830
DC 20829
睹 20829
爸爸妈妈 20827
动物@@ 20825
病症 20824
雅各 20822
广播@@ 20821
年轻@@ 20820
阔 20818
售卖 20816
第八 20816
吸取 20814
燃料电池 20813
破损 20813
首家 20813
贝尔@@ 20809
阿拉伯@@ 20803
徽 20802
窄@@ 20801
付出代价 20799
不由@@ 20798
常驻 20797
改动 20797
Wil@@ 20796
卑鄙 20796
十岁 20794
法师 20794
时不时 20790
这下 20784
下肢 20779
海浪 20779
虑 20779
Wi 20776
樟@@ 20775
锥 20773
法学院 20772
住在一起 20771
航天员 20771
US@@ 20768
妃 20767
IP@@ 20764
克罗@@ 20764
世卫 20763
甜品 20763
单方面 20762
丰收 20755
乍@@ 20755
皇冠 20753
IM 20752
日落 20752
迫切需要 20750
一两个 20749
除掉 20749
私有 20748
酒店@@ 20743
类产品 20742
昊 20740
三个代表 20739
相撞 20739
集聚 20736
露营 20734
胶带 20731
文艺@@ 20730
印记 20729
全景 20728
俄亥俄州 20727
路易 20727
85% 20726
橄榄@@ 20722
督促 20720
新郎 20716
ara 20715
虽说 20713
嗡@@ 20712
酬 20711
信中 20707
不乏 20705
宿主 20694
巴菲特 20693
招牌 20693
捆绑 20692
碧 20692
这间 20691
玛格丽特 20689
定于 20686
之子 20685
厌 20685
舰船 20684
纯净 20683
主导地位 20680
严格@@ 20678
发泄 20674
入驻 20673
病理学 20668
食材 20664
出发点 20663
生理@@ 20663
摘 20656
日杂 20654
乳化 20653
32@@ 20652
顿饭 20650
der 20649
哈马斯 20648
后院 20647
禁用 20646
公馆 20645
BO@@ 20644
短裤 20644
耽误 20643
失落 20640
适于 20638
十字@@ 20632
龟@@ 20632
液态 20631
交易日 20629
enc@@ 20626
不多 20624
镇委 20624
诺贝尔@@ 20623
死定了 20622
新鲜@@ 20619
买单 20617
江区 20617
饭庄 20615
筹资 20609
理事 20604
一大批 20601
看守 20600
养殖@@ 20598
辞去 20598
提供者 20595
土地利用 20594
已达 20592
垦 20590
盛行 20589
盼望 20585
骤@@ 20583
高龄 20582
奸@@ 20580
有机物 20579
不合@@ 20575
咖啡因 20575
戈登 20575
工业园 20574
粘性 20574
恳求 20572
筷子 20572
电器@@ 20571
帅哥 20569
争辩 20567
龟 20566
溢出 20563
布料 20561
专用@@ 20556
昆 20553
水饺 20551
咳 20550
DS 20547
上报 20547
深层次 20546
过年 20546
man@@ 20544
耍@@ 20543
住户 20541
两国人民 20539
灵敏 20538
晶体管 20537
肾病 20536
意象 20534
邓 20532
魅@@ 20531
广州@@ 20529
英勇 20529
季节性 20528
沼泽 20526
汇集 20524
图形@@ 20517
公共场所 20516
发货 20507
要不然 20507
出海 20503
华裔 20503
默默 20503
届@@ 20501
咕@@ 20500
宣判 20496
ABC 20495
乌龟 20494
驳 20494
通量 20492
管委会 20491
苦恼 20489
层楼 20485
最佳@@ 20485
家私 20481
木板 20481
特斯 20481
Linux 20479
营养不良 20479
帘 20478
日内 20478
感叹 20476
喂养 20474
核桃 20474
恶作剧 20473
原定 20471
看不出 20471
物价@@ 20467
后天 20466
PLC 20463
ER 20461
前端 20461
帆船 20460
脐@@ 20456
推力 20452
宏大 20450
追寻 20449
1300 20448
办公楼 20447
无条件 20447
万里 20446
坠@@ 20446
地球化学 20445
外商投资 20440
我查 20440
社会各界 20440
别想 20432
特殊@@ 20432
面向@@ 20432
坦诚 20430
废料 20430
置评 20429
用户界面 20427
憎恨 20425
酒馆 20425
化为 20422
美日 20420
流转 20419
四十 20418
那样的话 20415
地方@@ 20413
CS 20410
图谱 20409
清华 20408
费率 20406
Mi@@ 20405
心意 20405
繁华 20403
畅通 20399
拟定 20398
布鞋 20397
收盘 20395
日用品 20393
硫化 20392
归功于 20391
复印 20387
煽动 20387
睡不着 20387
标语 20386
华南 20384
东南@@ 20381
图画 20381
异地 20380
尾部 20376
看病 20376
负债表 20376
平米 20375
手术室 20375
圣灵 20374
安全隐患 20374
不断扩大 20373
退火 20370
乖 20369
隔绝 20369
心头 20368
醒@@ 20367
天气@@ 20366
上星期 20362
字样 20362
遗 20359
乳头 20358
指派 20358
梗 20358
炮弹 20358
夺 20356
无处不在 20355
蒙特 20354
ite 20353
LE@@ 20352
昊@@ 20352
大山 20350
无须 20350
art 20349
中心小学 20344
解救 20344
详细@@ 20341
继续下去 20337
书上 20334
汇总 20334
等不及 20333
ST 20330
利润率 20330
继承人 20330
忌@@ 20328
MO@@ 20327
喷涂 20327
平和 20327
战舰 20327
AN 20326
可知 20326
燃煤 20326
兵力 20319
万英镑 20318
小心翼翼 20317
自如 20317
现场@@ 20314
劝说 20311
防火墙 20310
敬意 20309
菜鸟 20308
DVD 20303
羞愧 20303
往年 20301
计算机辅助 20301
公共交通 20299
意在 20297
筹划 20294
手头 20293
连接器 20293
滞留 20291
霞@@ 20291
不惜 20290
ale 20283
亚洲@@ 20283
关乎 20283
美好@@ 20283
表扬 20283
膝关节 20279
认购 20279
观光@@ 20276
路基 20276
可不可以 20275
哑 20275
砰 20275
谨 20275
厢 20274
梅尔 20274
主教练 20273
曲折 20273
新奇 20272
VC 20270
樱花 20269
RS 20268
灶@@ 20268
率为 20265
殖民 20261
招待会 20256
拮@@ 20255
儿科 20254
剖面 20251
别处 20250
南山 20250
西欧 20249
美国国务院 20243
3G 20237
听懂 20237
威尔逊 20237
振奋 20237
来过 20237
炖@@ 20237
廊@@ 20234
之意 20233
基督@@ 20232
面膜 20230
新工艺 20229
钞 20229
聂天 20228
杀虫剂 20227
栅栏 20226
抓好 20225
奸 20222
OP@@ 20221
受贿 20221
财年 20219
Sk@@ 20218
一碗 20217
天气预报 20217
共事 20216
得主 20216
4.5 20213
午 20213
尘埃 20213
警车 20210
远东 20209
声学 20208
科医生 20207
快餐店 20206
拉特 20206
脚踝 20203
街店 20203
反省 20202
迁徙 20201
五百 20199
养护中心 20196
戏剧性 20195
钩@@ 20195
傲@@ 20193
安哥拉 20192
公用 20191
救出 20189
愁@@ 20188
干扰@@ 20187
海豹 20184
辨认 20183
复活节 20181
开阔 20178
永磁 20177
塞尔维亚 20176
会想 20175
更深 20175
主动脉 20173
砂岩 20173
连结 20170
系列产品 20169
Ac@@ 20168
木质 20167
da 20165
交联 20164
链路 20164
卫星@@ 20163
向东 20162
早晚 20161
凑 20156
排气 20155
Ver@@ 20151
道具 20145
行径 20133
没人@@ 20132
加仑 20131
海洛因 20130
酰 20130
技术支持 20129
一如既往 20128
同步@@ 20128
有幸 20127
坏蛋 20124
购置 20123
敌意 20122
赌注 20122
紧接着 20121
输电 20120
pro@@ 20119
AB@@ 20118
三岁 20118
彗星 20118
耗尽 20115
自由主义 20113
出游 20107
格力 20107
亨 20103
掏出 20103
柠檬@@ 20103
往事 20102
Mo@@ 20101
坐牢 20101
表达@@ 20100
理财产品 20097
瓷器 20097
电镀 20094
系统地 20094
Henry 20091
免得 20089
TC 20088
阳离子 20085
管理处 20083
这要 20083
长途 20083
三板 20082
解体 20082
万分 20080
扩建 20080
一点@@ 20077
账@@ 20076
Cal@@ 20073
达斯 20073
捐 20071
维克 20069
股票@@ 20068
身体@@ 20067
空中@@ 20062
保镖 20061
分离@@ 20061
长假 20060
之物 20059
二次@@ 20057
定时 20057
ez 20055
令人兴奋 20055
法医 20050
Co 20045
出访 20043
发声 20041
急速 20041
Dan 20039
年期 20039
无用 20039
空洞 20038
陇@@ 20037
不知不觉 20032
踩@@ 20032
亿人 20030
内向 20030
岔 20028
耐用 20028
局限于 20026
整车 20026
毛细管 20026
物流@@ 20026
跨度 20026
寄生虫 20025
里根 20024
之多 20021
教程 20017
声波 20016
蜀 20016
坚称 20015
AB 20014
扰@@ 20014
过热 20014
案发@@ 20013
共赢 20007
睡衣 20007
躯体 20007
工程建设 20002
二进制 20000
不相@@ 19998
体面 19997
第一部 19997
周岁 19994
撤 19993
可否 19990
修剪 19986
前言 19986
贡献@@ 19983
平安@@ 19980
镇定 19979
this 19976
欢喜 19973
纤维化 19973
成矿 19972
兄弟姐妹 19969
Kar@@ 19968
恋情 19966
气道 19966
该是 19966
三方 19964
任何@@ 19963
站台 19955
自由化 19954
后裔 19949
科普 19949
车牌 19948
绿茶 19944
勋 19940
第四季度 19939
幼虫 19933
贝壳 19933
PO@@ 19932
生物学家 19930
管理制度 19930
桐 19927
ish@@ 19926
掉下来 19924
做起 19923
软件开发 19923
小路 19922
生命危险 19922
省长 19921
航道 19917
拖车 19914
多种@@ 19912
美国市场 19912
时装@@ 19908
十点 19906
鸿运 19905
适时 19904
招呼 19902
举例 19901
一世 19899
与非 19898
不堪@@ 19896
逝世 19889
踢球 19888
捅 19887
应为 19885
观望 19882
ena 19881
1970 19880
舵 19880
蹲@@ 19879
汇丰 19878
简单@@ 19878
超重 19878
有的是 19877
腻 19877
Bu@@ 19872
主打 19870
注意事项 19868
双腿 19866
想一想 19865
广电 19864
普遍存在 19864
统计分析 19864
家住 19863
巴克 19863
理应 19861
迈向 19859
杰森 19858
博士学位 19857
转入 19857
陈家 19852
意志@@ 19849
胜地 19849
风险投资 19845
光临 19842
号称 19841
情报局 19838
红灯 19837
各个方面 19835
忏悔 19835
理化 19830
Lin@@ 19826
扮 19826
罗兰 19826
颜值 19824
克里米亚 19823
模量 19823
远点 19823
先驱 19822
大军 19814
弥漫 19813
yl@@ 19812
早报 19811
免除 19810
飞跃 19807
历史学家 19805
有太多 19802
自卫 19802
圆满@@ 19800
没来 19797
猫咪 19796
螺 19796
闲置 19795
象是 19791
顶峰 19791
根基 19790
36@@ 19789
蒸馏 19788
恨@@ 19786
海军@@ 19785
惧怕 19783
钉子 19783
真有 19781
瞒 19780
日出 19774
20.@@ 19773
领地 19773
杂货店 19770
继电器 19768
刃@@ 19767
一朵 19765
Is@@ 19760
张某 19758
流泪 19758
祥和 19756
我军 19755
狡猾 19754
积蓄 19751
十二月 19746
抄 19746
富集 19745
第四次 19744
英国广播公司 19742
巴拉 19738
边际 19738
穗@@ 19737
Tony 19735
人称 19735
OPPO 19728
司长 19727
无害 19727
驳回 19726
固然 19725
积水 19725
之战 19723
保证金 19721
一战 19720
书面@@ 19719
懒惰 19718
执着 19718
绵 19718
分型 19716
木星 19716
小微 19715
独立性 19715
甜甜 19715
1600 19714
ure 19714
居委会 19712
wh@@ 19710
微不足道 19710
摸索 19710
山峰 19709
荷尔蒙 19708
持有人 19706
数码@@ 19706
煤层 19706
确是 19704
而战 19704
常州市 19703
之美 19700
另据 19699
形象设计 19698
Christ@@ 19694
两件 19690
劳拉 19689
点点 19689
记忆力 19686
公牛 19685
果树 19685
脱颖而出 19685
月经 19681
寂静 19680
碳水化合物 19678
蒙古@@ 19678
二楼 19677
人情 19677
主页 19673
驱使 19670
洗净 19668
德森 19667
三峡 19666
灾难性 19666
出庭 19664
重点@@ 19663
授课 19662
轧制 19661
食府 19657
虫病 19656
八点 19654
留着 19653
真空@@ 19651
闪亮 19650
政府@@ 19649
生长@@ 19648
重生 19648
我怕 19647
明早 19647
商报 19646
涉足 19646
肿胀 19646
沐@@ 19645
肝细胞 19645
冥想 19643
编剧 19639
联合国安理会 19639
葱@@ 19639
一举 19638
举个 19637
留住 19636
德国@@ 19634
抛光 19633
吼@@ 19632
慰问 19632
ET@@ 19624
特曼 19618
一环 19616
吉尔@@ 19615
发生@@ 19613
锌@@ 19613
摄取 19612
焊缝 19611
罗马尼亚 19611
五岁 19610
痴呆 19609
剩@@ 19607
可用性 19606
弗雷德 19606
弘 19606
帐单 19605
缝合 19605
圆满 19604
曹 19604
得了吧 19601
脉搏 19601
香草 19601
湖人 19599
畔 19599
星辰 19595
某种意义 19594
动态@@ 19593
孕婴 19592
资格@@ 19590
连线 19590
伤员 19587
Vis@@ 19586
癌细胞 19586
粒径 19586
andy 19584
up@@ 19584
萨斯 19583
多为 19581
具体情况 19578
访客 19578
赛跑 19578
酬@@ 19578
原则上 19572
家乐 19572
病患 19572
拉登 19570
ME@@ 19569
三菱 19564
发抖 19564
窜 19563
喊道 19559
力图 19558
DSP 19555
迪亚 19555
GF 19552
赐给 19552
该案 19550
捷克 19549
杨家 19549
ds 19548
碑@@ 19547
杰西 19546
背心 19545
中型 19544
武器装备 19544
上瘾 19543
分院 19541
最差 19541
伙 19539
梢 19538
不能不 19537
内侧 19535
进驻 19534
外科医生 19533
耀眼 19529
帝国主义 19527
种族歧视 19527
过敏@@ 19527
光亮 19524
兰花 19523
其一 19522
巴里 19519
过渡@@ 19519
中共@@ 19513
中小型 19513
低位 19511
时而 19511
特拉@@ 19510
泰德 19509
碟@@ 19509
流氓 19505
农业部 19503
冠状病毒 19499
第二次世界大战 19499
大学毕业 19490
饭馆 19489
三相 19488
分析仪 19487
发明@@ 19486
罗伊 19486
臭氧 19486
刑事责任 19485
塔克 19483
红星 19482
名气 19480
班车 19476
1.4 19475
保时捷 19475
渠@@ 19475
多一点 19474
CO 19472
环境影响 19471
ex 19467
纸板 19467
泛滥 19464
CP 19462
溴@@ 19462
复印件 19461
盗版 19460
领养 19459
消化道 19457
翁@@ 19453
组合@@ 19448
效劳 19447
周元 19446
年长 19446
页岩 19446
主动@@ 19444
投保 19442
ast@@ 19439
报销 19439
怨 19438
格里 19437
灭亡 19436
会以 19433
用过 19432
捞@@ 19431
榜首 19429
CO2 19428
吾 19427
新闻报道 19425
脆@@ 19423
MI@@ 19421
回转 19421
花岗岩 19421
地貌 19420
实实 19419
装运 19415
人员伤亡 19413
最低@@ 19413
教养 19412
一万@@ 19411
凉爽 19411
害虫 19411
延缓 19410
汇款 19410
吊顶 19409
掌管 19409
埃塞俄比亚 19407
花样 19405
冬奥会 19404
沉没 19404
千人 19403
九点 19401
山镇 19397
他用 19393
莫迪 19392
性化 19390
愈发 19389
机械设备 19387
物质@@ 19387
依赖性 19383
短路 19380
互通 19378
收率 19378
脸颊 19378
导体 19377
勋章 19376
解剖学 19376
家庭作业 19375
缔@@ 19375
颇具 19375
产业结构 19374
静静地 19373
投射 19369
披 19368
甲苯 19368
少数@@ 19367
总统大选 19367
昆山 19367
FD@@ 19362
取胜 19359
Per@@ 19357
锦绣 19351
镇静 19349
相关@@ 19347
罩@@ 19346
星级 19342
蒙德 19337
家禽 19335
色泽 19330
媛 19329
代号 19320
曦 19319
蕊 19319
寡妇 19318
防线 19318
吨@@ 19315
强盗 19315
家具城 19314
法兰 19314
津巴布韦 19311
连衣裙 19310
食品药品 19310
耻辱 19309
感慨 19305
演进 19304
世俗 19301
持平 19299
范例 19297
铭记 19297
掠 19296
刚刚开始 19294
委员长 19294
化学武器 19292
左翼 19292
过世 19292
趁@@ 19291
周到 19289
肯德基 19289
弗吉尼亚 19288
心电图 19283
排练 19283
时节 19283
透明@@ 19281
东欧 19278
罗姆尼 19276
工业园区 19274
诺贝尔奖 19274
带回家 19271
造假 19266
ig 19265
无权 19265
韩美 19265
Ju@@ 19264
广播电视 19263
遂@@ 19259
发来 19257
打下 19256
不解 19255
仇 19254
回报率 19254
祁@@ 19253
烟囱 19251
二手房 19249
宝藏 19249
迷恋 19249
主人公 19245
肩上 19241
how 19240
更多地 19238
快到 19235
打入 19235
宏达 19232
ne@@ 19231
堡垒 19230
底盘 19227
痊愈 19227
不胜@@ 19226
安然 19226
崎@@ 19223
席卷 19223
嘿嘿 19222
罕 19221
阴极 19221
中国邮政 19220
突尼斯 19218
司法局 19216
盾@@ 19216
佳人 19215
横跨 19215
驱动程序 19214
表示感谢 19212
诊@@ 19212
会同 19211
公交@@ 19211
农家乐 19211
妍 19209
图像处理 19205
攻势 19203
we@@ 19202
登山 19198
督察 19198
纽带 19198
哩 19197
受到@@ 19195
顽固 19193
粪 19191
真不知道 19189
绳索 19188
拿破仑 19187
富士康 19186
骨质 19182
榨@@ 19181
唐纳德 19178
墨西哥@@ 19178
无助 19174
介于 19173
越来越@@ 19173
预售 19173
防腐 19172
在此期间 19169
争斗 19165
行政长官 19165
离家 19164
年均 19163
纽约州 19161
茅 19161
十七@@ 19157
心肌梗死 19157
Je@@ 19153
执法人员 19153
雷曼 19153
颂@@ 19153
驼@@ 19151
澜@@ 19150
玩儿 19149
颅内 19149
ov 19147
习惯于 19146
Pl@@ 19145
她家 19145
特殊性 19144
纲要 19144
杂草 19140
讲讲 19140
Dan@@ 19139
迅猛 19138
腿部 19137
卿 19136
帅气 19133
一中 19132
祝你好运 19131
谢天谢地 19129
卢比 19127
适配器 19127
这回 19126
窗子 19125
Jane 19122
十多年 19119
汇票 19119
纸条 19119
问卷调查 19118
2030 19116
屑@@ 19115
顺应 19115
安德森 19112
绽放 19112
运费 19112
MC 19111
质感 19111
刑事@@ 19102
角逐 19102
传感 19101
庄严 19098
升空 19094
看笑话 19094
自大 19091
欧亚 19090
心肌@@ 19088
曝@@ 19088
CT@@ 19085
签发 19085
室温 19084
Xml 19083
三角@@ 19083
CPU 19081
冰块 19081
普斯 19080
紧张局势 19078
好听 19076
北斗 19075
勃勃 19074
特拉 19074
Nick 19073
蓄 19073
涅 19070
常务@@ 19069
较量 19069
施肥 19068
夜总会 19067
洼@@ 19067
多钱 19064
荧@@ 19060
改成 19059
受访 19058
曲子 19058
遥 19056
服务平台 19055
质子 19054
乔治@@ 19053
请原谅 19053
余名 19052
亲眼@@ 19050
家门 19050
熄灭 19049
逃生 19049
而生 19048
做人 19047
办公厅 19047
费力 19047
珠宝@@ 19046
冉@@ 19045
另一家 19045
税款 19045
零钱 19044
青水 19044
货架 19043
通电话 19042
风雨 19042
分红 19040
耐力 19040
附着 19038
责怪 19037
贮藏 19035
serv@@ 19034
碾@@ 19033
乖@@ 19029
动脉瘤 19029
额头 19029
锤@@ 19027
大肠杆菌 19026
小巷 19026
环路 19024
充满活力 19023
逮@@ 19023
贯彻落实 19021
拷贝 19019
组委会 19019
国家标准 19018
懂吗 19018
行业协会 19018
弱势 19017
募@@ 19016
事实@@ 19012
港市 19011
忆 19010
不在@@ 19008
冕 19007
so 19003
Sar@@ 19002
茵 19002
稠@@ 19001
竭尽全力 18998
奉行 18995
人身 18993
条目 18993
瑶 18993
里森 18993
剪辑 18992
回想 18992
二线 18989
纪念馆 18985
理论依据 18983
郊@@ 18982
内政 18980
分配@@ 18980
电池@@ 18979
模范 18977
在座 18976
港湾 18975
Ag@@ 18974
机械化 18974
腓@@ 18973
料到 18972
玩法 18972
嘎 18971
壁画 18968
菱@@ 18967
持续时间 18966
之以@@ 18965
赦 18964
陈某 18962
股指 18961
SD 18960
视作 18959
象棋 18959
民俗 18958
分隔 18952
洛斯 18952
活检 18948
导线 18947
美容院 18947
白云@@ 18946
围观 18944
城北 18942
方圆 18941
出生@@ 18939
充填 18936
退款 18935
螺丝 18933
苛刻 18932
女孩儿 18931
无关紧要 18930
评述 18929
插值 18928
说不@@ 18926
甄@@ 18924
附上 18921
复位 18920
ence 18917
绥@@ 18917
高密度 18917
软化 18916
酱油 18915
连续性 18913
福田 18912
幸福@@ 18911
结合@@ 18911
Juli@@ 18909
好几年 18908
为难 18907
明信片 18907
法老 18907
记下 18906
退还 18906
郁闷 18906
会令 18905
打碎 18903
转过身 18903
殿下 18901
舞者 18901
矢@@ 18899
顾虑 18897
Bra@@ 18893
奏效 18892
投产 18891
11% 18885
冰冻 18885
帅@@ 18885
临床试验 18884
清扫 18884
特约记者 18883
可卡因 18882
刘某 18881
遗传学 18881
→ 18880
经皮 18879
毯 18877
可调 18875
索取 18874
杀菌 18870
生产能力 18870
疫 18868
各家 18862
窟 18860
骇@@ 18860
马修 18859
喻 18858
容许 18857
珊@@ 18855
两场 18854
得出结论 18854
勃 18852
别碰 18851
余人 18850
不成@@ 18849
进城 18847
涡 18846
不平 18844
玛利亚 18844
切成 18842
悉 18842
明朗 18841
借着 18840
势必 18840
白菜 18839
PP 18838
主编 18835
社会保险 18835
离心 18835
马拉 18835
淘 18834
Sm@@ 18832
冷淡 18832
四是 18831
构思 18829
湿润 18828
轧机 18827
4K 18826
概要 18826
孟买 18825
桨 18825
外汇@@ 18824
抢劫@@ 18824
研讨 18823
te 18821
杀人犯 18820
Er@@ 18819
一桩 18816
恐怖组织 18816
酥 18816
幻 18814
那有 18813
黑帮 18812
不朽 18811
服务商 18811
井下 18810
蛋白@@ 18808
事业部 18807
箭头 18807
宰 18806
银河系 18803
单向 18802
婉@@ 18800
梯子 18800
祈@@ 18798
EL@@ 18797
答道 18797
送回 18796
社交@@ 18793
固执 18792
雇@@ 18792
倒入 18790
素材 18788
民意调查 18787
筹 18787
埔 18786
简述 18786
内幕 18785
厉 18783
去向 18782
蛙 18782
毕业@@ 18781
酝酿 18781
就够 18779
传入 18776
绝对@@ 18772
老者 18771
Fin@@ 18769
内分泌 18769
相变 18767
绕过 18767
喷漆 18766
付诸@@ 18765
聋@@ 18765
茸 18764
幻灯片 18763
青山 18763
放映 18761
赚取 18761
幼苗 18759
写字楼 18756
早起 18756
新德里 18754
ook@@ 18753
肋骨 18753
rey 18751
不管怎么 18750
方差 18748
新天地 18747
头号 18746
针灸 18745
罐子 18742
接过 18738
定点 18736
肿@@ 18736
月饼 18734
Danny 18733
声响 18732
塑料袋 18731
弊端 18731
风口 18731
海岸线 18730
金正日 18730
深信 18727
湍流 18726
肝硬化 18725
印第安@@ 18724
妥善 18722
公会 18721
送达 18721
怀抱 18720
庄稼 18719
精制 18719
差错 18718
中以 18716
下发 18712
审问 18712
违 18712
砌 18708
今年夏天 18706
化身 18702
三者 18701
国立 18700
直辖市 18699
出新 18696
1.3 18691
内皮 18691
多变 18686
哈里斯 18685
保湿 18684
其为 18684
幼稚 18684
还原@@ 18684
HP 18683
剪刀 18683
双赢 18683
牵头 18682
贪污 18676
数千@@ 18674
比亚迪 18673
坚定不移 18671
上皮细胞 18669
毕 18669
狐 18669
音量 18667
现金流 18664
工程项目 18663
he@@ 18662
多米@@ 18659
雷霆 18659
Ryan 18658
申请表 18658
引流 18656
嫂 18655
鄂@@ 18654
引渡 18652
那张 18651
林中 18647
质性 18646
金银 18643
PE 18642
氯化 18642
ance 18641
检出 18641
芒@@ 18641
无一@@ 18639
淡化 18639
因涉嫌 18638
十一月 18637
投向 18637
推送 18637
闪耀 18636
流变 18635
房源 18633
滕@@ 18631
解码 18630
真皮 18628
所见 18627
往前走 18625
载波 18625
郁 18623
尺@@ 18622
Me@@ 18620
有钱人 18618
更要 18617
指标体系 18614
保健品 18609
互换 18608
切尔 18605
do@@ 18604
交错 18604
完好 18602
海南省 18600
真人 18598
誓 18597
带头 18595
一千 18594
对外贸易 18592
屈 18590
GS@@ 18587
硕士学位 18580
陷害 18578
内脏 18577
致力 18577
建交 18576
一分钱 18575
禁忌 18574
秤 18573
自由度 18572
优惠政策 18570
罗伯@@ 18569
误区 18568
儒家 18563
各州 18561
涮 18560
极性 18558
喷嘴 18557
楼房 18553
渊源 18553
min 18552
煌 18552
调料 18552
成名 18551
应答 18549
债权 18546
先天 18545
辐照 18545
化验 18544
过头 18543
MH@@ 18542
磷酸@@ 18542
心底 18541
几条 18540
正视 18540
一年一度 18539
上楼 18539
另一只 18537
穿孔 18537
白皮书 18536
废弃物 18535
普林@@ 18535
万事@@ 18534
45% 18533
棋牌室 18532
属实 18531
五种 18530
热狗 18530
量级 18530
Uber 18529
媚 18529
聪@@ 18529
有位 18527
第二轮 18524
新股 18516
黛 18515
大力@@ 18514
雪花 18514
心愿 18511
然大@@ 18510
数据挖掘 18509
高中生 18508
滩@@ 18507
孟加拉国 18504
年限 18502
调和 18501
任性 18500
栏@@ 18499
蝶 18499
自贸区 18498
长发 18497
承担责任 18496
小车 18495
这一@@ 18491
名下 18490
安检 18489
晋级 18487
泰山 18487
不尽 18482
反响 18482
挥 18482
深色 18481
文摘 18480
骨干 18480
僚 18479
获得成功 18478
敌对 18477
崩 18476
追捧 18476
咒语 18475
美妆 18475
防御@@ 18474
选购 18472
挑起 18470
荫 18468
钛@@ 18468
old 18467
智能家居 18467
肾上腺素 18467
早早 18466
禄 18461
十四@@ 18460
农历 18458
出入境 18458
那间 18458
铲@@ 18457
闭环 18456
亚地区 18454
单元格 18454
彦@@ 18454
药材 18454
管用 18452
梦境 18451
海区 18451
小康社会 18450
偷窃 18449
克罗地亚 18448
手续费 18447
ory 18446
腌@@ 18445
质素 18442
可口可乐 18441
雌激素 18441
怪兽 18439
年头 18434
000@@ 18432
郑州市 18432
加紧 18431
低端 18430
金华 18430
甲酸 18429
离合器 18429
制导 18426
淋巴 18424
量产 18424
接枝 18422
美洲@@ 18421
使劲 18419
尖端 18417
微博@@ 18416
写给 18415
狐@@ 18414
好久 18413
这周 18411
索尔 18410
两样 18409
中东地区 18409
放慢 18409
深水 18409
英雄@@ 18409
共用 18408
颊 18408
一代人 18407
甲状@@ 18407
讨 18407
抓到 18406
矿产 18405
泉州 18401
散文 18400
引述 18397
世博会 18393
可溶性 18391
汲取 18391
受邀 18389
无常 18387
并不需要 18386
生长发育 18385
赋 18385
时有 18384
京都 18379
公安@@ 18376
薇@@ 18376
中枢 18373
挠@@ 18370
论者 18370
苦苦 18369
弗雷 18368
寂 18367
检察机关 18367
质谱 18367
况且 18364
力矩 18362
绊@@ 18362
容积 18358
DO@@ 18354
脑海中 18352
推开 18351
钨 18351
海藻 18350
节食 18349
岩浆 18341
汉族 18340
淹死 18340
碰上 18340
禁区 18339
流化床 18338
Win@@ 18337
证券市场 18335
Gra@@ 18334
参拜 18334
尼龙 18333
伤势 18330
完蛋 18329
十字路口 18327
项目@@ 18325
ers@@ 18321
深切 18321
脚印 18321
假冒 18320
一楼 18319
胶片 18319
崔 18315
初级@@ 18313
一排 18311
立方 18311
遗失 18309
为生 18308
昔 18306
牢牢 18306
平均值 18305
纺织@@ 18305
少见 18304
汁@@ 18304
腾飞 18301
影像学 18300
死人 18300
集中精力 18298
创纪录 18295
就诊 18294
Cr@@ 18292
不负责任 18290
书画 18289
识别@@ 18288
锋利 18288
125 18284
快报 18284
疼@@ 18283
竣工 18283
时所 18282
渊 18282
邮 18279
铺设 18278
夫妻@@ 18277
榨 18277
小肠 18276
一顶 18272
哄@@ 18271
外籍 18271
工具@@ 18271
榴@@ 18268
谜@@ 18266
逐步@@ 18265
揉 18264
ML 18262
阅兵 18262
孙女 18261
Mer@@ 18260
偏向 18259
宝座 18258
ich@@ 18253
急忙 18252
践行 18252
沉思 18247
合同@@ 18246
击落 18245
许诺 18242
眨眼 18241
圩 18240
算了吧 18240
枕 18238
用人单位 18236
造血 18236
希德 18234
手术@@ 18234
加速器 18232
帮帮我 18232
多项式 18231
德罗 18230
喃@@ 18229
疫@@ 18227
歉意 18224
专业知识 18222
准许 18220
征求 18220
眉毛 18219
运输机 18219
少许 18217
镶嵌 18216
姨妈 18214
OLED 18212
也@@ 18212
打猎 18211
秉承 18211
科斯 18211
自首 18210
次序 18209
钟表 18208
蚊 18207
搬运 18204
网上@@ 18204
联接 18204
旅社 18203
严禁 18202
配料 18200
律师@@ 18199
青年人 18199
洗礼 18198
蜂窝 18198
挨 18196
警察@@ 18195
易购 18194
邀@@ 18194
Na@@ 18193
分子量 18193
县城 18189
咆哮 18187
以人为本 18186
疏松 18185
重创 18183
做手术 18181
名品 18180
失败者 18179
钢丝 18179
十条 18176
踢足球 18176
1983 18175
一扇 18175
梧@@ 18174
加工厂 18173
mon@@ 18170
宵@@ 18168
萤@@ 18168
膝@@ 18166
转账 18165
ini 18164
减免 18164
旷@@ 18164
顶点 18163
勘察 18162
南亚 18159
遣@@ 18156
九二 18155
据我所知 18154
宴@@ 18150
离岸 18150
携@@ 18149
翰@@ 18149
脑缺血 18149
素质教育 18148
Del@@ 18147
搬走 18147
天津@@ 18146
汽贸 18146
风速 18145
So@@ 18141
兑@@ 18141
缺血性 18140
生猪 18135
烈士 18134
真棒 18133
接受@@ 18132
蜗牛 18132
陨石 18132
高效率 18132
夏普 18126
毙 18125
停顿 18123
开盘 18120
醉酒 18120
我读 18119
研究会 18119
打字 18115
放疗 18114
此行 18114
征集 18113
松鼠 18113
又称 18112
喻@@ 18111
异步 18110
潍坊 18110
那块 18109
浦东 18106
数据类型 18105
占地 18101
畏@@ 18100
阻挠 18100
中山@@ 18092
吸气 18091
晶粒 18091
配对 18089
攻坚 18083
书院 18080
可真 18080
起义 18079
国家统计局 18077
Internet 18070
隐性 18070
二世 18068
校友 18068
生物科技 18068
征兆 18064
无能 18064
体化 18062
泗@@ 18062
垃圾桶 18061
执业 18061
文件系统 18060
业余@@ 18059
字段 18055
105 18050
港澳 18050
肤@@ 18050
舰长 18050
主办方 18049
樱@@ 18047
文化交流 18046
霜@@ 18043
ach 18041
每天晚上 18041
贴近 18041
高中@@ 18041
焕@@ 18039
阿拉 18038
馈@@ 18038
触动 18032
世界纪录 18030
发短信 18027
社会福利 18027
be 18026
国务院@@ 18024
当着 18024
省钱 18024
理发 18023
酮@@ 18020
鲨 18020
起动 18019
印度人 18018
娃@@ 18018
琉@@ 18014
熏 18013
两块 18011
买来 18010
学问 18010
次级 18010
非常简单 18010
开挖 18009
制衣 18008
γ 18007
变速器 18007
图中 18007
加薪 18005
折射 18005
忧伤 18003
言不@@ 18003
试试看 18003
赎回 18002
RT 18001
通车 18001
出版@@ 17998
之作 17997
偏爱 17995
圆柱@@ 17995
和尚 17994
姓@@ 17992
曾多次 17992
操心 17988
热带@@ 17987
平方@@ 17986
流速 17982
中通 17980
医科大学 17980
杰作 17980
全力以赴 17976
命令行 17975
生殖@@ 17975
醒醒 17975
专家组 17974
光合 17973
原地 17973
退缩 17973
鳍 17973
总经销 17972
扬声器 17972
天宫 17971
豪宅 17968
塞进 17967
阶梯 17965
总决赛 17964
氧化铝 17963
风尚 17961
播种 17960
效用 17960
杠 17960
纶 17958
我想@@ 17957
废气 17956
摩洛哥 17956
南宁市 17954
两端 17953
13% 17952
多半 17950
董 17950
京津冀 17946
迷宫 17943
判别 17941
快速@@ 17941
值钱 17939
币@@ 17939
特征@@ 17939
第九 17939
专题@@ 17935
哪来 17934
拟订 17934
面目 17933
发脾气 17932
城管 17932
良好@@ 17931
挠 17928
瓦解 17928
网址 17928
交配 17927
飞越 17927
治好 17926
退回 17926
零售业 17926
旅游者 17924
开往 17922
围墙 17921
干线 17920
高雅 17918
提请 17917
田间 17916
污水处理 17914
牢记 17913
探寻 17911
柱子 17910
比萨 17910
抛出 17909
了结 17908
康乐 17908
携 17906
朋 17906
限购 17906
大力发展 17903
惊艳 17903
众筹 17901
一氧化氮 17899
选择@@ 17899
可比 17898
林斯 17896
现出 17895
阵线 17895
某处 17892
资产阶级 17892
口香糖 17887
谚语 17887
薪金 17882
New@@ 17880
蕴含 17880
偏远 17879
团长 17879
换热器 17878
教学模式 17878
蹄@@ 17876
人脸 17875
龚@@ 17875
射杀 17874
精彩@@ 17873
共聚物 17872
古人 17872
风水 17872
里昂 17871
修养 17870
ame 17869
电车 17869
绒毛 17868
读完 17868
辅 17865
多月 17863
头皮 17863
忍耐 17863
蛛@@ 17863
慌 17862
凯莉 17860
绑@@ 17860
HD@@ 17858
布伦@@ 17856
缓冲区 17855
民兵 17854
这比 17854
团购 17853
简报 17853
动身 17851
哒 17851
攀登 17850
徒步 17849
性关系 17849
低声 17847
喷发 17847
葬@@ 17847
体贴 17846
购车 17844
原始@@ 17841
淋巴瘤 17841
磨削 17841
别提 17840
zz@@ 17839
妇幼保健 17839
抒@@ 17838
纽 17837
啤酒@@ 17834
蒂娜 17833
南斯拉夫 17832
籍@@ 17832
Pet@@ 17831
APEC 17829
劣势 17828
保佑 17827
小马 17826
直肠 17826
在校 17825
熟人 17825
要命 17824
临床@@ 17822
财政部长 17822
趋向 17821
急救@@ 17820
缠绕 17820
谦虚 17819
建筑设计 17818
还称 17818
1800 17817
战时 17816
从业人员 17815
分销 17813
惩@@ 17812
英国首相 17812
梗塞 17811
神经病 17808
补偿@@ 17804
贩子 17803
律法 17802
费尔@@ 17800
食欲 17799
GC 17794
首页 17794
着装 17790
整夜 17789
押金 17788
胸口 17788
人大代表 17786
持枪 17785
劈@@ 17784
十二条 17784
Ti@@ 17783
小组@@ 17783
浇 17780
养育 17778
信号处理 17777
出版商 17777
范式 17777
造纸 17776
事关 17775
排球 17773
受害 17770
小伙 17770
鲜肉 17770
馒头 17769
沦为 17767
甘油 17766
嵌 17764
热力 17764
黄山 17761
冲压 17757
领事 17757
倡@@ 17756
主题@@ 17755
锈 17754
专科 17753
零零 17753
指示@@ 17751
汪 17751
一职 17750
人意 17750
口水 17749
硝酸 17749
抖 17745
媳妇 17743
微风 17743
经销部 17742
止损 17740
渍 17740
法拉利 17739
边框 17737
卡尔@@ 17736
瞪 17736
ile 17734
共存 17731
PVC 17730
同仁 17730
所学 17729
角落里 17729
基本面 17728
本领 17728
市面上 17727
阁楼 17727
箔 17725
辩解 17725
Net@@ 17724
10000 17722
瘀 17720
持续增长 17718
稀有 17717
富兰克林 17716
磺酸 17716
无私 17715
单子 17714
最深 17713
用具 17711
电力公司 17711
母公司 17710
伺服 17709
末期 17709
漩涡 17709
亲身 17708
弗雷@@ 17706
服务费 17706
四人 17704
地壳 17704
大排档 17704
轮机 17704
驾驭 17704
建华 17703
18% 17702
脑梗死 17701
双臂 17700
应是 17699
靖 17697
档案@@ 17695
吡@@ 17694
诞 17694
商定 17692
宣 17688
配置文件 17687
利民 17686
韶@@ 17685
宾客 17684
跳水 17683
信用@@ 17682
干部@@ 17680
烟花 17680
裴@@ 17680
输掉 17678
醋酸 17677
翘 17674
转化成 17674
在生活中 17670
珍珠@@ 17670
讨好 17668
揭晓 17666
幽默感 17665
焚@@ 17662
碳酸@@ 17660
正经 17659
副教授 17655
腺癌 17654
蕾丝 17651
监视器 17649
低速 17648
让你在 17646
土豆@@ 17645
这来 17645
劳伦斯 17644
保费 17642
水井 17642
潜意识 17638
激动人心 17637
四川@@ 17634
顺畅 17634
病害 17633
大意 17627
好感 17627
着眼于 17627
重要@@ 17627
一时间 17625
水器 17625
瑕疵 17624
译者 17624
Sal@@ 17623
节约@@ 17622
古镇 17621
拘捕 17618
ny 17617
总统府 17616
设计者 17612
满是 17611
耶稣基督 17610
寄生 17609
慎重 17609
癖 17609
陀螺 17608
猴@@ 17607
怀里 17601
林市 17601
拥堵 17600
拉萨 17597
差劲 17596
服务生 17595
通达 17595
电工 17594
米奇 17593
均线 17591
毒药 17591
中医院 17588
英超 17588
莱恩 17588
厨具 17587
悄然 17587
非常适合 17587
方程组 17586
亚利桑那州 17583
淀 17583
新陈代谢 17581
美化 17581
花店 17581
IB@@ 17580
获得@@ 17580
乌鸦 17579
布鲁克 17579
栈 17579
TT 17577
空运 17577
We@@ 17573
加纳 17573
四名 17572
叹息 17571
PL@@ 17569
仍会 17569
钢琴@@ 17568
流言 17567
委书记 17566
位点 17565
断言 17565
贞 17565
数据传输 17563
田园 17559
凝结 17558
渡过 17557
出轨 17554
西方人 17554
威廉姆斯 17553
贫困地区 17551
大喊 17550
很糟 17548
管理所 17548
圆通 17545
sk@@ 17544
处女 17542
第二届 17541
高风险 17539
无障碍 17536
虚伪 17536
不景气 17535
俏@@ 17534
充气 17533
家门口 17533
百万@@ 17531
阿波罗 17527
变色 17526
基坑 17526
我司 17526
五次 17524
超强 17524
原味 17523
杜绝 17523
楔@@ 17523
土星 17522
合资企业 17519
楼层 17519
PE@@ 17518
大爷 17518
迫害 17518
子里 17517
财政政策 17517
一脚 17513
弹道 17511
len 17510
买点 17508
新华@@ 17508
驾驶@@ 17507
Dar@@ 17505
繁多 17505
筛 17502
集市 17499
捕捞 17498
寥@@ 17496
麻疹 17496
轮船 17494
匹兹堡 17492
开学 17492
优越性 17491
对系统 17491
黎 17491
种族主义 17489
并存 17487
展厅 17486
巷道 17486
热度 17486
拖拉机 17483
袋鼠 17478
滋润 17476
贩毒 17475
已成 17472
福尔摩斯 17472
选区 17471
34@@ 17468
胡说 17468
be@@ 17467
慕 17467
交易会 17465
疏忽 17464
苏州市 17459
38@@ 17457
一汽 17456
汝@@ 17455
礼拜@@ 17455
信奉 17454
洋洋 17454
北韩 17453
局域网 17453
公然 17452
离体 17449
卡斯 17443
事迹 17442
真话 17442
足球队 17442
迟迟 17441
来宾 17439
ome 17436
产品设计 17436
人民日报 17436
匮乏 17436
张贴 17436
四条 17434
渗流 17434
独自一人 17434
闭合 17434
本港 17433
缝隙 17433
直立 17432
养活 17424
栽 17424
可恶 17423
一幢 17422
建材@@ 17422
村落 17420
遵从 17420
幸福感 17419
挥舞 17419
同情心 17418
胡椒 17418
Nor@@ 17417
卧底 17416
开放性 17416
电解@@ 17416
网约车 17414
手柄 17413
同居 17408
笛@@ 17408
飞过 17405
嗅觉 17404
巨 17398
选项卡 17398
My@@ 17396
制定者 17396
申请@@ 17394
暑期 17393
薄层 17393
拌@@ 17390
沪@@ 17390
老挝 17389
现实主义 17388
饿死 17384
拉斯@@ 17382
斯卡 17382
文凭 17380
环氧 17380
文化产业 17378
核磁共振 17378
萃 17378
返还 17377
海平面 17372
美国公司 17372
按规定 17371
标明 17371
庇@@ 17370
想必 17370
士气 17369
翠 17365
钦佩 17361
风采 17361
维拉 17357
天主 17356
高峰期 17354
长达 17349
饱满 17348
买个 17347
网络化 17346
硼@@ 17345
更少 17344
书房 17343
垂体 17343
基站 17339
就餐 17339
会用 17337
海港 17334
泌@@ 17333
年龄段 17332
小汽车 17331
奖品 17330
熬@@ 17328
开朗 17326
电波 17326
播放器 17325
突袭 17325
介导 17323
爱着 17322
好心 17320
气愤 17320
US 17318
意外@@ 17318
第一年 17318
过桥米线 17318
至尊 17317
表彰 17317
建于 17316
投掷 17316
一盒 17315
丰富多彩 17315
蠢货 17313
免于 17312
胜者 17311
粉尘 17308
庸@@ 17307
控制策略 17305
摇晃 17305
之久 17303
家兔 17303
黄家 17302
松树 17301
萎@@ 17301
生态学 17299
定论 17298
14% 17297
潘基文 17297
UN@@ 17295
普顿 17287
oo 17284
机油 17283
赐予 17282
共度 17281
探访 17281
嗜 17280
投入使用 17279
一拳 17278
凶器 17274
净水 17273
伙@@ 17269
欧式 17269
蚀@@ 17268
侠@@ 17267
候选 17267
加氢 17267
插座 17267
疆@@ 17267
双边@@ 17264
达尔文 17263
骑行 17263
那头 17262
多彩 17261
脑筋 17260
赋能 17260
流离失所 17259
送货 17259
余生 17258
粘贴 17258
配电 17258
差异化 17257
断定 17257
向阳 17256
55@@ 17255
尚品 17255
软组织 17252
譬如 17250
试过 17250
俞@@ 17249
虚空 17249
音译 17249
痴@@ 17248
一章 17247
终究 17247
不爱 17246
如是说 17242
Gr@@ 17241
堕胎 17241
大阪 17240
扔进 17240
风波 17238
接收机 17237
瞬态 17236
神舟 17236
北欧 17235
沈 17235
脉动 17235
ita 17234
回调 17234
参谋长 17233
一棵树 17231
保守派 17231
维持@@ 17231
头骨 17228
荫@@ 17226
几内亚 17225
扩增 17225
皮肤@@ 17224
不同寻常 17223
回流 17222
惊恐 17222
有意识 17222
动感 17221
烹调 17219
打篮球 17216
漫游 17216
头晕 17215
措辞 17215
33@@ 17214
毁灭性 17214
修道院 17213
古典@@ 17209
存取 17207
福祉 17207
义务教育 17202
青岛市 17200
小规模 17199
焕发 17199
镀层 17199
高分辨率 17198
第一夫人 17196
不着 17193
Inst@@ 17191
塌 17191
死神 17191
毗邻 17191
选举@@ 17191
雪茄 17181
汽车配件 17179
90@@ 17178
蹭 17177
反导 17176
批发市场 17175
抛售 17174
深呼吸 17173
肢@@ 17173
沟村 17171
逆向 17171
越来越少 17169
碗@@ 17166
TO@@ 17162
不谈 17162
掩 17160
胎盘 17160
诈 17160
对人 17159
每件事 17159
踪迹 17159
小店 17158
惜 17156
保释 17155
君子 17151
LA 17149
Chris 17148
弗朗@@ 17147
言辞 17147
诚挚 17146
世纪末 17144
一路上 17143
胆囊 17141
新进展 17140
同伙 17139
1960 17138
医疗卫生 17137
汾@@ 17137
合唱团 17135
肉瘤 17132
腐 17132
运到 17132
攻击@@ 17131
深圳@@ 17131
房贷 17130
启 17128
高技术 17127
史蒂芬 17122
掺 17120
金融中心 17117
档次 17116
门上 17114
亿年 17111
护送 17106
持续性 17106
新药 17106
一案 17104
编译器 17104
余家 17103
Se@@ 17102
发文 17101
外科手术 17101
反倾销 17098
下雪 17096
击毙 17096
页@@ 17096
周家 17094
谓 17094
太难 17092
暗中 17091
腊 17091
缩写 17089
工匠 17087
玩玩 17087
义乌 17081
梦见 17080
稀少 17080
吃药 17077
ern@@ 17076
拖欠 17074
梭 17074
传销 17073
大叔 17070
风俗 17070
君主 17069
撬@@ 17069
唯美 17067
森林公园 17067
先例 17066
形体 17064
破灭 17064
取证 17063
胜出 17061
共生 17060
Jimmy 17058
畸变 17058
向外 17056
装甲 17056
一性 17055
工程学 17055
一伙 17054
鞋店 17054
合规 17053
贸易战 17051
五金建材 17049
厥 17049
黄昏 17049
商标@@ 17048
水文 17048
降幅 17047
有源 17046
全国政协 17045
应用软件 17041
花儿 17039
很差 17038
携程 17038
高尔夫球场 17038
恼 17037
石灰 17037
罗宾 17036
遥控器 17035
侄子 17031
瑞安 17031
Sn@@ 17030
歹徒 17030
出货量 17028
维他命 17027
颈椎 17027
一般性 17022
第一阶段 17022
并非如此 17019
两座 17016
一首歌 17015
王者 17015
输给 17011
奖牌 17010
作曲家 17006
巴塞罗那 17001
不好@@ 17000
审判@@ 17000
青铜 16999
感到高兴 16998
贝利 16998
慈善机构 16997
主要@@ 16992
乌鲁木齐 16992
柜子 16992
均价 16991
阻滞 16989
每一件 16988
各个领域 16985
伤人 16984
匹马 16982
况@@ 16980
刀子 16980
芋 16980
嗓音 16979
重演 16978
巴巴 16977
HB@@ 16976
批发@@ 16976
明日 16974
靖国神社 16972
挽@@ 16971
龙卷风 16971
阴茎 16969
低点 16967
老子 16967
3.0 16966
海市 16965
娱 16962
1981 16961
兵团 16961
罗宾@@ 16960
五一 16959
巴拿马 16959
孩儿 16958
负有 16958
即刻 16954
获准 16953
高调 16953
Cam@@ 16952
220 16951
之势 16951
双脚 16951
发火 16949
前门 16946
调理 16946
经贸合作 16945
打中 16944
5.5 16942
冗余 16942
威尔@@ 16939
更为重要 16938
唤起 16937
潜入 16936
追加 16935
吹风机 16934
芝麻 16934
垮@@ 16931
城东 16931
ham 16927
出面 16927
耳环 16927
17% 16924
邮轮 16923
凿@@ 16920
股骨 16920
招致 16919
该类 16919
举例来说 16918
探望 16918
腰部 16918
腕@@ 16917
Res@@ 16916
请教 16916
放在@@ 16911
欧盟委员会 16911
闯进 16911
渤海 16910
最终@@ 16907
语用 16906
宣传部 16905
无线网络 16905
滋生 16904
光环 16903
三轮车 16902
上周末 16901
惑 16901
朵@@ 16901
桥头 16901
已故 16900
居住@@ 16898
北极@@ 16895
人格@@ 16893
ery 16892
霉菌 16891
配制 16886
16% 16885
救人 16883
烷基 16882
昏 16880
泉水 16877
铸件 16877
科威特 16874
rick 16873
再造 16871
回馈 16871
饥荒 16870
阿联酋 16869
全额 16868
玲@@ 16868
相似性 16866
阶段性 16866
一对一 16865
哥本哈根 16865
常有 16865
MD 16863
到手 16863
油炸 16862
终端@@ 16862
根系 16857
缺乏@@ 16857
陷入困境 16856
世界贸易组织 16854
弄清 16854
9000 16853
松开 16853
核心技术 16852
压力@@ 16849
并不@@ 16849
历史悠久 16848
教学楼 16848
赤 16846
业态 16845
USB 16844
加压 16842
税收@@ 16840
小猪 16836
明确规定 16834
槽@@ 16834
问好 16834
协会@@ 16833
螃蟹 16832
过境 16832
地平线 16831
高能 16831
小册子 16830
伤痛 16829
棕@@ 16828
亲友 16825
炳@@ 16825
芬奇 16824
艾迪 16823
移动电话 16822
听不懂 16821
电解质 16821
禾@@ 16820
一列 16816
一块儿 16814
临床表现 16814
区域@@ 16814
奖杯 16814
厉@@ 16812
卡洛斯 16811
顶上 16811
1949 16810
重新启动 16809
溢价 16807
西岸 16807
球蛋白 16806
get 16805
出击 16804
芝士 16804
描@@ 16802
馏@@ 16802
处理程序 16801
汽车行业 16800
各式各样 16799
佼@@ 16797
法郎 16796
乞丐 16795
灯塔 16795
俘虏 16793
夏洛特 16793
纸币 16793
魔术师 16793
比值 16790
那辆车 16790
总署 16788
步兵 16787
当面 16785
追溯 16782
母细胞 16781
金价 16781
歪 16780
脲 16780
逾@@ 16778
化妆@@ 16776
学派 16776
胶原 16775
好日子 16774
那名 16774
负责@@ 16773
交朋友 16771
宜家 16770
提早 16770
捡@@ 16769
新近 16769
刹@@ 16767
裙@@ 16766
工夫 16765
George 16764
认得 16763
海岛 16762
活在 16761
墨尔本 16760
商务中心 16759
麻木 16758
elle 16757
帮派 16757
怨恨 16756
斯利 16754
优先级 16752
时效 16751
畜@@ 16751
交警大队 16750
坍塌 16748
喽 16747
报仇 16745
col@@ 16744
降低成本 16740
臻 16738
华润 16737
按下 16737
骗人 16737
研磨 16736
结识 16736
崎 16735
分布@@ 16734
一百万 16733
学过 16733
咖啡厅 16732
瑞士@@ 16731
颈动脉 16731
衣着 16729
求职者 16728
1945 16727
壁炉 16726
汗水 16726
RNA 16725
热情@@ 16723
丢脸 16721
住房@@ 16721
转折点 16721
解锁 16719
Ig@@ 16718
两层 16718
开场 16718
平日 16717
安区 16716
温哥华 16716
牠 16714
肾上腺 16714
冠军@@ 16711
七夜 16710
福布斯 16710
余年 16708
油井 16708
牙膏 16708
打倒 16706
恍@@ 16705
敌军 16705
状态@@ 16704
成功@@ 16703
贸易协定 16703
顺从 16703
教师@@ 16701
慕尼黑 16700
三峡@@ 16699
迫 16698
资讯科技 16697
病毒@@ 16693
品格 16692
时滞 16691
烤箱 16690
造价 16689
太迟 16685
ink 16684
栖息地 16682
百老汇 16682
立法院 16682
此间 16681
举行会谈 16680
iOS 16679
英语教学 16679
艾玛 16677
停放 16675
双十 16674
粤 16673
ix 16672
星云 16672
华盛顿邮报 16671
教学方法 16669
酐 16669
说不出 16667
结盟 16664
北海 16662
医务人员 16661
兜 16660
圣诞树 16657
无名 16657
消遣 16657
[...]
