the 229186963
. 210324427
, 191838535
of 112257859
and 97900103
to 89534042
a 69580290
in 65293414
is 48287934
- 43594287
i 42187726
you 42011284
that 34704718
it 31599654
for 27975824
's 27866962
on 27257252
" 25958963
? 23955412
with 20588390
this 19934117
are 18730446
be 18066628
was 17226636
he 16520907
have 16063599
not 15711515
as 15055476
can 14021672
we 13919622
't 13725253
at 13306073
by 12950076
will 12237085
but 12135508
has 11832145
from 11558681
an 10304729
: 10043354
they 9503172
your 9269113
or 9144285
do 9123414
me 8985100
what 8976610
my 8906076
all 8631530
there 8573262
! 8182950
his 8102426
no 7899796
one 7892677
so 7881450
more 7847260
if 7783497
people 7311632
time 7297949
about 7073124
china 6960464
said 6810722
out 6736041
) 6626363
s 6624557
also 6600646
( 6515026
she 6501306
up 6489556
when 6325215
like 6292348
new 6262651
were 6219955
' 5910104
been 5767383
know 5617512
her 5607536
their 5514873
just 5495800
who 5456009
which 5423544
'm 5234596
some 5124806
two 5087071
don 5066589
after 5018898
... 4932827
had 4837975
us 4827368
than 4759752
're 4731568
its 4727814
other 4680959
how 4669147
him 4648473
only 4615227
first 4610943
get 4500618
$TERM 4425440
; 4381499
good 4328968
go 4276942
now 4256774
year 4221128
our 4184784
system 4157527
into 4083635
very 4004279
them 3965034
want 3875543
here 3821826
would 3808190
should 3783008
high 3691763
development 3646549
because 3616540
right 3592962
think 3566950
well 3549473
many 3543202
years 3513003
chinese 3501862
” 3495553
did 3484166
world 3471317
then 3432278
n 3424794
’ 3422520
see 3421196
make 3419299
work 3360363
these 3310987
such 3190840
take 3189644
'll 3157242
most 3145118
may 3101977
“ 3068720
life 3065523
long 3018505
day 2991510
back 2950796
company 2940854
could 2919492
use 2858514
way 2854385
still 2850923
let 2815148
man 2804642
over 2802344
three 2766111
even 2741919
come 2719846
need 2696003
used 2688011
market 2681000
between 2670367
co 2625580
th 2593555
technology 2568781
through 2562954
any 2535407
why 2454999
water 2449523
according 2449439
before 2433143
must 2425420
city 2420437
% 2414515
same 2374073
business 2371698
where 2367420
going 2356080
study 2355714
made 2352385
say 2328484
industry 2313837
down 2311427
too 2299786
got 2289177
last 2272166
look 2269860
ltd 2267724
yuan 2243394
government 2232598
old 2229760
method 2193246
school 2189579
much 2177382
t 2165019
2 2164741
've 2159091
control 2154177
really 2117265
branch 2103828
information 2099038
1 2091099
service 2090979
group 2060643
help 2050650
home 2034476
little 2025591
o 2022756
important 1990300
research 1979314
number 1966422
public 1948620
based 1942260
different 1933408
data 1929986
store 1919167
international 1913192
off 1912811
great 1899107
management 1891620
love 1888447
power 1883881
united 1882375
national 1866127
center 1861800
under 1861259
find 1859268
does 1852305
party 1848254
house 1842556
car 1807849
give 1805022
analysis 1800568
never 1780725
every 1777160
design 1768915
small 1766441
state 1756413
the@@ 1747539
oh 1738072
each 1737432
tell 1733097
lot 1730513
3 1730145
always 1708881
end 1707997
children 1706839
states 1697775
economic 1682741
process 1678793
those 1671378
own 1669371
big 1669363
large 1663763
something 1650621
country 1648001
found 1647807
am 1642044
put 1637836
un@@ 1634219
money 1625416
yeah 1612440
application 1601371
mr 1595946
office 1590822
paper 1589907
real 1588260
second 1573382
re@@ 1570582
next 1557385
please 1556150
security 1553658
better 1549627
in@@ 1549496
family 1548146
countries 1539804
around 1531158
again 1526672
however 1525790
products 1525242
area 1524095
order 1523541
since 1523188
during 1520051
become 1519760
food 1507510
model 1498682
department 1496975
law 1494034
today 1490123
bank 1489322
village 1486837
l 1483000
road 1476774
okay 1472665
being 1471533
construction 1458648
didn 1447335
quality 1445932
while 1444680
part 1440244
gonna 1438851
effect 1434051
level 1421389
another 1415743
change 1409558
e 1407884
best 1407032
things 1401714
county 1400630
problem 1396583
news 1383977
health 1382099
thing 1381962
set 1379440
place 1378102
network 1371972
show 1369949
line 1366268
price 1360957
few 1356751
beijing 1350654
south 1345479
person 1345240
education 1338722
called 1333169
10 1327415
both 1326885
air 1319086
results 1312685
'd 1312647
li 1309691
night 1308813
away 1300546
general 1292178
name 1290826
using 1289256
/ 1281424
told 1280038
rate 1279541
without 1278694
foreign 1275668
body 1273760
report 1270839
police 1270393
days 1264453
room 1261719
building 1256995
case 1253092
special 1247204
low 1246300
test 1245482
human 1240378
thought 1235775
four 1235606
times 1232660
main 1231257
team 1229766
m 1229607
students 1223165
4 1222429
left 1218637
sales 1218186
local 1217643
million 1217017
face 1216761
point 1216486
mobile 1213601
social 1210766
feel 1209844
committee 1208026
open 1205762
5 1200009
future 1199147
production 1186752
kind 1184871
station 1182121
call 1182029
i@@ 1180976
president 1180146
value 1179529
support 1172280
five 1170443
men 1170069
companies 1163838
once 1160944
came 1157527
hand 1155863
town 1154808
full 1149614
university 1140254
went 1135925
able 1132752
field 1132728
red 1128399
god 1125922
yes 1124879
oil 1121987
energy 1120215
mean 1119100
women 1115642
head 1112809
u 1112558
shop 1109485
treatment 1103125
hong 1099634
against 1099556
believe 1099212
took 1096223
keep 1090921
financial 1090435
hard 1089106
c 1089102
light 1086755
y@@ 1084789
b 1082414
including 1082072
d 1080427
e@@ 1080198
k@@ 1077773
situation 1072378
s@@ 1068220
doing 1067142
side 1066309
talk 1066138
growth 1065550
investment 1065274
20 1062593
play 1060937
current 1056648
a@@ 1052488
shall 1050690
less 1050582
care 1048352
experience 1043462
problems 1043070
an@@ 1042241
project 1036072
military 1035150
together 1033483
free 1028690
performance 1028087
often 1026736
d@@ 1023125
o@@ 1022644
course 1018971
addition 1018347
increase 1017651
heart 1017620
phone 1016026
central 1013984
sure 1011009
pay 1010368
non 1006802
hotel 1005617
structure 1004804
whole 1004478
past 1000359
land 999922
japan 999503
north 997989
district 995788
mother 993208
plan 991885
stop 985769
wang 985009
internet 984198
trade 983048
t@@ 982827
won 980384
enough 973659
says 969895
media 969337
strong 969266
working 969222
anything 966046
young 965248
everyone 963560
live 961189
means 960613
space 959213
p 958119
already 956464
al@@ 952025
self 949775
class 947155
early 943644
job 940878
type 938666
son 936938
community 934928
er 932715
economy 930060
understand 929421
war 928351
game 927852
week 919075
far 916117
product 915278
although 914320
friends 913684
needs 913384
meeting 911966
6 911919
key 910211
de@@ 908020
nothing 907214
training 904500
ago 903750
half 903566
form 903412
period 901902
n@@ 900974
equipment 900793
white 900383
shanghai 900156
father 898415
making 898150
major 896744
morning 892696
$NUMBER 890648
looking 889840
g 889582
operation 886595
restaurant 884026
blood 883660
bad 882632
saw 882563
present 882488
someone 879496
total 878781
whether 878539
methods 876847
start 876412
american 872703
might 870977
everything 870602
provide 869297
global 868307
hope 868025
attention 866307
sorry 866230
maybe 865798
province 865529
p@@ 865100
top 864427
child 862578
30 861007
third 859513
environment 859508
example 858332
gas 854578
asked 853844
policy 853278
reported 853044
sea 851888
& 851204
ask 845753
political 844856
bureau 841370
try 839667
history 839139
later 838979
pressure 837344
woman 837004
book 836957
meet 833181
leave 832650
g@@ 830366
english 829765
characteristics 829253
cooperation 827177
hospital 825619
per 824292
improve 821576
kong 821343
buy 819654
done 819641
until 819103
seen 818932
culture 818538
several 817666
door 817485
hey 817343
fact 817179
medical 815974
reporter 813839
cause 812803
he@@ 808788
age 808592
services 807926
ever 804058
japanese 802398
computer 801177
difficult 801115
yu 798742
taiwan 797022
fire 795117
force 794167
term 792972
among 792495
related 791651
actually 791590
content 790995
er@@ 790027
traditional 789558
various 787739
hot 786257
enterprises 785043
short 784589
matter 783408
relationship 783002
is@@ 782208
speed 781910
girl 781762
resources 779943
m@@ 779228
7 777245
higher 775387
8 771696
materials 771648
article 771514
happy 770820
cost 768296
soon 767978
online 766476
held 764916
black 764513
others 763328
middle 763083
beautiful 760177
ing 757969
ate 756226
xi 754311
further 752512
front 751894
yang 751060
'@@ 750642
patients 748447
b@@ 748327
month 747267
theory 746630
material 746225
run 743961
ability 743825
wait 743347
f@@ 741155
protection 739494
months 739011
east 738983
function 736353
eyes 733667
bring 733294
$ 732896
science 732771
especially 732582
capital 731574
machine 731557
thank 729504
within 728475
words 728009
li@@ 727152
continue 726828
k 726639
view 724567
y 724154
single 724140
makes 723755
king 723625
yi 722944
move 722582
areas 720567
on@@ 720518
art 720104
doesn 720082
l@@ 717052
yet 716266
possible 716058
property 716022
easy 715662
close 715341
cases 714044
finally 712754
f 712321
eat 711741
position 711678
forward 709617
billion 707218
friend 705635
due 704342
anti 703941
common 703566
least 703553
di@@ 702467
role 700605
society 699551
beauty 699349
temperature 698658
wanted 698064
mind 696705
ma@@ 695876
safety 695557
as@@ 695209
u@@ 692826
college 688528
gate 687582
cannot 687223
therefore 686510
basic 686242
stay 685132
above 684996
c@@ 684254
six 682074
remember 681383
recent 680753
professional 680559
film 679137
z@@ 678766
reason 678262
industrial 678179
reform 676412
turn 676387
en@@ 675985
almost 675966
wife 674101
region 672630
cold 671459
15 671335
death 671035
ar@@ 670383
es@@ 669605
clear 669340
changes 669145
you@@ 668669
known 667529
to@@ 665855
relevant 664964
wei 663932
idea 663820
conditions 662605
risk 660340
taking 659854
hours 659565
trying 659447
platform 657412
al 656170
parents 656148
natural 656039
ti@@ 655997
west 655509
communication 655462
lost 654949
saying 654247
coming 652768
activities 652042
river 651392
12 651137
wrong 651071
r@@ 650611
h@@ 650058
ed 648303
xin@@ 645948
baby 645460
chen 645105
recently 644165
living 643016
street 642909
series 642699
it@@ 642342
source 641741
tea 641067
park 641015
supply 640891
outside 640769
surface 640474
etc 640019
supermarket 639840
members 639480
chain 639282
cultural 639012
engineering 638725
objective 638403
music 637166
heard 636991
getting 636715
guy 636704
image 636694
zhang 636373
green 635849
gave 635572
yu@@ 635473
table 634437
fine 633947
daily 632979
uh 630610
ted 630291
given 630252
automobile 629548
steel 628771
users 628636
9 628344
korea 627939
caused 627233
le@@ 627012
language 626411
standard 624985
dis@@ 624968
read 624411
result 624161
measures 623861
court 623835
cheng 623833
points 623052
electric 622069
da@@ 621280
director 620680
ha@@ 620619
jin@@ 620420
promote 620297
simple 620258
true 618779
agency 616085
jia 615309
step 614889
tv 614295
rights 614155
question 612804
stage 612236
ma 612168
h 610928
earth 610524
thinking 608544
style 607665
taken 607167
necessary 605696
club 604830
medicine 603810
led 603674
re 603582
ing@@ 603263
card 602630
100 601767
create 601161
original 601042
ten 600962
having 600334
te 599315
late 599209
exchange 599163
return 598548
developed 598224
began 597916
certain 597026
effects 596617
mainly 596580
shows 595564
modern 594281
amount 593918
learn 593840
insurance 593667
word 593040
mechanism 593034
practice 591900
r 591387
commercial 590857
scale 590463
domestic 588249
disease 587942
xin 587939
bridge 587454
issue 586542
hold 586362
flow 586184
list 584807
es 584044
western 583828
travel 583645
wall 582475
hear 582220
deal 580639
teaching 579746
increased 579440
wu 579387
program 579218
lead 578531
ba@@ 578207
behind 577294
private 576852
minutes 576677
sent 575865
fast 575285
sun 574791
ting 574339
x 574293
parts 573614
shi 572465
or@@ 572222
ji 572211
rural 570795
software 570006
and@@ 569402
share 567863
interest 567688
following 567341
hu@@ 567114
estate 565855
story 565027
normal 564923
wants 564499
cut 563819
minister 563054
else 562756
de 562715
color 562678
talking 562380
conference 561905
w@@ 561499
check 561211
effective 560661
st 558993
distribution 558300
bed 557477
yourself 556827
brand 555746
deep 555473
code 554533
base 552807
te@@ 552173
comprehensive 552111
systems 551948
along 551552
dead 551409
v@@ 551284
tax 545336
action 545091
personal 543840
serious 543089
board 542990
influence 541643
ch@@ 540533
lower 540215
factory 539201
boy 538840
credit 538369
stock 538298
traffic 538228
near 537686
strength 537465
expected 536850
fish 536724
ro@@ 536305
da 536272
defense 536068
vehicle 534993
started 534877
ra@@ 534815
xiang 534237
50 534096
usually 533821
mo@@ 533130
si@@ 532989
video 532180
investigation 531103
hands 529912
moment 529752
longer 529328
factors 529279
liu 529038
bit 529006
learning 528359
ground 528341
hall 528204
environmental 527515
11 527235
technical 526944
sh@@ 526761
me@@ 526017
cross 525173
co@@ 524513
sports 524500
watch 524055
relations 523963
site 522074
rich 522040
we@@ 521799
nuclear 521451
gu@@ 520602
staff 520236
quickly 520173
happened 519887
guys 519732
looks 519419
legal 519308
user 519139
gold 519051
j@@ 518525
became 518448
visit 518340
listen 518205
ab@@ 518090
administration 517089
sometimes 515711
income 515290
post 514178
reports 513589
comes 513578
prices 513423
organization 512505
lin 512249
be@@ 511865
spring 511759
enterprise 510994
kill 510723
seems 510611
st@@ 509414
impact 509005
official 508420
specific 507188
complete 506936
teacher 506543
killed 506455
build 506051
double 505841
parking 505694
x@@ 505600
zone 505493
skin 504922
knowledge 504881
rest 504798
size 504415
plant 502991
fully 502517
brother 501551
ming 500520
decision 500445
focus 500230
brought 499602
v 499321
alone 499082
basis 498898
win 498629
sense 498158
18 498009
heat 497968
dad 497665
poor 497508
planning 497438
works 496732
cann 495862
peace 494846
hit 494513
fund 494304
compared 493923
introduced 493673
strategy 493166
ready 492620
ship 492479
ms 492368
army 492315
bo@@ 492253
box 492218
secretary 491863
die 491828
established 491379
send 491275
at@@ 490849
demand 490382
member 489872
march 489825
ministry 488564
agreement 488308
2@@ 487821
um 487241
primary 486946
maintenance 486197
round 485466
showed 485455
no@@ 485023
hair 484478
announced 484270
cell 483640
directly 482348
reduce 481771
ping 481762
zhou 481106
competition 480635
feng 477838
con@@ 477640
3@@ 477475
knew 477308
joint 477029
core 476916
account 476805
urban 476536
famous 476196
am@@ 476087
association 475718
sir 475206
drug 474692
changed 474567
yesterday 474550
former 473751
asia 473692
blue 473097
se@@ 472879
met 472127
over@@ 471354
russian 470978
ic 470774
answer 470762
average 470722
implementation 470521
russia 470510
progress 470245
driving 469626
fall 469496
unit 469082
activity 468674
heavy 468092
xi@@ 467380
choose 467311
processing 467292
quite 466863
fu@@ 466624
european 466296
british 466018
korean 465239
council 464631
received 464618
anyone 464391
workers 464390
similar 463565
agricultural 463491
tomorrow 463206
reached 463165
doctor 463127
sound 462750
cities 462325
achieve 461862
develop 461850
goods 461670
innovation 461403
rice 459914
cells 459804
largest 459324
mom 459067
star 457838
ers 457682
wind 457263
break 457110
jiang 457067
xiao@@ 456215
pre@@ 455847
himself 455248
bar 454754
though 453871
drive 453422
nice 453396
inside 452990
nature 452149
ai 451883
multi 451134
charge 451128
proposed 450903
america 450472
direct 450341
island 450101
groups 449521
studied 449145
response 448273
issues 448058
requirements 447481
decoration 447270
fight 446541
yan 446441
turned 445820
range 445760
clinical 444960
ts 444918
ice 444832
contact 444730
en 444663
games 444511
completely 444445
so@@ 444349
popular 444309
running 444017
im@@ 443825
physical 443358
funds 443000
transfer 442620
rules 442496
miss 442376
generation 441096
phase 440884
loss 440828
bus 440693
principle 440681
released 440307
population 439930
hua 439772
century 439693
looked 439617
ac@@ 439506
press 439401
concept 438835
song 438805
hour 438776
chemical 438411
difference 438382
16 438326
europe 438064
] 437934
el@@ 437650
beginning 436996
ensure 436804
trading 436344
qing 436094
ri@@ 435887
search 435339
ic@@ 434684
projects 434507
carry 434129
follow 433951
stand 433872
issued 433149
ating 432893
lives 432703
apple 432548
ying 432024
october 431808
ancient 431601
digital 431562
scene 431426
ad@@ 431373
25 430457
40 430200
opening 428859
decided 428644
algorithm 428350
fell 428108
immediately 428021
solution 427906
ge 427890
jin 427544
forces 427467
lo@@ 427435
evaluation 427029
master 426919
isn 426813
garden 426367
commission 426342
net 426230
voice 425964
4@@ 425924
spirit 425863
picture 425326
rather 425086
terms 424982
drink 424792
built 423935
trust 423528
behavior 423374
safe 422182
nearly 421523
event 421351
ways 420728
qi 420439
sleep 420350
weight 420182
acid 420176
dog 420024
likely 419505
[ 419486
believes 418571
summer 418080
sides 417844
across 417803
save 417792
opened 416791
smart 416734
probably 416481
le 416472
properties 416224
record 415688
positive 415679
ke 415506
enter 415350
mode 415126
customers 414989
died 414714
sa@@ 414635
aircraft 414175
ation 414156
eye 414028
wine 413961
chief 413913
date 413842
afraid 413714
april 413364
cancer 413239
launched 412788
ine 412651
questions 412423
mountain 412065
page 411819
july 411797
husband 411573
fu 411270
th@@ 411154
nations 411141
flight 411076
leading 410863
supervision 410760
tried 410423
sub@@ 410084
developing 409503
square 409204
tang 409035
wear 408995
attack 408988
su@@ 408951
choice 408792
myself 408784
seven 408180
access 408043
previous 407769
trend 407276
pointed 407249
device 407243
internal 407055
housing 406781
write 406514
target 405653
-@@ 404948
student 404767
gone 404299
man@@ 404026
daughter 403412
keywords 403384
include 403287
shi@@ 402886
13 402833
rise 402232
walk 401950
status 401738
felt 401646
ding 400851
york 400365
express 399975
huge 399706
efficiency 399440
added 398978
zi 398745
shopping 398477
clean 398435
14 397932
responsible 397720
for@@ 397685
june 397625
soil 397492
experimental 397000
speech 396987
section 396730
add 396048
train 395731
scientific 395381
brain 395193
ok 394881
reading 394514
file 394257
opportunity 393948
potential 393940
inspection 393657
ji@@ 393489
stability 393387
ol@@ 393268
chance 392982
truth 392656
contract 391931
enjoy 391797
overall 391217
civil 390904
review 390789
worth 390731
lord 390687
india 390493
shan 390269
floor 390252
5@@ 389858
yi@@ 389343
dong@@ 389309
waiting 389095
index 389059
tree 388808
capacity 388649
studies 388316
wan 387819
september 387751
electronic 387534
consumption 387142
annual 387118
ke@@ 387051
ling 386911
hu 386862
commerce 386802
expression 386712
lose 386686
per@@ 386605
manager 386570
direction 386465
officials 385447
dream 385111
knows 384649
sp@@ 384340
24 384120
condition 383896
crisis 383892
provides 383807
stone 383456
institute 383351
ta@@ 382452
responsibility 382367
entire 382120
tian 382086
plans 381965
mine 381590
21 381455
act 381221
speak 381213
coal 381140
french 380839
dollars 380027
'an 379829
text 379648
lu@@ 379588
dynamic 379482
avoid 379352
evening 378919
zhong@@ 378279
du@@ 378069
levels 377980
thanks 377638
do@@ 377203
eight 376996
limited 376586
19 376535
glass 376461
carried 376407
ya 376372
han 376216
agent 376213
sky 376075
born 375929
damage 375423
foundation 375385
xing 375146
active 375078
tourism 374981
ag@@ 374927
statement 374661
atm 374502
feeling 374485
solve 374449
bi@@ 373993
takes 373251
reach 373114
pain 372748
places 372485
regulations 372461
hardware 372336
playing 372207
specialty 372052
provided 372013
ated 372005
parties 371899
letter 371743
understanding 371648
final 371245
noodles 371088
screen 370837
books 370545
website 369712
fashion 369464
\ 369230
clothes 369177
pro@@ 368467
ad 368125
version 367998
leaders 367911
degree 367894
types 367737
strengthen 367729
map 367231
xiao 367151
instead 366967
available 366936
season 366901
ter 366541
sign 366187
uses 366020
efforts 365888
figure 365609
jie 365562
finance 365168
ly 365024
affairs 364982
hong@@ 364784
weeks 364650
paid 364291
op@@ 364262
themselves 363931
dr 363893
regional 363647
message 363442
— 363269
tonight 363214
involved 363208
perfect 362934
protect 362631
window 361879
engine 361823
evidence 361623
improved 361492
chairman 361472
complex 361438
mei 361369
la@@ 361215
discussion 361026
tic 360967
goal 360627
fruit 360586
17 360287
ye 360224
car@@ 359950
either 359694
itself 359368
personnel 358796
learned 358641
resistance 358392
designed 358301
signal 358161
address 358064
experts 357870
banks 357767
kinds 357701
ong 356917
prevent 356039
wave 355776
ap@@ 355411
worry 355165
accident 354333
dark 353683
simulation 353476
success 353390
standards 353234
jia@@ 353071
customer 352493
examination 352429
pass 352394
lu 352278
advanced 352018
ball 351701
currently 351378
ant 351054
female 350790
wish 350729
suddenly 350560
fresh 350211
ring 349974
iron 349971
tian@@ 348982
coffee 348956
gradually 348918
leader 348670
january 348480
ou@@ 348377
w 348183
plane 347825
institutions 347594
consumers 347396
cars 347328
shot 347328
sister 347097
ous 346579
+ 346154
interests 346147
bu@@ 346113
festival 345472
labor 345466
analyzed 345424
pe@@ 345257
z 345069
hui 345004
of@@ 344951
sell 344813
determination 344760
administrative 344388
healthy 344140
intelligence 344057
passed 343505
hao 343081
long@@ 343075
san@@ 342862
layer 342611
metal 342217
stress 342198
exercise 341701
ec@@ 341363
inter@@ 341283
medium 340418
strategic 340109
.. 340017
60 339967
marketing 339792
john 339650
memory 339607
ang 338529
dry 338207
needed 337948
moving 337585
forget 337481
manufacturing 337313
yang@@ 337199
election 337083
frequency 336990
conclusion 336542
pretty 336037
milk 335709
ah 335461
wood 335453
om@@ 335443
cover 335390
wide 335231
goes 335169
august 335078
subject 335023
investors 334915
girls 334757
purpose 334163
ar 334157
huang 334093
guess 333984
auto 332818
discussed 332402
dinner 332222
unique 331946
union 331653
jing 331407
vehicles 331158
wen 331091
ge@@ 331027
upon 329850
monitoring 329253
meters 328507
channel 327833
ia 327717
fun 327635
go@@ 327055
object 326809
weather 326658
mar@@ 326488
il@@ 326454
deputy 325535
po@@ 325198
clearly 324830
teachers 324764
ou 323840
created 323537
wasn 323307
afternoon 323184
latest 323135
spend 322739
individual 322364
interview 322326
overseas 322287
7@@ 322266
december 322249
jing@@ 322210
_ 321410
happen 321332
congress 321139
id 321097
dance 321048
growing 320999
6@@ 320988
standing 320768
models 320609
era 320128
plastic 319820
release 319637
ru@@ 319613
trouble 319495
– 319059
applications 318646
relatively 318636
emergency 318162
rule 318153
nd 317944
prime 317766
sold 317639
micro@@ 317612
clothing 317426
factor 317414
reasons 317329
practical 317114
welcome 316986
accept 316614
ds 316179
chicken 316174
maintain 316117
clinic 316051
november 315810
kids 315799
operating 315519
considered 315393
purchase 315372
operations 315292
entered 315086
suitable 315072
multiple 314831
markets 314521
piece 313941
applied 313940
launch 313868
transportation 313832
soft 313619
hai 313609
features 313525
yan@@ 313338
sit 313156
establish 312870
haven 312763
married 312638
railway 312521
balance 312512
winter 312502
storage 312210
starting 312055
ca@@ 312035
seem 311981
guangzhou 311652
2015 311587
technique 311341
closed 311027
thousand 310946
minute 310882
couldn 310735
ed@@ 310699
airport 310656
generally 310568
movie 310485
distance 310400
costs 310276
sheng 310271
task 310267
shape 310178
shenzhen 310178
waste 310133
feet 309457
2016 309367
realize 309325
8@@ 309315
ne@@ 309240
gets 308867
writing 308806
hi 308659
profit 308424
hurt 308325
un 307791
bill 307608
wu@@ 307424
survey 307392
employees 307384
… 307269
approach 307111
lin@@ 306982
improvement 306865
em@@ 306841
meat 306811
failure 306685
dong 306634
rapid 306428
powerful 306321
driver 306303
sex 306168
carbon 306129
wedding 306062
worked 305601
plate 305453
cloud 305195
mouth 305176
lack 305131
located 305077
continued 304979
dian 304769
provincial 304287
mis@@ 304245
00 304164
rd 303492
spot 303142
willing 303076
wan@@ 302740
forest 302727
crime 302494
q@@ 302338
completed 302282
drugs 302198
testing 302048
this@@ 302009
pick 301978
combined 301861
existing 301697
required 301608
web 301570
rain 301356
chang 301220
repair 301156
stable 300828
played 300637
participate 300534
tri@@ 300387
xing@@ 300196
municipal 300099
flowers 299947
thousands 299738
bought 299570
zhuang 299481
qu@@ 299185
schools 298411
easily 297896
xian 297802
touch 297661
mass 297568
animal 297169
ideas 296928
independent 296610
africa 296482
character 296347
below 296113
professor 295974
units 295865
respect 295707
warm 295554
ex@@ 295373
se 295255
allow 295224
rock 295215
na@@ 295164
patient 295096
actual 294699
22 294698
exactly 294509
volume 294475
offer 294456
obtained 294446
yun 294315
ba 294293
9@@ 294051
transformation 294012
hell 293906
payment 293892
fourth 293793
earlier 293729
incident 293401
ul@@ 292822
nan@@ 292755
grow 292485
skills 292225
yellow 291996
quarter 291594
author 291546
written 291308
fan 291272
fair 290968
dress 290829
perhaps 290806
bottom 290723
display 290673
establishment 290046
detection 290031
ming@@ 290024
photo 289967
criminal 289944
registration 289925
2014 289663
boss 289529
departments 289443
my@@ 289420
shoes 289402
senior 288862
ratio 288602
policies 288515
obama 288338
consumer 288189
measurement 288092
zhu 288040
element 287938
significant 287880
couple 287814
cup 287805
cash 287430
marriage 287398
lake 287328
secret 286876
increasing 286870
fields 286805
concrete 286357
ni@@ 286343
advantage 286300
determined 286223
automatic 286141
historical 286121
apply 286066
london 285998
note 285756
mainland 285554
port 285551
xiang@@ 285266
lines 285254
als 284752
france 284677
listed 284597
authorities 284439
consider 284413
liquid 284409
ton 284068
lie 283756
formation 283725
mon@@ 283686
plants 283601
thus 283574
ga@@ 283117
weapons 282894
integration 282807
path 282628
wouldn 282096
tu@@ 282014
min@@ 281586
cool 281551
affected 281420
television 281254
owned 281110
elements 280969
gun 280757
jun 280597
spread 280508
mi@@ 279969
tai 279816
ps 279756
foot 279713
bone 279527
leaving 279494
excellent 279016
biggest 278622
prepared 278610
ur@@ 278602
tobacco 278472
chang@@ 278396
par@@ 278284
guide 278202
percent 278160
location 277696
assets 277658
ho@@ 277634
greater 277562
published 277380
negative 277354
organizations 277212
preparation 276960
convenience 276903
concerned 276677
ve 276445
significance 276195
fixed 275791
effectively 275711
motor 275436
id@@ 275054
combination 275042
functions 274957
successful 274919
ks 274650
debt 274404
broken 274176
particular 274070
promotion 273985
pollution 273934
fang 273929
animals 273911
produced 273741
spent 273698
ai@@ 273648
collection 273553
sing 273530
opinion 273450
prevention 273285
hello 273154
pu@@ 273129
qing@@ 273118
ang@@ 273057
out@@ 273006
transmission 272899
bao 272817
ones 272787
reaction 272626
yuan@@ 272625
implement 272456
whatever 272444
23 272271
highest 272208
ticket 272193
simply 272074
mu@@ 272064
asian 271843
bag 271609
movement 271413
mentioned 271250
experiment 271162
tions 271097
ren@@ 270860
lottery 270840
crazy 270836
variety 270214
taste 269972
returned 269849
interesting 269655
rose 269455
golden 269434
hi@@ 269272
players 269155
xu 268967
80 268797
broke 268763
drop 268674
produce 268541
selection 268090
selling 268079
load 267926
tool 267850
hang 267566
giving 267551
radio 267318
solid 267196
mark 267136
powder 267040
wen@@ 267031
integrated 266907
shares 266853
meaning 266804
virus 266774
german 266632
ahead 266445
mission 266444
germany 266420
explain 266232
illegal 265953
wang@@ 265905
super 265816
youth 265761
moved 265661
chongqing 265468
reduced 265167
zhi@@ 265115
intelligent 265009
diagnosis 264977
trip 264779
transport 264587
seriously 264576
busy 264454
protein 264387
block 264316
fat 264209
vi@@ 263954
formed 263721
fuel 263657
includes 263599
ran 263300
us@@ 263276
background 263220
ordinary 263094
continuous 263044
advantages 262993
pattern 262812
appeared 262645
calculation 262599
output 262548
database 262347
fear 262308
named 261975
bo 261969
ter@@ 261900
guo 261700
artificial 261553
signed 261458
parameters 261152
server 261053
fault 260985
notice 260805
ce@@ 260732
straight 260555
affect 260524
importance 260482
library 260445
join 260193
eating 260172
nine 260123
200 260086
vice 259905
ver@@ 259874
interested 259863
raised 259825
boat 259660
securities 259527
zhong 259456
jian@@ 259453
raise 259262
external 259183
28 259042
ch 258899
accordance 258873
can@@ 258768
particularly 258683
values 258592
bar@@ 258552
accounting 258507
wrote 258452
camera 258429
executive 258224
kid 257923
slow 257870
assembly 257741
border 257608
greatly 257459
ve@@ 257040
rates 256966
expect 256935
extremely 256293
towards 255878
receive 255792
improving 255695
laws 255277
gives 255271
she@@ 255139
benefits 255067
26 254820
di 254816
limit 254755
abroad 254529
holding 254399
details 254170
male 254037
football 253656
watching 253377
fly 253331
southern 253081
moon 252759
february 252644
track 252501
export 252470
shu@@ 252096
weak 251972
pl@@ 251963
stopped 251802
allowed 251730
seat 251680
et 251648
ite 251285
pa@@ 251184
thin 250967
match 250708
hole 250600
zhi 250100
ator 249946
kept 249774
fiber 249640
pharmacy 249523
reference 249522
reality 249416
benefit 249286
discuss 249157
yong@@ 248958
han@@ 248904
hundred 248788
wa@@ 248730
resolution 248714
jian 248570
sale 248400
ans 247998
xia 247944
machinery 247747
rescue 247721
fe@@ 247681
500 247519
jack 247407
kitchen 247387
firm 247334
investigate 247263
logistics 247198
tion@@ 247134
sichuan 247123
noise 247098
bear 246671
battle 246220
el 246096
industries 246075
obvious 245921
divided 245678
trial 245505
obviously 245390
ten@@ 245345
27 245311
der 245272
highly 245267
shown 245236
leaves 245182
recovery 244746
shui 244656
aspects 244576
catch 244462
gang 244231
ci@@ 244161
connection 244115
democratic 243708
shang@@ 243664
confidence 243609
90 243518
sweet 243455
arrived 243386
painting 243380
70 243348
significantly 243327
thes@@ 243292
reduction 243136
expressed 243095
opportunities 242925
kindergarten 242698
resource 242612
snow 242521
families 242356
error 242257
grade 241905
pre 241896
except 241875
micro 241781
exhibition 241652
jobs 241571
speaking 241537
ates 241519
~ 241296
justice 241126
events 241059
nation 240928
mechanical 240911
changing 240721
yin 240642
yue 240504
wholesale 240180
widely 239732
telling 239646
requires 239637
followed 239613
surgery 239522
handle 239081
perspective 238935
pacific 238795
dangerous 238638
injury 238626
feng@@ 238571
actively 238541
furniture 238534
division 238221
zi@@ 237677
diseases 237368
correct 237251
worried 237200
seeing 237169
partner 236863
command 236767
trees 236423
ecological 235814
indeed 235746
click 235266
achieved 235093
gene 235037
san 234813
controlled 234570
treated 234523
tools 234346
ju@@ 234340
promoting 234253
stuff 234213
ber@@ 234018
measure 233985
fighting 233675
wearing 233524
indian 233495
everybody 233301
ocean 233079
ren 233006
regions 232937
residents 232477
campus 232405
rare 232382
alcohol 232347
mail 232261
species 232238
all@@ 232234
dynasty 232218
laser 232102
printing 231795
trump 231763
appropriate 231666
qi@@ 231337
tes 231321
successfully 231285
ning 231281
zhao 231144
qiao 231091
documents 230440
forms 230429
calls 230380
ir@@ 230115
silver 230037
her@@ 229637
poly@@ 229444
si 229264
poverty 229246
disaster 229183
whose 229084
agreed 228924
lived 228878
non@@ 228799
18@@ 228614
reporters 228535
bright 228434
appearance 228433
belt 228170
delivery 227861
jun@@ 227817
theme 227668
basically 227635
anti@@ 227630
career 227494
explore 227330
ons 227055
electrical 227019
cheng@@ 226853
republic 226852
scientists 226720
guangdong 226568
determine 226549
lady 226353
actions 226119
household 226077
circuit 225963
attitude 225935
components 225823
ian 225625
becoming 225553
washington 225442
wealth 225383
mrs 225348
that@@ 225262
soul 224851
tech 224805
2008 224758
statistics 224667
19@@ 224576
ly@@ 224053
regular 223989
flower 223809
northern 223573
agree 223531
employment 223490
feelings 223288
soldiers 223162
ying@@ 223033
eu 222918
satellite 222868
freedom 222445
player 222411
strange 222186
talks 222057
appear 222019
birth 221971
described 221960
ll 221956
ism 221860
confirmed 221662
happiness 221556
holiday 221491
agriculture 221122
representative 221022
officer 220882
officially 220878
guang@@ 220783
tive 220730
excuse 220656
du 220635
realized 220622
yun@@ 220576
australia 220128
devices 219979
causes 219894
pictures 219617
ceremony 219587
presented 219515
tourists 219441
apartment 219406
slowly 219319
windows 219099
ii 219026
cu@@ 219024
inner 219000
har@@ 218856
hate 218834
mal@@ 218821
sitting 218722
boys 218657
selected 218567
researchers 218239
link 218190
cent 217970
serve 217837
grain 217699
huh 217651
asking 217612
discipline 217574
zheng 217544
optical 217397
governments 217218
horse 217211
circle 217171
liang 216764
cl@@ 216657
anyway 216591
challenge 216439
atmosphere 216392
advance 215881
upper 215786
fa@@ 215777
dollar 215754
climate 215602
caught 215578
zhen 215365
guarantee 215328
audience 215297
tong 215229
literature 214896
cor@@ 214485
wei@@ 214483
items 214342
cutting 214214
prison 214133
enemy 214006
salt 213940
finished 213903
owner 213875
miles 213871
tong@@ 213716
document 213683
expert 213575
therapy 213521
"@@ 213494
mixed 213473
modeling 213348
introduction 213060
ya@@ 213057
facilities 213046
pure 212919
2013 212751
band 212656
enhance 212325
forced 212319
ob@@ 212092
gift 212017
concern 211788
carefully 211556
request 211522
fucking 211337
passenger 211313
walking 211313
com@@ 211181
qin 211111
stars 211092
drinking 211070
ao 210999
loan 210907
pi@@ 210825
arms 210743
sets 210598
under@@ 210188
eastern 210157
if@@ 210112
ka@@ 210076
fans 210064
ig@@ 209831
olympic 209805
assistance 209760
museum 209740
facing 209719
chapter 209637
cards 209537
setting 209404
angle 209383
quan 209358
sc@@ 209300
vision 209028
earthquake 208895
magnetic 208750
edge 208723
promise 208696
differences 208655
interface 208588
sheng@@ 208405
reasonable 208399
corporate 208397
ha 208302
maximum 208241
chi 208232
q 208231
tr@@ 208199
soup 208191
pull 208151
judge 208147
length 208138
advertising 208063
300 208031
shan@@ 207976
supposed 207952
ent@@ 207853
uk 207685
duty 207679
honey 207575
title 207548
tom 207517
2017 207487
dimensional 207321
definitely 207318
entrance 207318
impossible 207283
thermal 207235
covered 207179
included 206767
scope 206749
adjustment 206605
sounds 206541
stores 206486
recognition 206312
remote 206164
careful 206135
understood 206005
beyond 205941
sub 205872
hopes 205842
ist 205761
fi@@ 205728
feature 205678
mining 205581
sick 205530
shut 205338
compensation 205261
tour 205211
gotta 205152
buildings 205054
steps 205034
walked 205033
wanna 204922
citizens 204880
worse 204860
respectively 204851
anymore 204751
expand 204548
depth 204388
sugar 204247
expansion 204241
certainly 204233
initial 204116
aid 204011
ye@@ 203991
flat 203957
pan@@ 203896
assessment 203858
adopted 203855
cooperative 203744
beef 203596
che@@ 203580
quick 203529
retail 203486
il 203477
introduces 203422
principles 203404
ta 203388
saving 203386
multi@@ 203385
flying 203348
technologies 203346
seemed 203235
jiang@@ 203211
scheme 203203
leadership 203096
unless 203056
tin 203015
concentration 202794
newspaper 202760
smile 202760
americans 202602
favorite 202561
numbers 202493
arm 202491
talked 202427
huang@@ 202378
ings 202351
villagers 202300
federal 202276
35 202270
missing 202228
decline 201931
hua@@ 201926
treat 201768
friendly 201629
filled 201525
tired 201499
nor 201349
angry 201323
fishing 201275
records 201274
slightly 201075
phones 201041
revealed 201038
ju 201018
wild 201003
super@@ 200805
client 200751
wonderful 200654
secondary 200579
budget 200522
1@@ 200447
helped 200347
shang 200341
sector 200164
contains 200045
2012 200022
29 199891
plus 199707
stupid 199614
regard 199604
failed 199528
christmas 199195
tianjin 199066
tests 198998
mor@@ 198887
et@@ 198823
loved 198817
entertainment 198712
2018 198629
ally 198555
farmers 198512
severe 198395
pot 198379
mountains 198332
church 198327
finish 198260
sort 198203
names 198141
0 198118
hundreds 197963
.@@ 197915
sand 197906
peak 197895
houses 197752
kilometers 197690
ore 197623
rising 197456
bin 197415
men@@ 197315
bird 197296
cake 196814
com 196793
ness 196593
placed 196531
cat 196517
associated 196438
optimization 196415
mutual 196338
push 196280
thinks 196258
zhejiang 196144
begin 196036
critical 195993
convenient 195987
financing 195903
becomes 195792
implemented 195699
ded 195665
likes 195642
j 195602
expensive 195595
component 195540
plaza 195506
organic 195478
liver 195153
stocks 194907
characters 194831
officers 194831
theoretical 194753
warning 194735
alive 194650
passengers 194506
captain 194468
ked 194407
remain 194403
tube 194370
race 194323
sources 194266
universities 194073
armed 194057
calling 193998
ties 193795
brown 193754
conduct 193444
frame 193136
equipped 193107
david 193070
beat 193038
familiar 192941
comparison 192813
cleaning 192499
photos 192485
os 192458
missile 192411
xinhua 192404
sal@@ 192344
elderly 192208
don@@ 192184
views 192182
rats 192163
guan 191948
despite 191820
mental 191792
grand 191688
islands 191570
ze 191568
corner 191383
pool 191351
zero 191346
pipe 191324
:@@ 191307
occurred 191135
phenomenon 191128
lunch 191081
nanjing 190906
meter 190778
throughout 190764
discovered 190616
technological 190337
ban 190229
31 190204
eventually 190121
giant 190111
introduce 190100
raw 189769
connected 189723
injection 189550
cycle 189512
quiet 189505
visual 189428
ste@@ 189410
instrument 189364
characteristic 189363
structural 189324
birthday 188999
ty 188798
corresponding 188796
risks 188671
observation 188627
calm 188435
ka 188392
israel 188330
hangzhou 188151
google 188063
campaign 187975
allows 187890
faster 187596
happens 187542
smooth 187541
conducted 187275
empty 187237
shit 187086
br@@ 187050
spending 186857
identification 186772
2010 186737
fee 186662
rent 186650
heating 186547
providing 186501
approval 186366
host 186364
ology 186202
regulation 186131
prove 185997
ker 185985
communications 185914
palace 185831
root 185827
toilet 185763
virtual 185692
select 185650
fl@@ 185649
ray 185581
imagine 185446
column 185409
authority 185289
closely 184960
chuan 184887
causing 184824
ping@@ 184807
paris 184776
summit 184772
electricity 184682
remains 184485
mm 184480
believed 184432
bei 184377
approved 184220
otherwise 184190
increasingly 183952
somebody 183952
files 183859
copy 183832
feed 183720
infrastructure 183656
gap 183647
temple 183611
breakfast 183496
procedures 183490
sharing 183479
academic 183462
fill 183299
cai 183267
wechat 183250
twice 183050
buying 183036
entry 182949
shoot 182871
yin@@ 182795
ph@@ 182742
rental 182615
useful 182491
su 182415
sin@@ 182321
aged 182314
stood 182211
killing 182139
obtain 181926
ding@@ 181798
teach 181795
guidance 181750
tion 181740
mall 181613
additional 181607
conflict 181589
cable 181485
league 181457
iran 181369
techniques 181313
transaction 181270
ty@@ 181138
advice 181130
pump 181090
brands 181008
difficulties 180951
talent 180907
infection 180784
iz@@ 180758
ion 180743
smoke 180679
aren 180659
autonomous 180647
guo@@ 180616
carrying 180529
fuck 180518
tic@@ 180427
toward 180423
nobody 180360
'clock 180312
comfortable 179973
what@@ 179910
they@@ 179861
savings 179733
vote 179728
ent 179621
tissue 179570
ters 179429
prepare 179386
plays 179347
ie 179276
strait 179241
acute 179175
eng 179127
topic 178986
underground 178789
forum 178510
invited 178453
strengthening 178426
est 178360
chengdu 178316
murder 178238
seek 178235
creation 178223
african 178131
require 178071
genetic 178053
ant@@ 178042
pair 178038
package 177963
lan@@ 177875
hai@@ 177712
0@@ 177648
den@@ 177428
ass 177352
bai@@ 177337
certificate 177317
draw 177317
bearing 177227
friday 177134
academy 177099
studying 177037
shandong 176987
lawyer 176963
la 176879
keeping 176813
but@@ 176641
threat 176558
thoughts 176379
corporation 176338
yao 176297
bathroom 176252
complicated 176213
sta@@ 176080
solar 176048
troops 175916
mid 175803
planned 175741
novel 175729
filter 175723
zhang@@ 175554
efficient 175552
import 175388
britain 175217
meal 175216
rapidly 175171
remove 175151
sad 175078
goals 175040
england 175003
mr. 174999
kang 174787
monday 174677
mistake 174675
jiangsu 174661
gu 174619
currency 174473
effort 174469
battery 174429
arrested 174163
equal 174109
larger 173933
experienced 173750
studio 173738
bai 173717
jointly 173540
signs 173503
session 173501
mary 173467
identity 173350
um@@ 173340
bao@@ 173314
enforcement 173268
res@@ 173262
award 173233
gi@@ 173225
guests 173150
procedure 173133
injured 173119
deeply 173090
netizens 172889
sensitive 172886
typical 172856
na 172779
perform 172776
images 172664
bl@@ 172658
solutions 172610
sun@@ 172605
lucky 172512
lies 172419
gh@@ 172399
2009 172284
carrier 172138
marine 172016
revenue 171977
partners 171957
creating 171956
jesus 171880
wh@@ 171827
lock 171694
tower 171664
copper 171598
wonn 171481
wing 171438
ill 171437
fifth 171405
ver 171390
1,@@ 171343
rmb 171328
tan 171287
accounts 171250
programs 171127
objects 171095
precision 171022
pu 171010
camp 170988
guard 170858
wheel 170829
bra@@ 170801
der@@ 170731
pan 170730
detail 170678
extra 170641
ages 170631
corruption 170534
voltage 170529
pieces 170396
pr@@ 170283
combat 170277
helping 170266
linear 170085
synthesis 170082
af@@ 170072
ao@@ 169973
qu 169572
zh@@ 169558
density 169541
forming 169535
up@@ 169512
provisions 169323
tank 169258
proportion 169208
yield 169059
hat 168982
grid 168855
outstanding 168786
doubt 168592
dragon 168410
vegetables 168332
guang 168324
brothers 168261
ization 168252
recommended 168230
postal 168113
previously 168112
ling@@ 168056
drugstore 167951
hui@@ 167846
trans@@ 167843
welfare 167779
centre 167746
composite 167640
liquor 167633
visited 167558
agencies 167453
weekend 167388
autumn 167349
listening 167333
tons 167278
radiation 167266
supported 167218
doctors 167118
challenges 167098
back@@ 167089
decide 167028
luck 166988
highway 166976
arts 166973
ong@@ 166955
wire 166928
induced 166851
manner 166783
throw 166751
escape 166717
loans 166665
res 166576
ment 166544
sen@@ 166514
fa 166365
ins 166319
fo@@ 166306
exit 166305
none 166280
sustainable 166238
tumor 166228
mei@@ 166226
1.@@ 166204
mao 166180
mc@@ 166155
exploration 166136
evil 166124
reducing 166094
falling 165980
funny 165975
beam 165971
valve 165909
pin@@ 165827
danger 165815
gain 165783
dreams 165754
height 165718
manufacturers 165676
sharp 165669
input 165638
hao@@ 165627
ley 165601
communist 165368
orders 165305
bigger 165203
nan 165199
glad 165183
chen@@ 165171
cal@@ 165162
sunday 165127
shooting 165117
stick 165072
continues 165064
flagship 165023
wash 165011
motion 165008
bei@@ 164972
route 164923
ity 164901
ideal 164848
des@@ 164806
del@@ 164512
domain 164436
dust 164412
reserve 164382
customs 164318
shared 164315
liu@@ 164227
45 164226
row 164191
advertisement 164150
forever 163962
wonder 163819
lying 163794
zhen@@ 163766
queen 163593
fit 163517
hidden 163475
jinping 163197
shen@@ 163177
victim 163177
creative 163173
suspected 163163
qian@@ 162947
millions 162915
investigated 162835
ies 162818
neck 162784
2011 162688
opposition 162568
accepted 162522
sample 162518
representatives 162311
dear 162296
hearing 162247
pilot 162232
bodies 162129
turning 162100
oc@@ 161966
xuan 161916
crystal 161890
sexual 161806
license 161776
classes 161689
alloy 161585
abe 161582
zhu@@ 161538
gear 161496
sat 161395
feels 161234
politics 161188
supporting 161094
programme 161015
easier 161000
bur@@ 160980
amazing 160851
educational 160766
ended 160748
organized 160704
composition 160655
showing 160586
* 160462
canada 160432
col@@ 160407
interaction 160397
california 160305
oxygen 160292
farm 160177
explained 160097
paying 160081
attacks 159974
draft 159815
suit 159659
sha@@ 159558
achievements 159463
tickets 159457
aviation 159451
majority 159386
ized 159382
sto@@ 159312
teeth 159288
smoking 159249
biological 159218
gr@@ 159093
sts 159067
2007 159002
dogs 158965
channels 158951
seconds 158945
served 158660
ser@@ 158499
exist 158412
accurate 158394
heaven 158348
honor 158280
sentence 158268
xu@@ 158248
michael 158246
pen@@ 158161
victory 158160
ard 158110
everywhere 158037
ships 157763
chip 157762
lights 157749
sch@@ 157726
exposed 157597
compound 157447
rec@@ 157346
beach 157221
separate 157138
victims 157083
lao@@ 157022
grass 156900
revolution 156897
robot 156870
relative 156867
chi@@ 156847
preliminary 156813
asset 156771
zheng@@ 156765
shock 156750
truly 156662
deposit 156633
luxury 156614
depends 156555
organs 156550
terrible 156422
increases 156411
fei 156388
emerging 156336
aluminum 156276
configuration 156254
magic 156191
telephone 156191
analyze 156144
architecture 156141
false 156101
lan 156039
equity 155986
independence 155939
tra@@ 155917
tasks 155864
turns 155736
proof 155714
heads 155547
friendship 155509
iraq 155463
bottle 155404
uncle 155392
ves 155386
existence 155374
ful 155265
ride 155224
psychological 155049
constantly 154987
possibility 154942
dna 154752
yunnan 154566
modified 154510
are@@ 154431
bs 154421
kang@@ 154344
entering 154321
exchanges 154232
moral 154229
smaller 154219
baidu 154152
acquisition 154139
shen 154091
2000 153992
essential 153957
relief 153919
by@@ 153895
joy 153840
pin 153744
kou 153710
qian 153658
sino 153640
yo 153622
tao 153530
bond 153489
static 153434
unable 153389
foods 153326
accuracy 153274
journey 153264
salary 153208
bike 153101
opinions 153043
birds 153006
joined 153002
networks 152949
strict 152656
stated 152614
xia@@ 152597
count 152570
ase 152515
stories 152480
og@@ 152409
wuhan 152396
les 152392
constant 152305
cast 152277
manage 152227
proud 152199
surprised 152176
gra@@ 152053
equivalent 152052
competitive 151978
committed 151959
translation 151856
numerical 151802
rooms 151717
oriented 151698
suspect 151688
businesses 151666
ben@@ 151642
coast 151545
switch 151510
tie 151421
photography 151413
ky 151412
older 151408
score 151374
400 151363
framework 151348
ble 151345
ordered 151328
surprise 151317
girlfriend 151298
recognized 151232
storm 151193
seed 151155
tis 151123
was@@ 151061
au@@ 151027
ation@@ 151007
tur@@ 150997
item 150864
tang@@ 150820
mat@@ 150773
32 150685
cadres 150618
tor@@ 150604
jo@@ 150586
functional 150547
samsung 150303
twenty 150279
singapore 150244
counter 150136
humans 150094
tw@@ 150071
broadcast 150011
registered 149929
yours 149906
peng 149859
fluid 149618
finding 149601
dare 149595
thick 149513
mer@@ 149511
talents 149370
xian@@ 149349
ku@@ 149315
contents 149266
paint 149218
supplies 149211
matrix 149185
considering 149061
george 149056
degrees 149013
ish 148967
cotton 148918
sa 148874
ther@@ 148841
besides 148835
ina 148757
gao 148744
spoke 148673
cy@@ 148661
valuable 148625
eggs 148596
ki@@ 148550
participated 148510
containing 148481
lay 148428
initiative 148309
faces 148273
acting 148166
jiao 148150
ws 148126
button 148114
terminal 148073
valley 148045
ton@@ 147983
losses 147866
sites 147820
sam 147818
ol 147754
hospitals 147735
teams 147718
sk@@ 147604
promoted 147475
helps 147306
beer 147139
with@@ 147096
losing 147060
magazine 146994
damn 146957
breaking 146912
evolution 146847
weapon 146817
persons 146735
blind 146704
cry 146534
begun 146502
fin@@ 146418
peter 146418
textile 146272
dish 146259
closer 146249
bel@@ 146230
po 146209
dropped 146155
stronger 146148
wake 146071
driven 146063
ne 146063
rely 145984
knife 145935
heng@@ 145900
saved 145861
ir 145818
suggested 145811
ay 145520
mostly 145471
proposal 145307
then@@ 145288
via 145282
planet 145278
mu 145242
hide 145233
ot 145173
tested 145166
tro@@ 145085
neither 145059
structures 144998
ality 144753
ance 144739
identify 144725
os@@ 144708
sized 144658
navy 144622
ars 144612
bush 144503
distributed 144497
drawing 144493
claim 144367
innovative 144366
replace 144359
extraction 144319
min 144317
naturally 144212
sensor 144205
truck 144200
banking 144122
telecom 144103
jump 144058
syndrome 143978
ben 143927
minimum 143927
smell 143925
candidates 143846
prince 143846
specified 143750
cr@@ 143721
alliance 143709
fed 143572
personality 143551
packaging 143531
fundamental 143465
detailed 143386
shouldn 143299
adding 143264
extent 143212
microsoft 143176
absolutely 142906
dialogue 142811
hebei 142656
chun@@ 142640
variable 142615
priority 142609
cre@@ 142552
bu 142532
grew 142460
promised 142454
matters 142444
wi@@ 142404
thec@@ 142385
nose 142326
violence 142313
winning 142308
shift 142204
shell 142161
reflect 142132
handling 142104
cur@@ 142053
waves 142006
performed 141928
huawei 141916
legs 141833
delay 141811
symptoms 141782
repeatedly 141774
emperor 141569
sight 141538
pregnant 141461
greatest 141458
cream 141412
hel@@ 141367
ff@@ 141324
laboratory 141315
ler 141311
ct 141303
negotiations 141255
leg 141252
glasses 141079
permanent 140935
measuring 140859
honest 140757
assistant 140741
appears 140734
landscape 140696
hotpot 140685
comfort 140678
desire 140671
tears 140671
automatically 140667
streets 140664
guan@@ 140639
lian 140638
rubber 140602
wa 140581
wisdom 140579
silk 140559
ations 140413
gen@@ 140280
proved 140275
maternal 140241
any@@ 140066
residential 139856
fujian 139634
contain 139628
observe 139620
infant 139598
kingdom 139468
ceramic 139434
ors 139409
air@@ 139404
roll 139390
regulatory 139362
parameter 139343
shaped 139340
aging 139296
sis 139285
recognize 139227
positions 139200
judgment 139150
dual 139122
individuals 139107
movies 138996
herself 138923
hydro@@ 138888
blow 138887
ence 138797
vertical 138762
dao 138751
discount 138706
shu 138659
massage 138536
struggle 138502
flexible 138461
bio@@ 138455
measured 138378
dr@@ 138356
ca 138300
concerns 138293
sol@@ 138293
vibration 138287
diet 138276
circumstances 138263
puts 138255
pm 138236
computers 138156
fired 138143
facts 138102
leather 137895
religious 137883
app 137864
worst 137850
mo 137847
moreover 137822
faith 137733
yong 137724
attracted 137637
classic 137603
scared 137597
dan 137567
grown 137559
contrast 137540
2005 137514
tai@@ 137514
mention 137451
tuesday 137444
emotional 137414
lee 137413
broad 137369
tough 137340
pulled 137305
excited 137281
samples 137272
suggest 137259
chronic 137224
royal 137205
prize 137168
bay 137146
ford 137121
pig 137118
estimated 137024
songs 136850
formula 136780
brings 136710
rid 136654
encourage 136622
focused 136584
ary 136475
2006 136449
fang@@ 136253
presidential 136221
layout 136212
sword 136210
letters 136188
burn 136007
putting 135887
machines 135802
zhou@@ 135750
wet 135744
mike 135741
pile 135730
profile 135723
faced 135658
writer 135564
newly 135404
context 135389
wheat 135294
diplomatic 135280
films 135234
drama 135183
bath 135141
aware 135131
bi 135125
stations 135097
fees 134865
swimming 134832
tan@@ 134824
processes 134730
engaged 134729
separation 134716
guest 134568
mi 134515
how@@ 134449
visitors 134421
dec@@ 134363
defined 134361
strictly 134337
luo 134323
hurry 134287
hydraulic 134262
wireless 134223
saturday 134173
invest 134172
equation 134170
conversation 134067
meant 134052
barbecue 133847
chun 133600
mistakes 133576
cha@@ 133574
notes 133517
ce 133491
molecular 133443
vocational 133403
liang@@ 133346
sunshine 133330
panel 133328
economics 133273
temporary 133220
pen 133165
australian 133154
airlines 132985
desk 132956
reputation 132859
computing 132847
receiving 132774
one@@ 132766
editor 132762
reliable 132695
muscle 132627
experiments 132622
ate@@ 132616
attended 132595
analysts 132566
decisions 132529
destroyed 132488
shirt 132351
paul 132269
tokyo 132145
evaluate 132094
transition 132043
$@@ 131992
participation 131979
ash 131940
ven@@ 131925
spiritual 131907
raising 131896
monitor 131794
colleges 131792
lung 131754
reservoir 131748
owners 131721
cheap 131718
nursing 131604
lt 131589
electronics 131583
originally 131521
essence 131514
adult 131491
transferred 131482
journal 131444
apart 131440
articles 131407
hou@@ 131366
installation 131357
qiang 131357
coat 131333
fuzzy 131333
ry 131259
boyfriend 131248
sm@@ 131202
tight 131163
membrane 131122
pal@@ 131067
expectations 131024
hairdressing 131001
tall 130980
bread 130928
northeast 130913
there@@ 130883
bal@@ 130854
dy 130817
exam 130795
vast 130788
whom 130669
after@@ 130663
ys 130548
sheet 130525
tire 130436
nervous 130390
civilization 130336
gar@@ 130274
des 130235
agents 130225
option 130170
fake 130144
spicy 130144
roof 130130
peaceful 130126
rushed 130119
tor 130077
bro@@ 130063
picked 129937
bacteria 129929
bet 129910
explosion 129897
italy 129867
dy@@ 129805
marry 129784
discusses 129741
ped 129716
fruits 129559
tunnel 129533
opposite 129509
anniversary 129505
rail 129465
ze@@ 129447
rolling 129386
pri@@ 129378
curve 129359
attend 129343
pe 129319
adjust 129283
fitness 129277
relax 129266
chair 129262
philosophy 129244
xinjiang 129239
appreciate 129191
collect 129156
mood 129148
sl@@ 129129
av@@ 129089
hy@@ 128958
classification 128935
burning 128924
uc@@ 128917
lao 128858
's@@ 128844
mirror 128833
ceo 128811
doors 128806
fallen 128786
settlement 128748
chest 128706
hor@@ 128680
mouse 128659
ner 128654
headquarters 128653
definition 128617
till 128614
0.@@ 128572
options 128534
james 128520
governance 128514
onto 128498
eng@@ 128495
kai 128480
coordination 128362
extreme 128353
refused 128307
sed 128238
mayor 128228
oo@@ 128161
difficulty 128143
semi 128109
lei 128035
noticed 127923
mil@@ 127916
ban@@ 127838
stomach 127824
ine@@ 127744
tal@@ 127669
solved 127659
crimes 127578
stressed 127535
correlation 127518
em 127496
offers 127494
sin 127417
figures 127331
respond 127320
profits 127239
waters 127223
masses 127117
suffered 127116
coach 127091
hearts 126976
cultivation 126845
strike 126786
expenses 126731
decade 126704
washing 126704
surrounding 126678
ourselves 126672
clo@@ 126591
chose 126566
izing 126558
val@@ 126538
pet 126517
anger 126468
lian@@ 126459
bas@@ 126435
killer 126314
ts@@ 126278
tics 126244
din@@ 126183
ls 126062
ear 126029
ac 126028
ched 126024
when@@ 125998
convention 125985
powers 125943
observed 125938
tourist 125908
attract 125902
schedule 125893
follows 125880
sleeping 125861
cooperate 125853
description 125779
missed 125772
describe 125694
egg 125650
judicial 125385
ethnic 125281
welding 125183
monthly 125127
provinces 125117
steam 125110
clock 125075
bound 124850
decades 124805
managed 124804
tone 124788
usual 124705
represents 124700
mice 124633
fracture 124618
cun 124555
ators 124536
cook 124534
punishment 124492
gong 124442
36 124422
shadow 124414
tells 124403
your@@ 124402
charging 124361
our@@ 124334
territory 124324
scenic 124238
finite 124204
anywhere 124089
survival 124041
kim 124038
destroy 124010
somewhere 123987
connect 123950
homes 123914
calculated 123894
cap@@ 123864
loves 123858
sudden 123752
che 123734
parallel 123665
taxi 123664
may@@ 123638
iphone 123606
extended 123502
locked 123323
appliances 123302
ching 123300
employee 123300
ko@@ 123280
seeking 123261
navigation 123256
electrics 123255
capabilities 123201
sequence 123178
acts 123124
48 123062
interpretation 123029
attempt 122942
trace 122909
shuang@@ 122870
messages 122852
electro@@ 122818
tail 122818
comment 122707
bol@@ 122672
harm 122660
vo@@ 122615
rat 122601
tre@@ 122579
producing 122576
cloth 122563
pulse 122486
intensity 122426
custom 122313
exciting 122311
ned 122165
resident 122143
utilization 122097
taught 122080
appointed 121926
# 121910
string 121905
laid 121895
claims 121884
dispute 121858
plasma 121796
thursday 121791
formal 121762
offered 121757
countermeasures 121747
son@@ 121703
wow 121681
removed 121666
sur@@ 121621
ali 121618
jiu@@ 121614
mexico 121598
internship 121562
intellectual 121386
instance 121356
consulting 121344
roads 121255
wednesday 121201
singing 121176
flood 121121
venture 121081
operate 121072
ical 121051
crack 121007
alarm 120957
crude 120907
continuously 120901
ok@@ 120861
‘ 120790
bomb 120731
17@@ 120670
percentage 120645
ach@@ 120635
handed 120619
refers 120571
runs 120524
leaf 120522
ously 120517
mature 120515
ra 120509
controlling 120470
nerve 120441
qingdao 120411
courses 120406
work@@ 120394
charges 120330
proper 120306
monetary 120246
hill 120190
gou 120148
nearby 120130
announcement 120129
reliability 120099
batch 120078
delivered 119972
bonds 119901
delicious 119888
bringing 119876
colors 119872
bri@@ 119868
laugh 119807
cement 119800
radar 119782
cra@@ 119770
solving 119669
narrow 119661
crowd 119589
shun@@ 119556
not@@ 119534
stream 119500
circulation 119431
depression 119388
inflation 119368
suffering 119349
fer@@ 119288
basin 119277
passing 119233
fiscal 119192
module 119181
oral 119152
leads 118983
landing 118877
logic 118870
bin@@ 118865
origin 118819
exports 118813
universe 118813
hoping 118807
spokesman 118803
consistent 118698
ns 118633
principal 118496
younger 118460
reconstruction 118455
italian 118438
analyzes 118308
installed 118306
pakistan 118260
juice 118224
pc 118153
collected 118116
anhui 118066
tencent 118040
candidate 118000
parent 117989
nonlinear 117888
33 117839
decreased 117833
strategies 117735
quantity 117732
colleagues 117672
accused 117630
pleasure 117619
linked 117550
coating 117542
breath 117508
contribution 117481
relatives 117424
preparing 117417
burden 117404
chao 117371
ill@@ 117353
sil@@ 117335
unfortunately 117293
managers 117281
random 117170
properly 117160
institution 117140
supports 117135
imaging 117129
southeast 117105
cul@@ 117101
exclusive 117061
referred 117048
heng 117044
ize 116927
debate 116856
ants 116835
leisure 116755
patterns 116730
brief 116726
zu 116706
aim 116670
boutique 116657
ative 116624
belongs 116540
comments 116469
bang 116443
cas@@ 116410
water@@ 116388
ng 116254
democracy 116227
controller 116203
sen 116201
occur 116147
str@@ 115987
watched 115968
drunk 115962
suzhou 115866
xie 115847
arranged 115794
boundary 115782
pharmaceutical 115699
optimal 115672
affecting 115636
mad 115631
sufficient 115615
ie@@ 115601
directors 115547
gao@@ 115519
socialist 115514
inch 115513
ki 115497
attacked 115459
links 115455
awareness 115435
hunan 115369
strain 115345
ics 115338
disk 115337
developers 115329
constitution 115295
identified 115218
interior 115176
communicate 115165
win@@ 115139
lots 115111
mag@@ 115062
tracking 115050
presence 114942
fix 114860
terrorist 114825
listing 114795
cabinet 114732
ti 114722
uniform 114649
chamber 114644
adopt 114526
10,000 114500
effectiveness 114486
damaged 114480
recorded 114479
hybrid 114416
resulting 114410
breast 114391
relation 114364
top@@ 114361
blame 114293
examples 114285
kiss 114244
starts 114121
prefer 114038
walls 114008
lai 113990
hal@@ 113971
finger 113938
sciences 113916
attached 113890
bilateral 113876
bye 113863
hero 113845
imported 113797
ruling 113755
elected 113719
ft 113716
knowing 113674
controls 113541
cooking 113482
absorption 113459
meng@@ 113440
war@@ 113341
ends 113207
dan@@ 113117
75 113092
founded 112957
returns 112947
serum 112842
unified 112825
2,@@ 112799
cooling 112759
relationships 112617
folk 112616
bags 112606
consensus 112599
compilation 112591
ghe 112582
gray 112582
cha 112490
coefficient 112490
cooked 112310
smith 112304
replaced 112251
founder 112221
participants 112134
basketball 112124
vegetable 112092
weird 112083
fraud 112053
silicon 112039
ful@@ 111952
commander 111947
frequently 111920
conversion 111868
operators 111858
programming 111851
600 111758
totally 111753
olympics 111698
ise 111619
classroom 111599
extension 111596
2004 111560
shareholders 111518
governor 111477
regarded 111474
consciousness 111466
suggestions 111414
hon@@ 111391
anybody 111345
commodity 111319
appointment 111275
chu@@ 111242
pace 111207
marks 111189
jet 111127
exceeded 111113
song@@ 111102
stem 111039
alized 110972
admit 110971
witness 110729
universal 110659
flag 110623
fortune 110591
ink 110490
his@@ 110456
16@@ 110449
satisfied 110442
enthusiasm 110439
prediction 110439
answered 110438
tin@@ 110411
transactions 110410
dealing 110400
urgent 110380
literary 110324
lift 110274
poetry 110268
exposure 110248
favor 110247
tape 110217
1994 110170
delegation 110108
print 110084
bor@@ 110073
reflects 110065
vietnam 110038
mid@@ 110037
reflected 109959
upgrade 109912
returning 109842
chemistry 109837
shun 109821
crew 109804
federation 109693
operational 109682
unknown 109674
default 109667
ple@@ 109664
ware 109643
。 109586
ud@@ 109572
iling 109561
platforms 109559
reverse 109529
hol@@ 109471
sodium 109452
manual 109380
hyper@@ 109354
reporting 109352
afford 109331
array 109305
ders 109301
soviet 109300
frank 109235
photo@@ 109167
qiu 109161
chin@@ 109119
eliminate 109071
arrest 109068
pounds 109063
henan 109013
sof@@ 108973
turkey 108943
requirement 108925
invested 108922
shoulder 108898
indicate 108860
transform 108853
joke 108841
happening 108838
appeal 108807
mineral 108805
meanwhile 108770
rear 108680
actor 108654
wal@@ 108653
impression 108652
rational 108644
fore@@ 108623
vacation 108532
harry 108528
holy 108515
ili@@ 108484
timely 108484
gs 108470
just@@ 108458
dying 108437
particles 108403
star@@ 108402
zhai 108391
los 108373
regarding 108331
salon 108212
submitted 108210
ni 108160
patent 108139
lesson 108138
spectrum 108137
syrian 108106
dirty 108082
attractive 108077
contemporary 107995
reforms 107947
philippines 107938
seal 107934
targets 107928
consideration 107918
decrease 107887
courage 107828
seats 107774
survive 107770
kin 107767
meetings 107573
alization 107541
carcinoma 107526
hydrogen 107481
liked 107479
kin@@ 107464
post@@ 107436
protective 107389
guangxi 107378
format 107310
orange 107271
email 107240
tens 107230
1990 107216
will@@ 107179
deformation 107131
has@@ 107116
steady 107084
bones 107081
sending 107060
checked 107033
jane 107022
cute 107020
va 106965
symbol 106959
lam@@ 106935
reviewed 106912
weibo 106905
ain 106902
presents 106827
sheep 106791
marked 106778
log 106730
compare 106720
worker 106712
habits 106706
fail 106688
wise 106624
taxation 106591
forgot 106590
brazil 106563
tension 106538
differential 106515
ex 106463
visiting 106454
gathered 106367
hungry 106349
ladies 106323
38 106251
fate 106173
thesis 106107
maker 106075
neuro@@ 106074
generated 105931
2003 105915
hanging 105911
cerebral 105886
represent 105821
shanxi 105795
putin 105757
lane 105731
syria 105720
lab 105613
ther 105593
outer 105578
gro@@ 105537
thel@@ 105522
personally 105513
suffer 105469
disappeared 105404
pipeline 105404
dar@@ 105390
ning@@ 105345
calcium 105260
ham 105242
nitrogen 105073
ches 105021
category 105004
stayed 105003
collective 104922
focusing 104909
guizhou 104833
buried 104789
pt 104743
inf@@ 104732
pat@@ 104687
split 104680
remaining 104676
nie 104629
van 104591
fabric 104583
superior 104575
precious 104523
bing 104508
consultation 104457
arrive 104393
tibet 104373
corps 104322
800 104284
feedback 104278
belong 104238
strongly 104232
interference 104210
meng 104149
taxes 104138
admitted 104100
34 104099
operator 104086
ev@@ 104063
'nan 104056
papers 104055
henry 104053
tend 104022
15@@ 104021
tradition 104001
discharge 103979
languages 103971
guns 103938
furnace 103911
experiences 103905
derived 103903
mile 103868
rough 103854
particle 103815
audit 103788
ae 103718
labour 103718
qin@@ 103716
secure 103710
tom@@ 103672
consequences 103669
ey 103668
treasure 103654
alibaba 103609
tip 103598
protocol 103596
20@@ 103574
sho@@ 103473
bitch 103279
charged 103260
10@@ 103253
falls 103218
commitment 103202
kers 103127
ali@@ 103066
supreme 102980
dishes 102937
explanation 102926
ip 102919
gdp 102726
guilty 102677
native 102672
stuck 102665
joe 102601
jiu 102564
egypt 102486
excessive 102464
ash@@ 102461
ff 102428
neighborhood 102418
rong 102354
dressed 102337
ological 102336
down@@ 102323
sanctions 102308
demonstration 102296
curtain 102251
well@@ 102228
fr@@ 102214
covering 102211
55 102177
integrity 102175
realization 102175
neural 102130
squ@@ 102115
nt 102110
economies 101983
chong 101912
ber 101890
signals 101844
hubei 101792
junior 101786
floating 101742
new@@ 101715
ger@@ 101673
fever 101658
hum@@ 101604
disputes 101526
qualified 101461
duck 101458
xiaomi 101450
claimed 101438
collapse 101432
forecast 101379
1,000 101378
capable 101311
fierce 101306
drove 101258
pages 101244
pushed 101232
aids 101124
desert 100993
bid 100969
arrangement 100945
aunt 100894
sons 100875
suspension 100841
mess 100796
spatial 100760
resistant 100745
responded 100728
maintaining 100689
fool 100626
pa 100594
gang@@ 100571
skill 100546
scholars 100506
ep@@ 100500
audio 100489
pur@@ 100447
accidents 100417
resin 100368
gong@@ 100366
velocity 100324
staying 100293
shaanxi 100264
uni@@ 100238
microwave 100226
37 100201
ents 100066
composed 100047
fried 100001
artist 99990
tu 99947
violent 99894
king@@ 99883
sees 99854
childhood 99833
matching 99833
zhao@@ 99809
adults 99798
2.@@ 99793
separated 99793
frozen 99776
applying 99726
pursuit 99703
head@@ 99701
pregnancy 99677
sum 99664
holds 99632
gl@@ 99613
keeps 99608
ultra 99562
subway 99557
deliver 99553
treating 99541
thailand 99530
gre@@ 99499
lovely 99499
facebook 99480
intention 99457
concentrated 99417
declaration 99363
xue 99335
graduate 99332
illness 99317
spain 99299
drivers 99295
vacuum 99285
accelerate 99277
pro 99253
unlike 99194
expanded 99163
subjects 99136
sy 99125
praise 99108
expanding 99060
mathematical 98985
maritime 98969
instructions 98955
clients 98942
xiamen 98891
ably 98881
offering 98834
drinks 98764
warned 98746
grant 98661
update 98636
corn 98625
quantitative 98608
mix 98603
accompanied 98600
char@@ 98586
confident 98583
signing 98579
mas@@ 98562
organ 98544
hom@@ 98481
sti@@ 98421
deng 98419
ted@@ 98359
pork 98348
ultimate 98287
afghanistan 98283
summary 98265
replied 98238
criticism 98199
profound 98166
unity 98159
strive 98089
ann@@ 97923
describes 97828
merchants 97704
shipping 97635
enable 97587
ats 97582
petroleum 97567
harder 97533
dic@@ 97451
pp@@ 97447
run@@ 97421
cao 97400
reaching 97388
capability 97386
overcome 97313
singer 97282
i'm@@ 97272
glory 97271
ile 97263
mac@@ 97254
taiwanese 97152
atory 97082
scheduled 97058
removal 97048
ster@@ 97017
confirm 96975
rush 96935
inn 96925
snacks 96851
instruments 96821
partnership 96813
1993 96806
chosen 96749
terrorism 96699
99 96675
sha 96643
massive 96612
suicide 96609
residence 96552
horizontal 96483
bell 96467
flights 96448
physics 96386
sauce 96347
ss 96316
allowing 96244
150 96226
bon@@ 96179
km 96179
diamond 96175
protected 96137
contained 96136
flame 96055
optimistic 96047
surveillance 96046
ting@@ 96020
keys 96007
tiger 95980
grasp 95949
restrictions 95929
flash 95887
ess 95874
some@@ 95830
stolen 95808
dam 95724
ears 95715
centers 95713
stored 95644
mechanisms 95620
sw@@ 95604
corrosion 95601
prosperity 95584
pocket 95576
normally 95555
14@@ 95522
hoped 95516
seeds 95423
grab 95347
thy 95344
red@@ 95337
ade 95272
noted 95246
loose 95234
suggests 95233
conditioning 95188
touched 95171
ish@@ 95030
loading 94998
stroke 94982
categories 94927
adjusted 94918
forth 94885
lowest 94851
involving 94796
lighting 94796
yl 94739
node 94735
dean 94683
loop 94669
indicates 94630
remained 94624
ak@@ 94623
positioning 94620
aspect 94545
tional 94523
manufacturer 94437
vector 94416
dancing 94382
mate 94374
pop 94360
practices 94302
pol@@ 94289
sand@@ 94275
flavor 94273
ering 94265
responsibilities 94262
legislation 94252
graphic 94237
artery 94233
angel 94230
menu 94228
harmonious 94224
ines 94164
electron 94160
clouds 94154
bedroom 94134
genes 94113
breeding 94067
rocket 94039
eu@@ 94038
diesel 94025
stra@@ 93984
yard 93983
sor@@ 93965
ale 93952
spots 93902
cam@@ 93900
parliament 93864
immune 93861
dynamics 93856
informed 93852
latin 93851
greek 93843
00@@ 93794
tennis 93760
ically 93693
hotels 93651
alism 93644
indicated 93608
regardless 93603
pack 93595
prospects 93574
discovery 93572
township 93558
dc 93551
hasn 93551
5,000 93478
apparently 93472
iness 93353
argument 93339
conventional 93328
bre@@ 93322
participating 93320
enhanced 93315
hometown 93313
partial 93307
coverage 93304
reflection 93297
ble@@ 93288
strip 93279
tar@@ 93192
specifically 93154
legislative 93147
zhan 93097
remind 93081
den 93056
65 93035
casting 92982
deployment 92981
cuts 92972
affects 92967
chocolate 92955
assist 92953
laundry 92948
snack 92896
sel@@ 92868
ease 92811
quietly 92794
psychology 92753
lion 92697
yen 92682
cuisine 92678
establishing 92567
42 92527
swear 92519
rong@@ 92514
sy@@ 92496
comparative 92486
branches 92484
christ 92462
paragraph 92462
eve 92460
dra@@ 92436
intervention 92413
sport 92353
protecting 92348
gifts 92328
resolve 92296
institutional 92250
concepts 92232
compete 92214
39 92208
plain 92189
sixth 92182
ken@@ 92163
organize 92137
boring 92136
spanish 92066
romantic 92058
sar@@ 92052
yue@@ 92029
recommend 92028
hainan 92025
artistic 92002
nutrition 91994
begins 91936
thickness 91923
slope 91922
chu 91915
hen@@ 91878
accumulation 91876
mainstream 91875
dprk 91835
absolute 91809
infected 91800
exceed 91744
exists 91744
princess 91738
filling 91734
maintained 91731
oxide 91705
form@@ 91688
tongue 91625
crash 91585
charlie 91582
ths 91582
innocent 91488
crying 91470
arrival 91461
stainless 91448
wil@@ 91448
hand@@ 91417
gon@@ 91404
radi@@ 91396
aimed 91395
ownership 91394
ili 91382
ko 91370
homework 91293
whenever 91255
vel@@ 91241
sisters 91199
gates 91190
az@@ 91173
forgive 91141
silent 91106
ending 91103
max 91102
privacy 91092
completion 91004
ging 90988
invite 90930
trends 90923
chart 90919
quit 90876
mer 90813
ja@@ 90797
jiangxi 90794
abstract 90770
atomic 90763
tele@@ 90703
fe 90675
settled 90652
chan@@ 90642
angeles 90632
immigration 90630
ghua 90594
suspended 90577
scenery 90576
jade 90548
pul@@ 90533
stages 90492
ghui 90481
cure 90467
cm 90462
auto@@ 90454
wound 90436
jim 90432
thirty 90417
headed 90412
regret 90382
shui@@ 90378
pearl 90358
robert 90338
classical 90332
analyzing 90321
recording 90310
moves 90303
agenda 90302
cd 90291
upset 90285
sentenced 90268
soldier 90247
jumped 90193
tiny 90133
2001 90118
frequent 90109
hes@@ 90107
situations 90094
wed 90021
buyers 90005
earn 90004
handsome 89974
hardly 89972
roots 89930
resort 89918
od@@ 89915
prospect 89878
awards 89862
latter 89827
luo@@ 89823
replacement 89821
drilling 89799
xiu 89797
charm 89736
habit 89715
funding 89688
lit@@ 89642
detective 89603
fellow 89589
detected 89509
trillion 89509
satisfaction 89502
dude 89500
stones 89490
ecology 89474
charity 89450
warehouse 89449
tt@@ 89422
sanitary 89376
diameter 89375
drone 89363
tier 89332
ker@@ 89308
treaty 89292
drawn 89226
sensitivity 89185
lens 89172
towns 89127
container 89124
biology 89095
missiles 89030
ses 89022
fatigue 88929
emotions 88876
off@@ 88870
threw 88854
hiding 88849
oxidation 88842
abandoned 88833
tered 88763
lamp 88762
wooden 88762
verification 88758
celebrate 88755
divorce 88696
worthy 88681
elastic 88656
unicom 88621
elegant 88593
closing 88592
intended 88583
bamboo 88569
ghost 88533
cluster 88500
lonely 88500
surgical 88496
infrared 88423
trained 88371
plenty 88330
steal 88323
crossing 88309
weren 88306
piano 88277
outdoor 88256
bil@@ 88164
cylinder 88113
destruction 88070
rui 88042
ans@@ 87979
threshold 87949
nowadays 87938
extend 87934
destination 87904
vaccine 87897
dalian 87851
it's@@ 87807
embassy 87794
quan@@ 87713
inthe@@ 87705
answers 87689
len@@ 87682
ski 87677
ens 87671
purposes 87662
beneficial 87646
dongguan 87628
flew 87586
generate 87495
fre@@ 87491
bowl 87459
belief 87452
boxes 87414
arrange 87347
repeated 87318
screw 87302
yangtze 87294
inter 87270
represented 87241
entirely 87227
kidney 87226
fun@@ 87190
islamic 87177
les@@ 87175
ads 87162
inevitable 87146
pants 87101
detect 87094
geological 87090
huan@@ 87090
lessons 87086
diabetes 87057
ving 87050
abnormal 87039
spare 87035
musical 86998
consists 86964
mutton 86914
rocks 86906
golf 86869
fingers 86846
tou 86836
choices 86808
shoe 86807
lis@@ 86788
chat 86787
republican 86758
consecutive 86677
tolerance 86677
tied 86647
register 86618
accurately 86598
statistical 86561
membership 86533
edition 86526
ial 86521
bicycle 86513
designer 86497
vessels 86482
rabbit 86455
brush 86433
ium 86422
ous@@ 86357
dro@@ 86324
reserves 86321
ow@@ 86315
circular 86256
chicago 86255
pursue 86233
ho 86204
adapt 86135
cat@@ 86130
printed 86124
95 86096
uo 86071
ved 86071
dose 86058
reward 86009
xiong 85954
burned 85929
jewelry 85895
ward 85881
unemployment 85877
gel 85871
lifestyle 85848
invention 85820
ranked 85809
ori@@ 85789
electromagnetic 85656
kar@@ 85623
rui@@ 85598
abuse 85595
undoubtedly 85577
beings 85571
avenue 85565
walks 85543
med@@ 85485
peninsula 85484
conservation 85480
entrepreneurs 85472
covers 85469
implementing 85443
occurs 85429
demands 85383
ideological 85291
download 85275
reply 85220
duties 85204
password 85172
allocation 85145
statements 85126
ery 85103
chess 85099
probability 85082
firmly 85003
seafood 84996
ambassador 84978
tam@@ 84965
install 84922
ranking 84866
shower 84825
euro 84785
ged 84763
memories 84758
garbage 84658
mathematics 84622
elections 84609
who@@ 84565
extract 84554
premier 84554
prominent 84527
im 84513
surrounded 84497
purchased 84479
worldwide 84467
hang@@ 84426
arrangements 84409
emissions 84406
bian 84405
feeding 84357
ny 84337
generations 84325
ingredients 84290
yao@@ 84263
succeed 84253
peng@@ 84239
gan@@ 84185
1995 84178
ham@@ 84144
emission 84082
cro@@ 83979
dumplings 83978
displayed 83968
productivity 83950
execution 83911
2002 83859
contributions 83821
nor@@ 83817
orientation 83810
executives 83806
zing 83792
ours 83780
plug 83744
3,@@ 83737
ken 83725
extensive 83706
usa 83704
rivers 83694
nu@@ 83690
contribute 83650
dedicated 83632
accounted 83624
9.@@ 83614
lanzhou 83613
underwear 83601
necessarily 83587
sion 83538
harmony 83528
kick 83513
arab 83458
pension 83457
silence 83437
mud 83412
pic@@ 83392
rod 83392
volunteers 83350
ments 83341
strengthened 83257
artists 83234
retired 83219
lets 83218
dating 83183
mysterious 83165
els 83152
prior 83119
competitiveness 83088
coordinate 82888
correction 82882
recruitment 82881
ei@@ 82873
gay 82868
indicators 82864
wings 82863
asleep 82858
submit 82858
cap 82830
routine 82824
shops 82774
lar@@ 82746
suppose 82726
helpful 82701
restaurants 82698
chaos 82617
isolated 82609
limits 82540
2,000 82537
sake 82535
define 82532
blocked 82517
pres@@ 82491
planting 82475
painful 82467
dre@@ 82458
citizen 82443
sting 82427
households 82407
zealand 82331
fur@@ 82330
3.@@ 82310
heritage 82296
85 82293
loud 82290
repeat 82285
serving 82276
northwest 82206
speaker 82201
bob 82195
variation 82192
mol@@ 82179
engineer 82166
gentlemen 82133
adhere 82110
moscow 82096
mixture 82091
comm@@ 82081
fighter 82068
seismic 82063
lac@@ 82062
polymer 82044
margin 82031
behalf 82029
ui 82021
propaganda 82017
risen 81994
ear@@ 81992
refer 81968
onic 81965
firms 81961
scenes 81953
tooth 81947
vol@@ 81939
je@@ 81921
zinc 81919
guards 81915
anc@@ 81909
restore 81903
cosmetics 81807
51 81782
combustion 81743
commonly 81742
capture 81737
offices 81734
cle@@ 81677
visa 81672
47 81641
stands 81627
tsai 81620
sim@@ 81617
performing 81612
ph 81590
zed 81585
sec@@ 81575
black@@ 81561
lips 81513
alternative 81485
far@@ 81452
assume 81415
friction 81403
shake 81331
shocked 81310
dam@@ 81300
mul@@ 81288
estimation 81249
neighbors 81224
dies 81175
wastewater 81158
blocks 81154
revolutionary 81143
offline 81139
thi@@ 81111
concerning 81095
axis 81094
unto 81090
have@@ 81082
quantum 81066
possibly 81063
1996 81052
mur@@ 81045
ingly 80983
readers 80977
opera 80964
43 80935
gravity 80923
tile 80912
unusual 80868
arc 80837
regime 80825
encountered 80819
lover 80812
declared 80811
inventory 80767
publicly 80750
fan@@ 80733
ide 80711
generator 80696
quoted 80694
ves@@ 80686
purple 80635
kuomintang 80614
instant 80581
aside 80555
sovereignty 80529
ga 80526
mes@@ 80491
greece 80463
tables 80440
estimate 80409
defend 80387
rope 80370
2020 80368
predict 80346
daddy 80323
mask 80323
spoken 80313
sn@@ 80305
toy 80302
secondly 80269
concert 80243
iranian 80214
cheese 80191
wages 80189
zu@@ 80189
taipei 80184
brilliant 80164
defeat 80152
displacement 80143
wo@@ 80140
correctly 80103
purchasing 80094
bubble 80069
wto 80042
deposits 80038
secrets 80019
1.5 80015
loaded 80007
ignore 80003
chemicals 79998
clinton 79943
immediate 79928
ox@@ 79922
gui 79899
occupied 79872
threatened 79767
toxic 79695
smiled 79674
injuries 79656
momentum 79628
bunch 79613
liability 79600
here@@ 79577
eager 79568
bite 79541
checking 79465
hung 79458
sul@@ 79456
violation 79455
compression 79450
probe 79432
topics 79384
rarely 79374
ugly 79366
wor@@ 79348
mortgage 79329
ane 79297
christian 79239
conflicts 79231
farmer 79228
continuing 79220
brave 79214
patrol 79204
politicians 79182
kai@@ 79141
intermediate 79115
fen@@ 79114
resist 79081
legend 79069
thisis@@ 79051
amy 79046
cen@@ 79033
shenyang 79018
exercises 78996
senate 78996
pole 78992
interactive 78978
holes 78974
equations 78973
submarine 78952
pink 78941
conclusions 78937
climb 78919
passion 78899
globalization 78882
pulmonary 78816
1980 78795
ukraine 78730
chao@@ 78664
calculate 78610
villages 78582
fbi 78579
prefecture 78552
processor 78506
mothers 78495
riding 78454
valid 78448
dye 78425
lightning 78404
largely 78384
jie@@ 78373
civilian 78363
automotive 78360
combine 78350
gan 78342
agreements 78340
fil@@ 78310
findings 78292
why@@ 78282
catalyst 78264
filed 78253
appliance 78202
theater 78198
mill 78189
penalty 78189
ups 78177
fertilizer 78140
martin 78067
accessories 78059
ach 78052
disabled 78048
sharply 78043
burst 78039
ry@@ 78016
funeral 78000
borrow 77994
achievement 77981
makeup 77980
au 77965
drag 77965
fei@@ 77958
dai 77946
mongolia 77936
allo@@ 77908
involves 77901
popularity 77899
visible 77898
120 77896
briefly 77861
where@@ 77829
blade 77824
100,000 77821
grace 77804
extraordinary 77796
syn@@ 77796
noon 77769
lv@@ 77755
gender 77751
nurse 77751
southwest 77746
permission 77720
naked 77684
breathing 77611
deaths 77551
apologize 77497
52 77481
villa 77466
religion 77457
devil 77451
chuan@@ 77446
kunming 77445
william 77438
finds 77423
(@@ 77422
votes 77358
ome 77356
tel 77325
zhengzhou 77323
acceptance 77303
ica 77280
crucial 77256
flo@@ 77256
oma 77173
liaoning 77165
anxiety 77160
gri@@ 77136
countryside 77128
suspects 77117
balanced 77073
cer@@ 77072
ces 77070
mapping 77059
coastal 77047
confused 77043
focuses 77037
pers 77034
jiao@@ 77022
transparent 76984
ari@@ 76967
clay 76926
dried 76921
curriculum 76903
modernization 76895
letting 76861
mus@@ 76833
700 76813
ys@@ 76801
jingdong 76793
tide 76789
ular 76781
auction 76764
wishes 76742
stu@@ 76736
reservation 76734
latitude 76689
recover 76680
za 76674
defects 76670
eaten 76670
ron 76651
dependent 76650
ace 76602
jiawan 76587
dun@@ 76569
spray 76542
query 76524
zo@@ 76442
reinforced 76438
alleviation 76431
sarah 76422
realm 76413
lifetime 76391
jacket 76365
helicopter 76352
est@@ 76338
dozen 76319
cried 76311
alize 76291
dpp 76258
ak 76231
makers 76193
adaptive 76173
wolf 76173
encounter 76152
catching 76151
enti@@ 76151
aesthetic 76141
exact 76134
conducive 76068
vitality 76051
kg 76047
mars 75999
fewer 75993
aries 75981
perfectly 75972
emphasized 75953
graduates 75919
canadian 75908
settle 75862
ack 75855
countless 75850
meets 75819
ger 75816
regularly 75794
jail 75792
stepped 75789
manufacture 75787
binding 75772
breakthrough 75772
intense 75765
combining 75758
ier 75705
flows 75699
realistic 75691
dor@@ 75661
praised 75658
athletes 75639
panic 75573
hired 75536
posted 75518
vitamin 75510
whoever 75482
mystery 75465
pit 75445
gather 75424
workshop 75393
acquired 75385
activated 75384
mp 75384
saudi 75382
integrate 75369
richard 75361
facial 75347
forgotten 75339
declined 75334
delayed 75324
deeper 75321
49 75316
heavily 75310
pleased 75296
oun@@ 75270
kidding 75254
empire 75224
vr 75172
imagination 75145
produces 75127
crown 75075
israeli 75066
certification 75060
guided 75037
· 75037
book@@ 75009
ily 75002
nuts 75001
fire@@ 74994
reaches 74959
intensive 74938
trick 74935
vitro 74913
programmes 74884
elevator 74875
ministers 74848
modification 74848
enemies 74839
contrary 74833
restricted 74828
pigs 74820
communities 74790
vessel 74745
varieties 74728
ran@@ 74690
dal@@ 74682
circles 74670
engineers 74615
traveling 74605
signature 74595
44 74594
sh 74577
imports 74576
requested 74571
bat@@ 74556
refuse 74515
needle 74513
robots 74513
hunting 74510
newspapers 74503
pon@@ 74483
ana 74482
dimension 74471
rumors 74462
46 74456
tim@@ 74450
ningbo 74413
publicity 74390
fox 74380
contracts 74377
errors 74361
surely 74330
numerous 74316
minds 74274
embedded 74260
authorized 74254
bing@@ 74252
lawyers 74233
qiao@@ 74214
dozens 74210
grocery 74200
publishing 74153
land@@ 74144
58 74143
creates 74142
4,@@ 74127
engage 74064
efficacy 74001
sweat 73986
authentic 73970
cafe 73962
ire 73951
unexpected 73939
lang@@ 73938
xml 73934
ination 73929
pavilion 73837
accumulated 73818
cop 73800
miao 73799
harmful 73794
tors 73787
chips 73719
weekly 73703
cargo 73660
hou 73649
dip 73633
bul@@ 73597
width 73592
ass@@ 73586
enzyme 73576
rejected 73562
tou@@ 73560
xun 73514
stri@@ 73476
francisco 73470
meteorological 73460
indoor 73447
galaxy 73442
violations 73419
sampling 73413
shed 73396
gods 73389
plates 73382
shou@@ 73337
cho@@ 73329
subsequently 73310
liberation 73288
tony 73240
martial 73220
ignored 73206
ide@@ 73178
criticized 73175
babies 73157
voting 73146
yo@@ 73111
isolation 73107
ee 73084
vascular 73073
diversity 73066
cli@@ 73043
cord 73010
passage 73008
ll@@ 72995
2.5 72954
scores 72942
pec@@ 72925
heading 72923
compounds 72911
theories 72882
collecting 72876
tran@@ 72853
wel@@ 72835
emerged 72778
zha@@ 72771
fusion 72734
goodbye 72729
throat 72727
xue@@ 72721
horses 72716
utility 72691
designated 72643
conservative 72637
logical 72633
malaysia 72617
engines 72591
vis@@ 72591
criteria 72545
istic 72539
facility 72517
gained 72511
amazon 72499
connecting 72445
comprehensively 72425
specification 72424
moisture 72409
xiu@@ 72406
steet 72353
concluded 72350
refugees 72343
gathering 72337
barrier 72313
ata 72312
coupling 72248
mini 72234
recession 72233
guiding 72175
champion 72141
crops 72141
som@@ 72139
cop@@ 72125
directory 72117
china@@ 72105
edible 72080
temporarily 72056
balls 72040
paintings 72031
know@@ 72030
voters 72028
rs 72006
ow 71891
stole 71879
graph 71829
denied 71814
gross 71804
mel@@ 71748
phoenix 71743
ment@@ 71738
renal 71730
gentle 71721
winner 71710
cattle 71676
tibetan 71671
bleeding 71654
guidelines 71654
lou 71622
badly 71583
ishan 71575
naval 71575
upgrading 71567
hur@@ 71554
label 71544
proliferation 71541
trapped 71541
mr@@ 71517
moderate 71513
outcome 71481
swim 71480
bean 71475
41 71466
boost 71466
settings 71450
flu@@ 71449
script 71442
fac@@ 71430
directions 71424
hmm 71417
synthetic 71416
indicating 71403
shortage 71395
tho@@ 71393
wo 71391
futures 71387
bars 71374
appreciation 71343
boston 71313
designing 71303
12@@ 71281
exception 71240
approximately 71237
amounts 71232
1992 71185
vers 71156
remarkable 71143
servants 71091
thr@@ 71083
plot 71082
endless 71081
real@@ 71039
feasibility 71034
dev@@ 70986
ast 70982
snake 70908
castle 70900
ges 70893
iting 70872
reactor 70869
rating 70850
automation 70844
pla@@ 70821
waited 70812
invitation 70789
gun@@ 70778
jilin 70744
fought 70733
loc@@ 70724
itis@@ 70720
grey 70714
screening 70686
liberal 70683
colorful 70643
texas 70619
end@@ 70579
concentrate 70572
neighbourhood 70558
specially 70464
tol@@ 70463
cancel 70432
dri@@ 70373
recovered 70352
cave 70350
chong@@ 70338
handled 70333
treasury 70322
whoa 70316
deepening 70314
factories 70313
3,000 70310
rehabilitation 70293
analyst 70254
ida 70248
grandfather 70232
enjoyed 70224
complaints 70199
allah 70182
managing 70164
reception 70163
brick 70144
humanitarian 70140
insisted 70136
refrigerator 70120
harvest 70070
steve 70064
characterized 70032
shou 70012
tries 70006
hun@@ 69998
kes 69993
reviewer 69959
oh@@ 69955
ple 69944
resi@@ 69944
copyright 69927
cavity 69885
investor 69880
por@@ 69871
pho@@ 69847
relating 69806
ists 69804
que 69799
legitimate 69755
substance 69737
sections 69733
minor 69675
substances 69671
scanning 69640
88 69623
bn 69623
pushing 69617
tem@@ 69616
shouted 69601
cameras 69566
divine 69539
shots 69507
oriental 69483
oli@@ 69465
lim@@ 69449
specialized 69442
discover 69437
interviewed 69384
mic@@ 69335
grateful 69330
knee 69330
opponent 69319
layers 69298
initially 69275
disorder 69229
dominant 69190
considerable 69174
fortunately 69166
toll 69157
ur 69155
convinced 69146
indonesia 69112
visits 69112
grandmother 69107
zhongshan 69084
creativity 69082
joining 69064
grinding 69041
preventing 69038
tips 69037
bidding 69036
motorcycle 68990
uncertainty 68986
staple 68974
1000 68971
dioxide 68971
intra@@ 68961
thread 68949
ku 68922
rap@@ 68908
hollywood 68871
rome 68867
like@@ 68865
flesh 68842
huan 68794
bills 68791
wars 68771
subsidies 68753
freight 68750
allies 68742
picking 68737
movements 68736
trigger 68736
fro@@ 68721
woods 68714
precise 68705
ised 68675
cats 68674
ah@@ 68671
buddy 68655
1999 68653
garage 68653
recommendations 68651
styles 68599
examine 68597
see@@ 68595
53 68579
deserve 68578
slip 68551
roman 68543
bun@@ 68539
lending 68507
gastric 68492
minority 68476
muscles 68470
nato 68455
cigarette 68441
shaft 68419
scan 68403
objectives 68382
ity@@ 68349
shear 68332
android 68303
cervical 68302
time@@ 68294
eli@@ 68254
pie 68236
imposed 68225
hadn 68220
dian@@ 68202
qualification 68183
landed 68164
pride 68161
dig 68158
ath@@ 68157
ef@@ 68155
captured 68153
iso@@ 68153
shore 68132
ross 68130
> 68094
mit@@ 68079
drones 68078
vital 68077
thai 68070
fleet 68053
painted 68050
mount 68046
withdraw 68045
hypo@@ 68039
ceiling 68020
fabrics 67972
lun@@ 67963
ro 67961
tively 67877
io@@ 67875
employed 67856
duo 67850
graduated 67806
performances 67786
stadium 67744
tab@@ 67742
ri 67706
drying 67704
ultimately 67704
migration 67701
ensuring 67669
chances 67665
chuang 67664
nano 67648
sewage 67637
pray 67632
ess@@ 67588
ell@@ 67574
questioned 67544
smartphone 67540
cruise 67537
thou 67523
360 67515
axial 67508
now@@ 67501
operated 67486
1997 67477
struck 67474
tell@@ 67472
usage 67450
senator 67446
boiler 67436
recall 67399
daniel 67386
cou@@ 67374
estimates 67367
telecommunications 67365
pricing 67343
gui@@ 67339
swing 67274
craft 67250
judges 67244
packing 67225
philippine 67214
mold 67211
incidence 67193
reveal 67186
choosing 67172
warming 67163
charles 67159
opposed 67158
occurrence 67155
ethics 67145
nail 67102
broadcasting 67084
equ@@ 67077
integral 67073
lat@@ 67064
ure 67062
5,@@ 67053
researcher 66972
coupled 66962
algorithms 66936
laughed 66918
ome@@ 66916
remembered 66905
ini@@ 66899
foreigners 66892
sincere 66869
darkness 66867
unprecedented 66849
writers 66837
cher 66832
respiratory 66819
cultivate 66808
lang 66806
macao 66786
diagram 66775
bother 66771
cia 66771
hire 66769
alex 66761
spokesperson 66751
specify 66750
lifting 66733
look@@ 66727
deficiency 66711
therapeutic 66704
somewhat 66682
grams 66668
diaoyu 66662
colored 66660
56 66657
adds 66639
couples 66617
payments 66605
metals 66578
fication 66571
canal 66568
potato 66549
tering 66549
sters 66544
1998 66537
directed 66506
deals 66500
disappear 66500
cin@@ 66492
epidemic 66488
monopoly 66485
rank 66482
transplantation 66477
sacrifice 66475
asks 66452
jones 66448
buyer 66441
earnings 66440
changsha 66406
xuan@@ 66358
day@@ 66328
blast 66317
deepen 66223
pays 66213
insufficient 66207
tablets 66202
longitude 66197
mou 66179
bullet 66132
mankind 66120
rolled 66107
indicator 66099
mai 66095
fo 66083
fi 66081
wore 66048
altitude 66019
pleasant 66007
achieving 66000
resume 65998
nat@@ 65992
idiot 65991
johnson 65984
targeted 65983
plan@@ 65948
inevitably 65925
tear 65846
72 65831
forestry 65810
scientist 65810
tly 65805
boo@@ 65749
earned 65741
ally@@ 65713
defendant 65694
aw@@ 65688
fifty 65677
spinal 65637
radical 65634
explains 65593
medal 65557
let@@ 65547
equally 65534
palm 65524
bloody 65508
shar@@ 65507
constitutional 65501
fighters 65500
enc@@ 65488
defect 65481
ck 65471
green@@ 65464
fairly 65445
namely 65437
aims 65426
washed 65412
grassroots 65402
counter@@ 65388
disclosed 65342
itis 65284
depend 65270
rachel 65263
ruled 65260
processed 65250
obstacles 65245
masters 65229
cognitive 65188
trap 65183
removing 65168
meals 65159
lab@@ 65153
punished 65141
flu 65140
4.@@ 65126
contest 65117
tis@@ 65065
nights 65057
websites 65027
expressway 65021
ecosystem 65019
dairy 65017
quarters 65017
discrimination 65013
fied 64912
cctv 64876
wn 64876
texture 64862
immigrants 64840
contacted 64824
renminbi 64822
ster 64810
simulated 64808
lily 64785
demon 64770
wuxi 64766
expenditure 64747
emotion 64729
01 64700
wavelet 64699
animation 64653
monkey 64632
blog 64618
stan@@ 64616
disc 64614
laughing 64604
suppliers 64604
ell 64600
purification 64594
encouraged 64567
requests 64563
steamed 64556
drainage 64540
examined 64540
leakage 64528
sensing 64489
segment 64457
fying 64451
outlook 64443
kel@@ 64442
toys 64436
arch 64422
98 64411
bling 64401
dou@@ 64387
gm 64372
forty 64369
expo 64352
cla@@ 64333
breathe 64315
depending 64313
incredible 64311
safely 64301
dental 64299
tropical 64255
noble 64233
ut 64226
memorial 64219
wage 64212
upstairs 64157
tendency 64120
destiny 64085
remarks 64062
demonstrated 64052
thief 64042
foshan 64038
applicable 64035
ridiculous 64023
roller 63983
orbit 63951
elite 63937
sectors 63910
ere 63906
thee 63898
qui@@ 63893
publication 63885
chromatography 63871
coronary 63863
delicate 63825
sect 63820
yl@@ 63782
procuratorate 63776
owe 63773
6.@@ 63762
verify 63759
shame 63756
thrown 63744
beast 63743
pizza 63728
adopts 63700
gansu 63644
investigating 63628
delta 63620
codes 63606
spa 63594
heroes 63592
disasters 63590
designs 63584
ich 63555
novels 63526
catering 63516
calligraphy 63461
discussions 63452
searching 63439
forbidden 63436
dat@@ 63431
nest 63428
ville 63422
toyota 63421
unlikely 63419
gasoline 63415
distant 63392
ure@@ 63391
pepper 63379
historic 63370
seized 63364
deficit 63363
2019 63334
organizational 63315
sco@@ 63315
defeated 63309
clever 63302
pas@@ 63300
battlefield 63264
berg 63263
awarded 63252
inspired 63216
deliberately 63215
ick 63209
congratulations 63179
shallow 63175
ith 63161
reader 63153
nick 63146
admission 63140
assigned 63107
show@@ 63086
residual 63053
mao@@ 63034
everyday 62988
trains 62976
sought 62945
brake 62925
ils 62898
crowded 62897
ultrasonic 62896
investigations 62889
relaxed 62855
provision 62848
64 62837
revised 62812
entrepreneurship 62808
wondering 62793
systematic 62788
fol@@ 62770
graduation 62748
complexity 62728
var@@ 62726
argue 62700
tru@@ 62670
feasible 62664
compliance 62649
nit@@ 62649
threats 62618
uncomfortable 62597
thomas 62584
relying 62578
perm 62576
ot@@ 62569
rotation 62565
servant 62560
pretend 62554
inform 62549
ick@@ 62510
scattered 62487
gains 62414
bang@@ 62409
gently 62384
holidays 62374
tract 62345
counties 62301
predicted 62299
explosive 62289
duc@@ 62286
flowing 62284
fold 62271
emphasis 62257
bitter 62247
influenced 62227
mines 62210
supplier 62209
drill 62197
investments 62193
withdrawal 62177
stimulate 62174
procurement 62168
electrode 62152
switching 62132
widespread 62073
figured 62068
qualifications 62059
turbine 62045
firstly 62036
pra@@ 62032
muslim 62028
retirement 62023
cai@@ 62022
slept 62012
florida 62002
ktv 62000
facilitate 61988
drought 61984
harbin 61978
rings 61971
territorial 61965
connections 61948
highlight 61943
nom@@ 61927
occasion 61926
anna 61921
severely 61913
dentistry 61839
mixing 61821
funded 61771
ions 61757
candy 61748
gy 61747
diagnostic 61739
fastest 61728
66 61699
comp@@ 61687
jurisdiction 61678
neighbor 61675
ought 61653
immuno@@ 61616
pay@@ 61581
accelerated 61566
granted 61540
ino 61539
reuters 61488
alert 61478
actors 61462
pi 61453
passive 61450
sang 61443
spy 61402
0.05 61397
suggestion 61388
000 61344
colour 61323
asean 61312
precisely 61309
boom 61303
ov@@ 61288
port@@ 61240
precipitation 61228
coding 61209
launching 61173
good@@ 61171
championship 61169
worn 61151
fen 61142
stationery 61141
cabin 61139
oid 61098
posts 61070
lon@@ 61068
resolved 61060
gal@@ 61036
ada 61034
breaks 61028
macro 61026
dil@@ 61019
collision 61018
lecture 61018
bit@@ 61014
listened 60982
disposal 60974
guaranteed 60931
qinghai 60918
people@@ 60892
cow 60888
myocardial 60888
ita 60886
seventh 60881
analyses 60873
correspondent 60873
beside 60867
noodle 60860
peripheral 60855
absence 60847
monster 60847
ung 60845
tical 60844
producer 60842
reg@@ 60841
dictionary 60839
constructed 60835
cheaper 60820
pressing 60815
expressions 60765
iraqi 60753
= 60752
tragedy 60734
bmw 60722
authors 60717
nic@@ 60714
rigid 60710
54 60707
determining 60706
def@@ 60698
permit 60692
crossed 60690
auxiliary 60688
hex@@ 60684
calculating 60679
ifyou@@ 60651
20,000 60633
announce 60632
stake 60619
suning 60619
attribute 60615
detained 60612
equilibrium 60605
ano@@ 60599
scored 60569
pose 60562
high@@ 60543
hood 60535
steering 60530
dates 60518
prosecution 60482
bride 60475
pping 60469
genius 60448
kate 60445
sexy 60433
obligations 60412
humanity 60410
huo 60410
brigade 60409
theft 60397
productive 60386
heated 60368
entitled 60359
defence 60350
variables 60343
onthe@@ 60308
jiagou 60301
adam 60296
cops 60270
vulnerable 60262
lied 60242
mart 60213
protest 60211
zoo 60204
bull 60193
loving 60188
bad@@ 60182
classified 60182
atlantic 60179
hs 60172
matic 60160
organizing 60156
ole 60132
restructuring 60116
saint 60093
seller 60077
pped 60074
excess 60045
transformed 60031
gulf 60030
prisoners 60030
aerospace 60019
pap@@ 60017
waist 60016
propose 60004
7.@@ 59996
twelve 59994
founding 59985
ron@@ 59973
chris 59961
summarized 59959
relics 59957
classmates 59956
spar@@ 59951
knock 59940
hook 59920
columns 59918
tal 59900
arm@@ 59866
ined 59865
cousin 59849
medi@@ 59832
adsorption 59819
yer 59806
hefei 59802
endo@@ 59793
oper@@ 59772
tation 59761
flexibility 59747
ci 59732
missions 59727
differentiation 59724
departure 59714
chase 59713
ture 59711
reduces 59708
dyeing 59687
rhythm 59687
drew 59682
fairy 59670
freely 59654
cui 59653
metabolism 59649
span 59648
reminded 59644
mg 59621
moments 59593
lec@@ 59579
gambling 59575
ukrainian 59572
criminals 59557
grounds 59548
sooner 59538
harvard 59533
sphere 59516
bly 59508
sam@@ 59508
hip 59506
5.@@ 59468
dawn 59468
however@@ 59464
doubts 59447
blank 59442
ranks 59438
nationality 59428
socialism 59428
enormous 59419
backup 59415
governmental 59408
basket 59406
bow 59368
competitors 59360
eg@@ 59352
niu 59343
itang 59324
catalytic 59316
soybean 59309
chlor@@ 59266
pulling 59257
grandma 59247
tun@@ 59224
barack 59222
weakness 59181
lea@@ 59169
low@@ 59102
transit 59085
involve 59084
acoustic 59048
math 59036
68 59028
pai 59005
26@@ 59002
escaped 58985
worship 58983
seize 58977
hear@@ 58971
optimize 58963
preferred 58947
bases 58944
investing 58943
coordinated 58935
30@@ 58933
judging 58919
refined 58897
typically 58879
respective 58877
smoothly 58808
chan 58804
dly 58796
valued 58760
deployed 58738
ening 58735
slide 58731
satisfactory 58726
passes 58720
continent 58677
satisfy 58654
cpc 58651
timing 58636
tha 58631
physiological 58625
buddha 58624
inheritance 58614
these@@ 58612
spo@@ 58602
grows 58562
wenzhou 58556
boats 58540
forests 58526
graphics 58513
jury 58451
gotten 58433
roast 58423
palestinian 58406
very@@ 58398
ography 58395
alan 58389
iled 58369
py@@ 58367
equality 58346
loo@@ 58343
rectification 58316
grave 58315
crop 58292
detector 58291
lists 58253
57 58221
bakery 58220
simultaneously 58192
emergence 58178
eness 58172
potassium 58165
volunteer 58163
abilities 58157
tablet 58120
fran@@ 58110
provider 58103
insist 58097
hosted 58085
lip 58080
bis@@ 58052
| 58048
loyal 58033
cri@@ 58023
eric 58016
importantly 58001
tim 57997
van@@ 57994
poem 57985
get@@ 57967
affiliated 57966
pine 57950
shelf 57949
disclosure 57909
50,000 57900
ining 57890
inquiry 57836
cardiac 57830
borne 57827
cont@@ 57820
ss@@ 57791
cs 57788
jimmy 57785
anxious 57781
gg@@ 57766
° 57761
< 57754
presentation 57750
motivation 57743
checks 57737
opens 57705
sty@@ 57679
tender 57670
sue 57646
generous 57636
disappointed 57615
fog 57614
packed 57604
cope 57589
spiral 57588
upgraded 57578
tically 57562
laughter 57561
representation 57556
ened 57543
about@@ 57540
bec@@ 57539
rac@@ 57520
stealing 57518
dol@@ 57509
neutral 57505
intersection 57500
medicines 57499
ese 57469
because@@ 57467
debts 57461
ero@@ 57457
discussing 57448
antenna 57428
charming 57420
sells 57395
8.@@ 57379
lifted 57321
irrigation 57318
proposals 57315
contacts 57314
key@@ 57314
ura 57303
acids 57264
ast@@ 57204
winds 57192
wanda 57177
gentleman 57170
vigorously 57164
vit@@ 57146
serial 57113
atmospheric 57086
peking 57079
lateral 57069
boards 57046
urbanization 57037
intake 57029
spaces 57027
liao 57021
confrontation 57020
sliding 57017
plo@@ 57000
ici@@ 56990
professionals 56987
ner@@ 56986
tap 56984
underwater 56982
chloride 56979
climbing 56959
peoples 56954
commit 56953
rescued 56946
attorney 56931
tt 56930
poison 56914
displays 56897
fuzhou 56882
surprising 56857
wounded 56847
sky@@ 56839
beaten 56820
hypertension 56792
holder 56779
ric@@ 56776
bending 56758
optimum 56740
fra@@ 56715
parade 56695
taobao 56695
huai@@ 56681
recreation 56674
lands 56670
videos 56657
progressive 56656
verified 56638
nodes 56611
soci@@ 56601
planes 56589
supporters 56586
purchases 56580
lo 56557
trademark 56553
bottles 56529
dent 56508
ama 56494
stairs 56476
barely 56472
insulation 56469
tanks 56465
drum 56464
lunar 56431
ory 56414
bc 56405
expects 56387
way@@ 56384
oned 56342
specifications 56340
myanmar 56338
copies 56334
hammer 56332
skirt 56293
ghu 56251
twitter 56218
ofthe 56214
wool 56214
delete 56209
collapsed 56186
drops 56176
capita 56134
seoul 56124
useless 56118
collar 56109
92 56101
rated 56101
lawsuit 56094
more@@ 56092
maps 56089
premium 56086
degradation 56056
dining 56050
fri@@ 56050
arbitration 56046
chin 56026
ently 56025
shield 56024
capsule 56015
cosmetic 55995
invisible 55994
paste 55989
louis 55988
smo@@ 55970
geographical 55953
hard@@ 55931
modes 55918
accommodation 55912
eco 55888
don't@@ 55867
beans 55842
lately 55831
designers 55826
ea@@ 55821
62 55815
affair 55784
luc@@ 55782
motherland 55772
demonstrate 55771
sentences 55760
kicked 55746
grades 55733
wr@@ 55725
powered 55720
bury 55719
subsequent 55700
heilongjiang 55698
broadband 55692
unclear 55683
baseball 55682
bles 55639
triggered 55617
sony 55614
anne 55595
planted 55580
economists 55572
aggressive 55566
luggage 55548
sealed 55541
induction 55538
advances 55537
cautious 55536
wallet 55505
spell 55504
separately 55490
banned 55477
cultures 55460
occasionally 55448
med 55437
priced 55437
distinguish 55433
detention 55424
speculation 55406
illegally 55392
exploring 55391
necessities 55387
developments 55383
carries 55373
sensors 55366
shoulders 55365
santa 55358
rows 55346
ms@@ 55324
rer 55318
merely 55315
eternal 55293
curious 55289
deck 55289
substantial 55275
attempts 55262
abdominal 55225
onal 55225
patience 55222
shook 55216
influencing 55204
mac 55202
compact 55190
86 55188
poisoning 55187
ay@@ 55184
jackson 55175
throwing 55164
sup@@ 55112
sustained 55109
immortal 55102
hunt 55078
slight 55069
spreading 55020
giants 55013
think@@ 55005
accepting 54967
13@@ 54937
stops 54937
complain 54936
independently 54901
spacecraft 54893
diplomacy 54860
hiv 54859
play@@ 54847
cel@@ 54846
determines 54845
knocked 54844
wins 54834
pity 54829
dimensions 54789
dominated 54789
ometer 54786
chuck 54770
euros 54769
matches 54764
outbreak 54762
hillary 54757
adjacent 54755
dealer 54736
amino 54723
bee 54720
wer 54710
associate 54709
favorable 54709
acupuncture 54679
spirits 54677
ilin 54670
temperatures 54662
bled 54656
dao@@ 54626
fears 54620
adjusting 54604
age@@ 54602
soap 54594
turkish 54571
bes@@ 54565
highlights 54560
thereby 54554
similarly 54542
lasting 54539
gps 54538
xinyuan 54535
finishing 54506
250 54499
pour 54490
dealers 54488
gol@@ 54483
zz@@ 54458
had@@ 54450
voted 54446
tag 54439
dial 54437
calendar 54424
jan@@ 54416
ventilation 54411
miracle 54408
dick 54406
parks 54404
wrapped 54402
witnesses 54401
commodities 54396
pad 54396
gas@@ 54388
excitement 54368
eth@@ 54366
downtown 54353
ely 54347
6,@@ 54346
flour 54336
teng 54335
many@@ 54324
periods 54319
76 54310
dom@@ 54308
lenovo 54303
somehow 54301
districts 54294
cultivated 54269
mild 54267
milan 54255
stop@@ 54240
template 54231
dependence 54230
gallery 54216
welcomed 54215
lotus 54214
imperial 54212
web@@ 54192
abandon 54191
updated 54185
elementary 54166
alice 54162
beds 54162
optimized 54137
person@@ 54123
shareholder 54105
ene 54102
venue 54095
pound 54078
77 54067
freeze 54053
tives 54034
fr 54033
bold 54031
depressed 54029
hydropower 54023
shel@@ 54009
album 54005
sheets 54004
ever@@ 53981
torque 53966
anchor 53951
63 53940
coun@@ 53935
suits 53924
complications 53917
volkswagen 53912
leg@@ 53890
roughly 53853
developer 53836
assault 53831
colonel 53828
10.@@ 53801
analytical 53775
wider 53753
ack@@ 53750
ilong 53746
vein 53739
eighth 53737
liquidity 53736
thermo@@ 53735
negotiate 53723
envelope 53705
lieutenant 53703
zer 53695
bus@@ 53690
adverse 53688
cinema 53666
ds@@ 53665
surplus 53660
steadily 53657
combines 53647
dressing 53643
dongfeng 53635
din 53616
ue 53608
jordan 53585
cage 53559
bastard 53552
holdings 53544
ston 53539
resonance 53526
networking 53523
poems 53508
passport 53484
diffusion 53455
safeguard 53425
pun@@ 53420
gul@@ 53400
enters 53398
inferior 53398
profession 53394
relay 53393
diagnosed 53382
beating 53376
danny 53375
versions 53363
desperate 53355
twin 53347
mechanics 53336
trunk 53331
impressive 53319
nickel 53317
bears 53316
woke 53316
marketplace 53289
offensive 53280
publish 53279
struggling 53265
negotiation 53253
priest 53242
ramen 53242
iii 53233
voices 53220
ap 53199
gam@@ 53194
ani@@ 53184
bookstore 53178
necessity 53152
kan@@ 53141
embarrassed 53127
dense 53109
celebration 53104
inspiration 53100
receptor 53084
respondents 53065
tumors 53062
afterwards 53029
rea@@ 52981
andy 52973
warfare 52968
rises 52963
lou@@ 52960
pitch 52947
dutch 52937
evaluated 52937
urged 52931
malignant 52900
did@@ 52897
hepatitis 52890
clearance 52889
oneself 52876
recommendation 52872
tomb 52869
coke 52858
introducing 52845
cigarettes 52825
economist 52814
premise 52803
metric 52799
exhaust 52796
izi 52793
infectious 52778
zhuhai 52754
cruel 52739
entity 52730
thoroughly 52686
fatty 52677
outline 52665
foam 52653
lazy 52651
fled 52650
gated 52647
plateau 52642
roles 52633
eliminated 52630
fermentation 52617
tao@@ 52612
industrialization 52607
snow@@ 52564
fle@@ 52554
arabia 52552
strikes 52537
valuation 52516
brian 52510
nasa 52510
ultrasound 52500
offshore 52487
from@@ 52483
portal 52483
courts 52478
machining 52475
ids 52464
producers 52463
overnight 52457
ancestors 52436
sacred 52434
architectural 52429
take@@ 52421
garment 52398
molecules 52370
59 52335
occupation 52331
met@@ 52314
interval 52312
loyalty 52303
antibody 52284
hormone 52247
ventricular 52244
lit 52226
wood@@ 52210
cru@@ 52186
bulk 52175
anyang 52109
commented 52081
incidents 52000
aff@@ 51989
shipment 51982
god@@ 51974
acted 51961
junction 51958
advisory 51951
routes 51947
thunder 51933
competent 51931
policeman 51931
zones 51926
bucket 51924
gh 51920
adhesive 51912
touching 51900
shortly 51874
hitting 51871
ough@@ 51867
lig@@ 51865
attending 51860
enjoying 51860
cares 51859
67 51843
journalists 51819
livelihood 51794
ryan 51784
jong 51778
zuo 51773
changzhou 51731
abundant 51719
drives 51719
shaking 51708
exquisite 51705
fitting 51704
year@@ 51701
infarction 51699
titanium 51699
headache 51688
fy 51675
ini 51675
bab@@ 51673
inate 51667
gb 51664
dur@@ 51663
accidentally 51662
igou 51662
detachment 51648
berlin 51646
swiss 51637
sessions 51621
infinite 51604
ano 51601
doyou@@ 51601
casual 51599
than@@ 51593
constraints 51586
rob 51585
servers 51580
behaviors 51579
disciplinary 51559
farming 51553
kevin 51536
appraisal 51526
transmitted 51522
construct 51512
tures 51512
happily 51494
ive 51488
absorb 51487
kun@@ 51467
ofthe@@ 51456
morality 51432
cleaned 51431
net@@ 51387
attach 51374
divide 51374
gged 51368
blocking 51365
improves 51355
ore@@ 51340
nowhere 51331
agu@@ 51236
booth 51234
starch 51217
bru@@ 51216
elsewhere 51213
realizing 51204
alo@@ 51182
kun 51173
rou@@ 51167
comparing 51164
hoo@@ 51163
blowing 51154
1970 51147
acquire 51145
reactions 51140
contributed 51136
formulated 51127
201@@ 51122
adventure 51119
hills 51117
java 51116
intel 51101
invasion 51096
sive 51094
nate 51075
subsidiary 51072
ports 51070
applies 51045
dle 51044
nar@@ 51043
complaint 51031
shine 51010
rainfall 50993
trials 50991
phosphorus 50989
rude 50988
threatening 50982
counting 50980
braised 50968
comrade 50954
stro@@ 50952
attributes 50949
hurts 50938
wit@@ 50938
migrant 50935
retreat 50927
egyptian 50917
approaches 50878
kle 50876
promising 50873
intend 50870
deny 50851
pills 50842
guardian 50824
cher@@ 50812
invented 50798
awesome 50795
instruction 50794
ency 50788
ric 50777
suff@@ 50775
shrimp 50764
promises 50753
urine 50752
wealthy 50747
cracking 50736
morgan 50735
hin@@ 50734
freezing 50719
downstairs 50711
acceleration 50680
phenomena 50671
brains 50670
61 50668
restoration 50666
susan 50664
existed 50658
controversial 50656
lively 50642
ney 50636
chaoyang 50632
wells 50620
converter 50609
78 50601
proteins 50582
changchun 50547
gym 50520
butter 50508
earliest 50501
cal 50499
clubs 50497
qq 50496
skilled 50478
phosphate 50470
asphalt 50462
climbed 50461
assisted 50441
hairstyle 50434
recycling 50399
folder 50362
meaningful 50341
nian 50339
seasons 50329
rebound 50323
nobel 50320
keen 50298
vin 50265
dic 50217
ram@@ 50209
other@@ 50198
transformer 50192
tesla 50162
midnight 50155
cliff 50153
bible 50145
straw 50126
standardized 50120
activation 50110
ym@@ 50097
gen 50085
glucose 50083
trauma 50079
aiming 50068
guarantees 50061
preservation 50060
unhappy 50008
simon 49992
chuang@@ 49989
care@@ 49974
terrorists 49973
sealing 49963
theatre 49960
pper 49955
stranger 49948
prototype 49945
adoption 49940
impose 49912
entrepreneurial 49888
mortality 49883
approaching 49869
impressed 49829
crashed 49821
spl@@ 49809
statue 49801
ella 49798
centuries 49793
confusion 49792
issuance 49772
proves 49762
ners 49759
willingness 49754
comrades 49740
fla@@ 49733
sav@@ 49719
ghong 49716
yeah@@ 49700
locations 49688
suite 49677
melting 49651
portion 49642
barriers 49638
polar 49638
batteries 49609
converted 49577
tas@@ 49571
creatures 49570
nokia 49569
fantasy 49566
barrel 49543
chasing 49538
critics 49533
ax@@ 49523
scott 49507
ame@@ 49504
mon 49504
immunity 49495
farmhouse 49487
recalled 49486
semiconductor 49456
stretch 49456
bp 49451
receipt 49450
trusted 49424
hollow 49423
atic 49417
stack 49410
ides 49408
yed 49357
continental 49345
accelerating 49337
fancy 49331
shao@@ 49330
7,@@ 49311
avoiding 49303
stimulus 49279
carpet 49278
ades 49275
ary@@ 49268
xiaolong 49252
surge 49236
furthermore 49178
apoptosis 49164
blessing 49161
satellites 49140
antang 49133
tex@@ 49131
assess 49126
va@@ 49122
ireland 49119
convince 49113
crane 49100
alright 49095
accordingly 49094
profitable 49079
sit@@ 49076
tel@@ 49074
osis 49047
om 49045
trac@@ 49041
hit@@ 49030
sink 49009
fibers 49000
bacterial 48978
zes 48969
preparations 48966
pressed 48963
indispensable 48936
icity 48932
lovers 48928
joey 48924
apparent 48918
nanning 48915
odd 48910
consultations 48909
exceeds 48907
intestinal 48894
morphology 48890
embarrassing 48884
promotes 48871
proposes 48870
traveled 48870
pale 48852
ket 48851
hereinafter 48849
bronze 48847
chaotic 48842
cn@@ 48829
casualties 48827
dr. 48822
certificates 48819
yes@@ 48813
angu@@ 48802
cit@@ 48796
deeds 48793
stall 48783
darling 48781
empirical 48780
greenhouse 48777
flies 48768
borrowed 48754
ninth 48753
vocabulary 48746
cuba 48745
governing 48744
mou@@ 48722
porcelain 48705
pel@@ 48693
backed 48690
penny 48689
vas@@ 48665
intermediary 48664
turnover 48657
aquatic 48639
also@@ 48635
connotation 48604
87 48591
multimedia 48563
nationwide 48559
unmanned 48532
tum@@ 48530
lamb 48521
serves 48520
umbrella 48520
'am 48511
sydney 48511
custody 48495
mono@@ 48489
sulfur 48484
fare 48481
switzerland 48473
initi@@ 48468
rotary 48466
enhancing 48463
that's@@ 48459
silly 48454
conducting 48442
logo 48441
pairs 48429
wi 48428
encouraging 48418
pit@@ 48416
juan 48401
96 48386
zhuang@@ 48385
daughters 48381
keyboard 48374
unfair 48373
ulation 48327
int 48307
detecting 48287
does@@ 48286
hair@@ 48270
keng 48269
teenagers 48259
actress 48257
talented 48250
dealt 48241
solvent 48240
aggression 48234
ram 48232
gn@@ 48195
mun@@ 48185
arrow 48154
hd 48151
hen 48119
jenny 48111
disclose 48096
spec@@ 48084
honestly 48079
expecting 48078
rotating 48061
stamp 48057
backward 48052
py 48040
lease 48029
mercedes 48027
.i 48017
inthe 48008
mama 48005
subsidy 47979
exhausted 47976
thin@@ 47970
trucks 47952
dignity 47938
bent 47930
imp@@ 47910
motors 47910
diverse 47906
ghu@@ 47903
worrying 47903
wherever 47895
unstable 47888
shortcomings 47881
yon@@ 47879
healing 47877
ena 47871
airline 47841
lean 47823
ruined 47821
smiling 47817
bicycles 47806
indexes 47790
sunny 47775
organ@@ 47733
were@@ 47712
ishi 47703
intends 47701
elizabeth 47684
eagle 47677
prisoner 47654
occupy 47639
jinan 47633
obligation 47633
stopping 47625
clarify 47612
convergence 47600
decisive 47598
sb 47595
contradictions 47579
jerusalem 47576
sing@@ 47576
yoga 47573
watches 47569
rolls 47566
acceptable 47562
chelsea 47542
900 47539
hepatic 47538
accompany 47526
pets 47509
attracting 47506
tha@@ 47490
troubles 47468
mercury 47455
rio 47452
temper 47447
30,000 47439
fails 47434
peasant 47432
bridges 47405
interviews 47398
strongest 47398
reflecting 47376
matched 47371
cakes 47365
robbery 47361
ette 47350
orderly 47346
shelter 47340
soluble 47336
blo@@ 47313
honesty 47312
magical 47305
expense 47301
lai@@ 47294
cc 47293
constructing 47288
lend 47288
exc@@ 47287
kings 47229
clearing 47226
committees 47223
cherry 47216
paradise 47193
uncertain 47192
ceramics 47184
spinning 47183
modify 47174
billy 47165
letv 47146
netizen 47122
instantly 47121
ab 47114
shy 47113
influential 47108
oring 47102
suspicious 47050
lil@@ 47048
ann 47040
decent 47040
protests 47023
speaks 47017
clan 47013
ologist 47012
110 47001
smashed 47000
donation 46999
4,000 46996
oldest 46992
jealous 46977
you're@@ 46974
shiz@@ 46969
binary 46962
wizard 46953
clues 46942
8,@@ 46902
billions 46896
squad 46893
charter 46872
71 46867
portable 46861
essentially 46857
elephant 46852
ising 46837
opponents 46831
oli 46793
rage 46787
coins 46783
reviews 46780
erosion 46779
wheels 46769
bran@@ 46758
magnesium 46755
pragmatic 46750
dessert 46739
disadvantages 46737
bag@@ 46731
dramatic 46731
dness 46725
stir 46725
adequate 46723
kit 46720
viewing 46709
declare 46700
exchanged 46686
ished 46682
ris@@ 46661
prescription 46647
reminds 46616
sour 46614
infants 46610
finals 46601
walter 46597
acy 46593
bits 46590
offset 46570
fel@@ 46561
fal@@ 46558
selective 46552
perception 46549
rotor 46540
resolutely 46532
ading 46514
pointing 46490
wat@@ 46460
contradiction 46453
inflammatory 46452
gran@@ 46451
lining 46448
approve 46444
insulin 46443
kil@@ 46438
quo 46437
sofa 46430
05 46399
banquet 46394
partly 46392
ruin 46392
employer 46389
73 46385
it'@@ 46373
influences 46353
pal 46325
witnessed 46317
regulate 46311
bankruptcy 46297
violated 46296
staring 46273
izhou 46271
melt 46266
jumping 46265
boots 46264
respected 46256
mt 46247
compromise 46219
rick 46219
lag@@ 46215
school@@ 46192
sig@@ 46179
kno@@ 46172
toxicity 46170
tremendous 46166
ement 46164
vegas 46162
ets 46160
minerals 46147
selecting 46143
herbal 46139
lasted 46133
spectral 46106
compulsory 46079
$TERM@@ 46064
centralized 46033
supplement 46031
enter@@ 46028
furnishing 46027
ashi 46024
sions 46022
educated 46020
zeng 46017
revenge 46014
lincoln 45997
fluorescence 45989
ain@@ 45980
filtering 45979
rabbits 45972
aluminium 45965
ii@@ 45963
mounted 45950
chains 45942
stor@@ 45906
salad 45899
fantastic 45895
elimination 45869
mercy 45863
qualities 45862
02 45830
ml 45811
poet 45807
consent 45798
oping 45798
fence 45796
initiated 45794
duration 45793
confirmation 45792
belly 45791
browser 45790
dia 45771
spin 45746
fulfill 45733
82 45728
mic 45722
fax 45715
expectation 45706
generalized 45700
yn@@ 45700
bench 45695
tricks 45687
kes@@ 45673
blew 45662
lakes 45662
potatoes 45658
dynasties 45657
alien 45655
cracks 45627
generating 45625
deng@@ 45612
maturity 45592
rela@@ 45575
executed 45574
grandpa 45555
mud@@ 45543
coated 45522
dated 45519
insects 45504
jeff 45504
steak 45493
vi 45473
preferential 45454
dangers 45449
virginia 45449
clark 45448
lum@@ 45445
corridor 45440
symbols 45433
cab@@ 45432
celebrity 45422
sle@@ 45419
rounds 45408
tribe 45408
enlightenment 45403
prosperous 45392
deli@@ 45390
ered 45374
ion@@ 45373
rape 45366
1991 45363
formulation 45355
cu 45350
hunter 45350
shorter 45345
ideology 45307
buses 45299
emphasize 45292
racing 45287
.... 45285
scholar 45274
crap 45267
incentive 45265
neighboring 45264
que@@ 45262
smartphones 45261
succeeded 45259
law@@ 45249
zai 45248
goose 45240
zhongxin 45233
anterior 45229
fic@@ 45224
murdered 45214
decomposition 45206
laying 45200
reluctant 45185
standardization 45183
tsinghua 45182
isheng 45175
alist 45156
joseph 45155
preventive 45155
typhoon 45153
yahoo 45146
home@@ 45129
undergraduate 45112
develops 45109
tat 45109
survived 45094
phrase 45081
bt 45075
gy@@ 45068
sovereign 45066
yiz@@ 45062
ashes 45051
prints 45039
noting 45038
arthur 45029
propagation 45016
sole 45014
centr@@ 45008
swept 45005
appetite 44998
courtyard 44968
rains 44964
iti@@ 44955
seminar 44952
medic@@ 44948
sar 44935
monica 44931
ester 44930
shirts 44930
glance 44929
sincerely 44929
qiu@@ 44923
inc@@ 44919
avoided 44918
metro 44905
episode 44898
't@@ 44882
polite 44874
cemetery 44873
cao@@ 44859
borrowing 44851
ei 44840
fathers 44825
wind@@ 44822
tastes 44819
stan 44795
horn 44793
fairness 44782
pp 44781
viscosity 44773
jewish 44766
consultant 44757
prescribed 44755
bonus 44750
frost 44745
beliefs 44743
pipes 44726
cn 44723
viral 44717
formally 44714
ola 44714
tization 44708
aid@@ 44703
secretly 44695
cents 44688
enhancement 44687
ele@@ 44647
brazilian 44646
tent 44638
unreasonable 44633
main@@ 44630
del 44628
fiction 44621
merger 44594
tun 44587
argentina 44578
swee@@ 44577
footwear 44575
69 44574
hil@@ 44559
rum@@ 44556
elder 44552
regression 44536
tio 44531
bla@@ 44513
08 44507
op 44507
litigation 44505
apples 44492
soy 44488
panda 44467
hunger 44462
humor 44453
grand@@ 44450
formulate 44449
shao 44449
dab@@ 44448
ases 44432
foster 44419
electromechanical 44409
plastics 44401
nutrients 44390
ven 44389
eh 44377
eleven 44357
hop@@ 44327
hk 44323
secretariat 44323
bombs 44319
trousers 44316
forcing 44299
inspecting 44296
9,@@ 44292
coin 44278
demanding 44271
ld 44269
providers 44268
inches 44259
ama@@ 44253
hp 44253
libya 44253
lemon 44245
dun 44236
grabbed 44217
heavenly 44216
pond 44209
nonsense 44197
chef 44184
wax 44179
ances 44172
tuberculosis 44171
absorbed 44162
employers 44161
colleague 44157
say@@ 44149
schemes 44147
compl@@ 44142
dn 44140
blown 44137
pursuing 44117
attraction 44101
applicants 44098
dered 44074
defensive 44069
horrible 44069
obesity 44065
yarn 44064
cured 44061
berry 44054
fits 44042
impro@@ 44028
liber@@ 44020
oning 44019
leak 44018
ser 44016
cookshop 44013
warmth 44011
bolt 44009
blu@@ 43974
robust 43971
val 43954
representing 43906
logging 43899
tommy 43896
hub 43889
produc@@ 43884
89 43881
vs 43852
underlying 43849
waterproof 43847
hul@@ 43846
ave 43826
vic 43817
manchester 43810
clause 43807
phy@@ 43805
curved 43795
pulp 43794
▲ 43794
primarily 43791
74 43776
deer 43770
lessly 43770
izes 43767
ail@@ 43761
modulation 43758
chemotherapy 43753
lcd 43752
feast 43736
criterion 43720
boarding 43713
amusement 43706
ov 43706
awkward 43695
hat@@ 43686
goddess 43668
knees 43653
challenging 43641
poses 43627
stand@@ 43623
punish 43609
longest 43606
magnificent 43604
quasi 43600
reactive 43554
hits 43539
sandwich 43516
conscious 43514
shapes 43497
beneath 43493
civilians 43486
prof@@ 43484
fs 43470
basement 43465
environments 43461
arguments 43459
directional 43458
leap 43458
cancelled 43454
arctic 43451
extracted 43435
91 43427
effec@@ 43424
prote@@ 43416
transparency 43414
queue 43412
93 43403
pathological 43403
urge 43402
ical@@ 43398
xiaobian 43397
outpatient 43391
taylor 43375
tactics 43371
sty 43364
worries 43362
cleared 43346
edward 43340
ped@@ 43334
clerk 43329
multilateral 43323
carriage 43319
metallic 43319
complained 43307
sergeant 43305
indi@@ 43303
wipe 43302
lic 43295
prone 43284
sperm 43265
zhan@@ 43260
dirt 43255
assignment 43249
indirect 43245
even@@ 43235
slag 43230
ance@@ 43217
awake 43198
insiders 43195
revision 43194
dormitory 43188
geo@@ 43166
suv 43163
deposition 43150
isa 43143
authorization 43129
waiter 43124
shining 43116
constitute 43109
bored 43074
scary 43068
creature 43065
fragile 43049
thro@@ 43037
jason 43034
ningxia 43032
bbc 43019
antly 43009
planets 43009
minded 43002
nurses 42985
81 42978
cadre 42970
hot@@ 42967
tissues 42963
gourmet 42960
buffer 42957
annie 42945
ishi@@ 42943
tap@@ 42932
lisa 42931
come@@ 42928
fulness 42927
bra 42910
cam 42910
broader 42892
microscope 42888
sk 42888
cent@@ 42880
insert 42878
collaboration 42872
sou@@ 42871
applicant 42866
sends 42849
warn 42832
quar@@ 42825
peasants 42816
mesh 42812
jeans 42809
gratitude 42806
read@@ 42790
routing 42790
mexican 42782
ala 42774
fies 42768
sunlight 42768
workplace 42734
kit@@ 42721
lowered 42712
portfolio 42709
inspections 42705
projection 42696
shuttle 42683
consult 42675
glu@@ 42666
vel 42662
cyber 42649
tof@@ 42645
restored 42643
microstructure 42634
lithium 42631
idle 42626
gradient 42625
mann 42605
possession 42605
assured 42593
doubled 42580
rally 42559
jo 42558
rel@@ 42556
ep 42548
cough 42543
psycho@@ 42530
enables 42527
urgently 42525
lic@@ 42514
apparatus 42508
sp 42497
diving 42493
83 42485
emulsion 42479
treatments 42474
pei 42466
od 42463
matt 42441
permeability 42437
pillar 42434
ologic 42425
joints 42420
ational 42408
dock 42392
tting 42386
marrow 42385
garlic 42383
nanchang 42368
benchmark 42366
short@@ 42351
lobby 42349
champions 42336
dering 42336
abide 42332
jiangnan 42332
cr 42324
shad@@ 42316
fireworks 42313
sophisticated 42312
prosecutor 42296
arrogant 42295
hid 42294
behaviour 42287
liverpool 42272
fires 42268
butterfly 42266
emily 42258
dispersion 42256
retain 42255
slave 42254
polish 42243
worm 42242
unite 42238
scandal 42234
liqu@@ 42233
tomy 42223
cyto@@ 42221
anda 42220
compatibility 42215
ust 42197
ny@@ 42196
ati@@ 42193
magazines 42192
97 42186
searched 42184
shim@@ 42161
want@@ 42155
1960 42142
diversified 42140
hye 42125
ops 42125
ea 42115
translated 42113
harbor 42102
gorgeous 42097
ices 42092
1.2 42051
comply 42032
vir@@ 42029
calibration 42026
slogan 42014
enabled 42011
periodic 42009
practicing 42004
jewellery 42003
bobby 41992
breeze 41991
quanti@@ 41987
pilots 41971
amendment 41961
madam 41934
andi@@ 41927
affordable 41923
determin@@ 41914
boiling 41907
stationed 41902
pid 41900
carter 41882
ethical 41877
synchronous 41869
nearest 41864
elle 41854
examinations 41847
marking 41839
banner 41837
obey 41815
temperament 41803
night@@ 41802
dang@@ 41800
dialog 41799
quarantine 41795
most@@ 41793
attacking 41785
availability 41785
dongfang 41776
teng@@ 41776
sno@@ 41770
sweden 41757
dismissed 41755
stipulates 41746
torture 41743
coalition 41740
optic 41736
mentality 41703
asi@@ 41700
said@@ 41692
kan 41690
expertise 41687
ards 41685
speakers 41676
plenary 41645
corp 41639
punch 41635
subtle 41626
regulators 41621
advised 41619
nails 41613
pop@@ 41607
penetration 41593
rud@@ 41592
vietnamese 41590
carl 41587
hr 41586
drank 41578
sign@@ 41575
blasting 41566
deviation 41556
persistent 41556
dul@@ 41547
bathing 41528
ath 41511
grassland 41502
sail 41502
ibm 41501
validity 41476
hop 41475
ogenic 41467
deadly 41456
netherlands 41454
packages 41452
tracks 41443
cellular 41442
mom@@ 41442
every@@ 41435
body@@ 41429
rockets 41425
winding 41418
gradual 41414
lv 41408
use@@ 41399
burns 41393
unnecessary 41380
writes 41355
transient 41348
merchant 41346
gly@@ 41340
advancement 41330
aling 41313
enthusiastic 41311
prohibited 41310
scenario 41306
differently 41298
fame 41292
poured 41288
huo@@ 41281
edit 41277
ball@@ 41272
watch@@ 41248
enrollment 41244
sql 41236
disorders 41231
rival 41218
cang@@ 41210
stepping 41187
boundaries 41177
vivid 41164
deadline 41143
84 41141
encryption 41123
pioneer 41122
tariffs 41121
cc@@ 41107
dragged 41106
locks 41102
magnitude 41099
gor@@ 41092
him@@ 41081
vin@@ 41080
owns 41072
tmall 41064
reveals 41055
influenza 41037
lungs 41023
2.0 41016
bend 41004
folks 41001
scratch 40977
restriction 40963
kins 40953
ashamed 40943
fir@@ 40942
grammar 40940
flux 40938
macro@@ 40929
gou@@ 40925
oppose 40922
alists 40915
nasal 40914
lacking 40908
fashionable 40898
stam@@ 40898
volatile 40890
fragrance 40887
℃ 40885
doll 40884
radius 40884
still@@ 40869
first@@ 40849
scattering 40849
dumping 40844
sounded 40843
bachelor 40840
wis@@ 40833
kou@@ 40832
answering 40828
harsh 40824
conscience 40815
interfere 40809
it's 40786
thor@@ 40784
adi@@ 40782
fixation 40775
scal@@ 40770
authentication 40762
rays 40757
amine 40739
surfaces 40727
zip 40720
tense 40713
honored 40695
got@@ 40693
virtue 40684
fur 40665
lik@@ 40655
sorrow 40643
upcoming 40598
bucks 40589
frankly 40583
regulating 40582
democrats 40576
buti@@ 40572
izer 40569
fingerprint 40568
informal 40560
overtime 40557
libraries 40553
fort 40550
mia 40531
porous 40520
poll 40515
stimulation 40504
eff@@ 40503
lf 40456
mang@@ 40454
peach 40446
geun 40431
andrew 40425
skull 40420
jiad@@ 40419
lined 40413
unexpectedly 40409
referendum 40408
harmonic 40403
kindness 40403
180 40385
composites 40383
qiang@@ 40383
peri@@ 40379
voluntary 40366
boy@@ 40355
idol 40353
scare 40351
xinhuanet 40344
advertisements 40338
tomato 40326
actu@@ 40317
xes 40304
controversy 40302
obstacle 40294
frontier 40291
preserved 40283
void 40281
lers 40278
reserved 40269
sorts 40258
lighter 40251
bug 40246
nut 40244
infections 40236
deploy 40218
georgia 40209
addressed 40206
instability 40202
imagined 40200
shark 40199
convert 40196
reinforcement 40196
xiaol@@ 40182
call@@ 40181
downward 40181
jeou 40170
civilized 40158
ole@@ 40155
guiyang 40152
disciples 40150
persuade 40138
motive 40123
apps 40119
modules 40116
sum@@ 40113
path@@ 40112
exploitation 40103
intimate 40094
youcan@@ 40092
ishing 40074
uranium 40074
buddhist 40051
ater@@ 40050
printer 40050
ilian 40048
ame 40039
associations 40035
explored 40035
winners 40031
helen 40017
ios 40016
jerry 40006
autonomy 40000
sulfate 39993
veteran 39987
wrap 39987
rt 39986
uv 39981
prayer 39979
79 39978
adjustments 39978
rainbow 39968
receiver 39960
refund 39960
incomplete 39958
ara 39934
afghan 39927
acquisitions 39902
dissatisfaction 39895
kets 39882
goat 39880
viruses 39875
editing 39863
advocate 39847
arch@@ 39842
insect 39833
residue 39833
inclined 39829
patch 39810
tale 39806
businessmen 39802
armor 39798
been@@ 39794
hey@@ 39794
miao@@ 39794
sweater 39785
gener@@ 39777
stared 39748
inflammation 39743
faults 39741
limitations 39741
wounds 39732
genus 39730
desktop 39729
accessible 39728
valentine 39725
sli@@ 39724
duct 39719
upward 39715
carriers 39713
caring 39712
socks 39705
involvement 39691
ums 39690
loads 39685
peptide 39680
gil@@ 39677
devoted 39675
derivatives 39673
ranging 39657
destructive 39646
tized 39644
donated 39639
porridge 39620
stein 39604
heater 39600
would@@ 39590
kelly 39587
coatings 39572
relates 39571
shocking 39568
honda 39567
dilemma 39565
jiayuan 39559
alipay 39550
relies 39548
tz 39546
jersey 39544
pled 39544
reconnaissance 39544
buffet 39540
revenues 39536
phen@@ 39523
graphy 39520
grains 39509
ischemia 39504
repaired 39490
magne@@ 39487
victoria 39487
fascinating 39486
safer 39479
journalist 39478
divorced 39477
sure@@ 39470
competing 39467
ros@@ 39459
strangers 39444
todd 39441
posture 39422
nag@@ 39421
beverage 39416
gardens 39416
inherent 39416
responses 39416
alizing 39412
evolved 39411
kir@@ 39403
taiyuan 39396
trash 39395
pac@@ 39380
parked 39377
conception 39373
eling 39371
las 39363
dot 39355
unions 39349
patents 39343
newsstand 39341
portrait 39341
simplified 39338
relaxation 39337
lamps 39335
allergic 39330
vent 39304
mother@@ 39293
archives 39282
ite@@ 39281
03 39267
reproductive 39262
consistency 39258
subjective 39258
kat@@ 39211
anyi 39209
distinct 39209
scheduling 39205
lor@@ 39200
outlet 39189
echo 39186
shaxian 39185
aerial 39183
won@@ 39178
bos@@ 39177
kernel 39166
life@@ 39160
glo@@ 39152
springs 39124
angles 39121
varying 39117
astronauts 39116
escort 39110
cardiovascular 39104
diabetic 39093
dou 39093
trail 39087
reli@@ 39078
photographer 39071
operative 39067
nutritional 39056
possibilities 39050
pudong 39044
cheating 39042
coll@@ 39041
dispatched 39026
power@@ 39021
gli@@ 39018
liao@@ 39015
discrete 39002
jean 38999
break@@ 38989
undertake 38977
xy@@ 38975
baggage 38969
kal@@ 38955
annoying 38926
haier 38920
pakistani 38920
db 38919
belonging 38912
borders 38907
spider 38904
mansion 38898
genuine 38873
94 38872
jay 38861
horizon 38854
sare@@ 38844
compatible 38843
turn@@ 38841
scotland 38836
studyon@@ 38835
bat 38822
react 38822
dropping 38815
sweetheart 38812
unveiled 38801
donor 38798
nap@@ 38787
200,000 38786
flap 38786
accordingto@@ 38783
legacy 38780
packet 38777
arena 38772
zong@@ 38755
sponsored 38744
stove 38741
wn@@ 38737
adopting 38730
curse 38727
tofu 38698
inde@@ 38690
dit@@ 38689
only@@ 38673
jer@@ 38672
legally 38668
purity 38641
blood@@ 38640
shijiazhuang 38634
strains 38631
triangle 38629
fat@@ 38624
lacks 38623
sheriff 38619
amplitude 38616
struc@@ 38613
atten@@ 38598
ladder 38594
renovation 38583
spleen 38573
dull 38571
lesions 38570
sailing 38569
claiming 38567
fifteen 38567
entities 38548
rhe@@ 38540
spe@@ 38524
mentioning 38513
beams 38511
slim 38503
humidity 38501
assumed 38491
relieve 38489
guitar 38485
ula 38485
closure 38479
cracked 38474
bio 38469
poland 38469
sai 38469
focal 38468
posterior 38467
3.5 38444
rushing 38444
hated 38441
coma 38435
frog 38433
pos@@ 38426
sediment 38424
understands 38414
systematically 38413
chandler 38401
mum 38392
benz 38375
jud@@ 38365
cubic 38358
vic@@ 38356
congenital 38352
tends 38350
xun@@ 38350
mar 38340
warrior 38335
counted 38328
ginger 38324
goo@@ 38324
ig 38313
liar 38313
sentiment 38305
analy@@ 38303
invalid 38294
confucius 38292
sion@@ 38291
vary 38273
pavement 38271
bet@@ 38262
sor 38260
duke 38258
aer@@ 38257
rented 38248
resulted 38239
mp@@ 38234
primitive 38227
road@@ 38227
ile@@ 38225
integrating 38222
fatal 38204
accountant 38203
emphasizes 38193
reads 38184
administrator 38178
tioned 38178
uan 38178
cnn 38169
maria 38168
ja 38166
za@@ 38161
sey 38153
cherish 38152
illumination 38147
crab 38142
sandy 38104
treasures 38101
secre@@ 38098
zation 38096
ambition 38083
surrender 38079
hun 38074
chairs 38064
jews 38064
bless 38056
holders 38035
resolutions 38032
improvements 38028
attractions 38020
credibility 38008
sher@@ 38008
gum 38007
jack@@ 38005
wears 37996
regeneration 37994
ut@@ 37991
admire 37957
negotiating 37955
interact 37953
gree 37951
polarization 37935
locate 37933
engagement 37932
tac@@ 37932
okay@@ 37930
gases 37926
undergoing 37926
commitments 37924
squeeze 37921
phe@@ 37917
testimony 37913
fashioned 37902
emma 37901
stal@@ 37901
blair 37896
argued 37889
downturn 37882
stricken 37875
sizes 37873
oilfield 37868
drain 37862
thecon@@ 37858
geometric 37849
west@@ 37847
ambitious 37826
tenth 37812
antigen 37810
moses 37806
corrupt 37805
fam@@ 37777
illusion 37762
jake 37762
0,000 37760
apology 37757
methyl 37756
cool@@ 37754
commissioner 37751
meantime 37748
mediation 37741
neurons 37737
rainy 37734
farmland 37733
mobility 37732
sticks 37727
demanded 37725
niu@@ 37722
heavens 37705
expressing 37700
pill 37700
part@@ 37694
hea@@ 37691
shrink 37691
ballistic 37686
approached 37682
traders 37677
inv@@ 37676
infringement 37671
acne 37668
suppression 37656
tragic 37652
band@@ 37648
eless 37645
roses 37645
bed@@ 37642
kinetic 37626
centered 37619
8,000 37614
two@@ 37611
hemorrhage 37608
mri 37600
noisy 37600
ila 37596
buddhism 37594
cy 37578
ongoing 37576
wildlife 37568
judged 37567
chol@@ 37566
io 37566
debris 37561
consume 37558
nucleus 37542
cleaner 37535
rho@@ 37530
personalized 37529
regards 37525
alleged 37524
diary 37524
ambulance 37519
cone 37513
oven 37504
extr@@ 37496
observer 37493
arguing 37492
zhe 37483
cultivating 37477
wardrobe 37472
acc@@ 37467
fetal 37461
td 37456
adapted 37454
reasoning 37454
wives 37453
essay 37433
troubled 37431
cameron 37425
clue 37417
leverage 37414
comparable 37412
sculpture 37406
floors 37404
wit 37403
semester 37400
sni@@ 37400
pumping 37399
comedy 37391
intentions 37391
lumbar 37390
vegetation 37388
frightened 37376
distortion 37372
potentially 37372
reef 37370
thing@@ 37358
tiles 37357
buttons 37348
ater 37343
barber 37342
nal 37340
xincheng 37339
extra@@ 37336
check@@ 37333
epi@@ 37329
dm 37305
inal 37286
beg 37285
fc 37284
miami 37264
tory 37247
toast 37244
thorough 37234
olo@@ 37228
grilled 37214
obtaining 37200
arriving 37199
ishang 37188
insight 37181
pleas@@ 37179
assay 37169
vivo 37169
big@@ 37165
icing 37155
closest 37147
threaten 37147
forecasting 37144
nano@@ 37131
kyodo 37126
robbed 37125
firing 37122
imf 37121
gloves 37119
nets 37112
lions 37103
motor@@ 37094
glorious 37093
towel 37093
tivity 37091
guides 37073
bloom 37072
farms 37067
tightly 37062
hedge 37050
artillery 37047
phil@@ 37045
rin@@ 37044
ied 37042
dad@@ 37039
desired 37035
wanting 37027
flooding 37025
suspicion 37013
throne 37010
decorated 37004
tive@@ 36996
aesthetics 36959
pope 36958
benign 36954
cab 36943
romance 36943
consolidation 36941
evaluating 36930
nas@@ 36921
asthma 36911
experiencing 36910
gossip 36903
attempted 36887
alkali 36884
murderer 36876
occupational 36867
catholic 36862
sudan 36857
legendary 36843
mommy 36839
preserve 36839
broad@@ 36832
rat@@ 36829
soccer 36827
hug 36826
proceed 36806
sui 36802
execute 36795
medication 36790
inc 36785
economical 36781
oste@@ 36780
casserole 36772
draws 36771
cheer 36763
screaming 36762
gging 36761
radioactive 36760
6,000 36749
deserves 36747
balloon 36740
simulate 36722
kov 36720
log@@ 36715
exploded 36704
apo@@ 36696
photograph 36692
blessed 36684
incentives 36683
graft 36670
wol@@ 36670
mates 36662
pd 36659
requiring 36658
injected 36654
guinea 36647
lucy 36647
elled 36638
fertility 36635
unlimited 36633
hec@@ 36631
substrate 36623
cross@@ 36620
dump 36611
filtration 36610
perfection 36609
rok 36604
1.3 36588
witch 36586
issuing 36578
carbon@@ 36569
circulating 36566
supervise 36557
minim@@ 36555
oms 36549
tetra@@ 36547
jim@@ 36541
130 36537
suggesting 36516
kissed 36512
nong@@ 36504
surprisingly 36500
thrust 36491
turmoil 36488
compiled 36480
bearings 36475
compressor 36474
wai 36448
pillow 36439
bodycare 36436
livestock 36430
mers 36423
synthesized 36421
thanksgiving 36418
striking 36407
amplifier 36403
corners 36399
orthogonal 36371
tht 36369
ice@@ 36368
consisting 36349
molding 36347
embrace 36342
audi 36332
carnival 36331
pain@@ 36329
fork 36326
aly@@ 36324
compensate 36317
bombing 36310
gauge 36297
boxing 36293
recruit 36292
postoperative 36291
tubes 36287
domin@@ 36279
characterization 36278
isi 36275
tations 36274
ifu 36272
contractor 36271
microcomputer 36266
carbonate 36252
imprisonment 36252
eye@@ 36251
anyu 36248
bribery 36248
lap@@ 36248
cs@@ 36245
republicans 36245
awful 36240
shaping 36236
shells 36230
consultative 36229
hazard 36226
chickens 36225
speeches 36225
12.@@ 36214
supervisor 36208
slipped 36206
affection 36198
jiazhuang 36195
ag 36194
prompt 36185
miserable 36184
stephen 36176
situ 36162
elling 36148
att@@ 36118
human@@ 36117
poultry 36116
helpless 36112
multinational 36109
efficiently 36104
occasions 36097
sludge 36080
inverse 36047
glue 36046
downs 36045
notebook 36044
guilin 36042
eliminating 36022
observers 36022
terror 36022
toes 36019
pigment 36018
boeing 36014
interim 36009
ru 36007
husbandry 36004
misunderstanding 35999
doppler 35993
200@@ 35990
bic@@ 35986
distinctive 35984
hawaii 35983
populations 35982
mist 35981
referring 35981
antibiotics 35976
xed 35968
ridge 35956
racial 35955
conservancy 35953
subscription 35952
mould 35946
stre@@ 35928
currencies 35927
maize 35925
need@@ 35923
crystals 35913
verse 35891
panels 35885
soda 35878
telescope 35877
rooted 35872
mes 35867
resignation 35859
1.6 35848
kennedy 35841
i'm 35834
rein@@ 35828
receives 35816
faint 35803
nodded 35803
norms 35800
costume 35795
cows 35785
substitute 35782
09 35777
pig@@ 35777
cups 35776
customized 35767
stays 35757
openness 35754
passionate 35745
roger 35744
irish 35731
pr 35728
scra@@ 35721
selfish 35721
counseling 35720
bare 35714
renewable 35706
questioning 35697
localization 35692
roasted 35691
semantic 35676
physically 35670
confession 35669
dom 35667
irregular 35664
shipped 35637
oming 35635
terrain 35634
donkey 35633
defending 35630
inspector 35627
randomly 35617
taliban 35615
accomplish 35614
cry@@ 35602
invasive 35582
congestion 35574
coil 35572
itwas@@ 35561
stipulated 35560
synchronization 35559
failing 35553
radial 35551
howard 35546
cardi@@ 35527
measurements 35520
implications 35518
strings 35518
volcanic 35514
them@@ 35508
kon@@ 35499
interpret 35461
jokes 35461
serv@@ 35456
partition 35455
tune 35454
advocated 35450
mai@@ 35443
deleted 35438
cad@@ 35424
medicinal 35424
debut 35422
kilograms 35414
pil@@ 35402
deceased 35401
angels 35394
groundwater 35394
lipid 35388
ented 35383
majesty 35383
tible 35379
refugee 35378
virgin 35365
hplc 35362
certified 35356
curb 35349
quantities 35324
thereare@@ 35316
free@@ 35315
boiled 35311
proven 35309
tactical 35304
compatriots 35302
manicure 35298
huai 35283
ographic 35271
violate 35262
tus 35259
marathon 35253
06 35252
maintains 35246
eats 35239
souls 35234
vapor 35224
mit 35222
temporal 35206
sunset 35205
slower 35204
locking 35197
references 35188
viewed 35183
plas@@ 35181
demolition 35179
seemingly 35178
abortion 35154
yel@@ 35154
pencil 35153
woven 35150
ipo 35149
acro@@ 35144
helicopters 35134
magnet 35132
curves 35128
ft@@ 35128
stor 35127
originated 35125
circuits 35123
folding 35118
iro 35117
nba 35116
reminder 35113
tail@@ 35107
coincidence 35100
boulevard 35097
grief 35095
tensions 35092
slice 35087
ces@@ 35083
phil 35082
maid 35071
documentary 35048
old@@ 35042
esti@@ 35041
ooh 35025
inorganic 35015
baobei 35013
xiong@@ 35004
deaf 34999
tuition 34991
mutually 34990
repairing 34989
seas 34988
evident 34986
stance 34976
i'll@@ 34968
0.5 34966
geography 34955
sigh 34952
fractures 34950
pete 34924
hence 34917
impe@@ 34917
nevertheless 34915
mutation 34910
segmentation 34906
ht 34905
pass@@ 34903
decorative 34902
thy@@ 34891
disney 34888
gie 34888
aqu@@ 34882
identical 34880
loses 34875
inhibition 34871
advise 34870
raises 34865
sible 34864
narrative 34863
screens 34860
warrant 34850
haw@@ 34847
madrid 34845
thumb 34837
exp@@ 34835
luke 34831
whale 34825
bullets 34823
wed@@ 34822
04 34818
myth 34817
direc@@ 34803
walker 34798
observations 34796
ultraviolet 34796
ideals 34795
airborne 34794
surfing 34782
ace@@ 34779
digging 34777
failures 34771
translate 34771
seasonal 34769
β 34768
assembled 34765
replacing 34763
cambridge 34758
stuffed 34756
ose 34755
sleeve 34754
usi@@ 34744
visitor 34732
pollutants 34724
seattle 34714
complement 34711
although@@ 34710
initiatives 34707
agrees 34697
ammonia 34697
horror 34692
ene@@ 34685
til@@ 34681
conver@@ 34680
hatred 34676
reasonably 34675
researches 34664
idi@@ 34658
torch 34652
nantong 34651
plating 34645
damages 34643
notification 34643
hardness 34642
constructive 34630
questionnaire 34615
qualcomm 34611
inthis@@ 34610
jiashan 34608
additives 34602
ethanol 34602
stretched 34597
dumb 34588
bladder 34583
demonstrates 34583
annan 34570
fist 34567
ving@@ 34567
exceeding 34566
mal 34561
supplied 34546
texts 34535
sweep 34522
defines 34521
nerves 34509
ipad 34508
impulse 34493
interrupt 34493
ound 34479
tter 34479
dave 34475
spine 34475
keqiang 34466
yangzhou 34455
gel@@ 34446
emerge 34438
sanitation 34437
crush 34436
anesthesia 34435
rain@@ 34435
olive 34433
qualitative 34431
fru@@ 34429
vil@@ 34426
companion 34416
gin@@ 34408
typing 34397
mc 34395
promptly 34383
mam@@ 34371
eli 34365
tain@@ 34358
repe@@ 34357
stamps 34356
larry 34352
expose 34341
analysed 34336
conditioner 34332
tes@@ 34314
slo@@ 34308
smells 34308
curiosity 34299
colon@@ 34289
iming 34283
07 34279
alloys 34277
weakened 34275
ushered 34256
shade 34248
aim@@ 34245
areyou@@ 34242
titles 34236
conductor 34229
oxford 34228
geneva 34220
pot@@ 34218
kim@@ 34215
swallow 34205
clip 34180
ols 34177
ared 34175
anonymous 34173
entrepreneur 34169
theorem 34166
prognosis 34157
spectrometry 34151
stock@@ 34149
modest 34148
icated 34141
fred 34140
pressures 34138
photographs 34137
asshole 34135
jungle 34134
icon 34123
lev@@ 34119
tires 34119
div@@ 34117
bandwidth 34116
stabilize 34103
cau@@ 34102
regulated 34098
tangshan 34090
runner 34089
beloved 34085
clin@@ 34077
literally 34075
behave 34073
ani 34070
logy 34060
traces 34056
adhesion 34048
slowed 34047
slowdown 34046
gary 34038
startup 34036
competitions 34032
manhattan 34027
exported 34021
hesitate 34020
brexit 34003
decides 34001
attitudes 33999
assure 33994
console 33994
filters 33989
amed 33976
cooperated 33975
convey 33969
switched 33968
curing 33965
merkel 33965
interrupted 33962
inclusive 33958
hamburger 33952
summarize 33940
scar 33939
discourse 33937
weigh 33924
dividend 33908
trips 33908
cupboard 33902
limbs 33895
bir@@ 33891
cartoon 33883
spontaneous 33875
adaptation 33873
deb@@ 33872
oni@@ 33870
enta@@ 33869
alk@@ 33866
appe@@ 33864
retrieval 33836
anytime 33828
right@@ 33822
fer 33811
zong 33810
tariff 33796
distinguished 33781
nutrient 33781
thi 33781
ancy 33775
shing 33775
drift 33770
destroying 33761
electro 33760
enting 33754
booked 33753
wilson 33752
coordinates 33732
sore 33727
ghosts 33722
piles 33721
peers 33714
nightmare 33705
disturbance 33703
amid 33697
olin 33693
spherical 33693
oe 33691
1950 33679
billiards 33677
partially 33675
applause 33671
filing 33670
smuggling 33669
wh 33668
consolidate 33663
since@@ 33663
roy 33662
zedong 33662
practitioners 33652
repay 33639
longitudinal 33637
uber 33634
closet 33633
tensile 33627
purely 33623
usion 33616
float 33615
fishermen 33597
condemned 33594
inated 33591
calculations 33575
ect 33566
cumulative 33555
shouting 33550
flames 33541
bou@@ 33535
possess 33531
specifies 33525
sellers 33522
internationally 33519
suburbs 33500
zte 33500
indonesian 33499
sab@@ 33494
boot 33493
nation@@ 33491
calories 33488
territories 33482
ange 33456
geometry 33452
dow@@ 33445
fraction 33433
polymerization 33432
betty 33430
scenarios 33422
tech@@ 33422
bun 33421
chengxin 33405
businessman 33402
develop@@ 33387
tribute 33382
breed 33381
lawn 33376
advocates 33375
wallpaper 33372
mcdonald 33361
quote 33357
spir@@ 33352
backs 33349
metry 33347
simultaneous 33346
suppress 33346
techn@@ 33344
barbering 33333
positively 33332
floods 33318
mediterranean 33304
containers 33291
till@@ 33287
gt 33285
popul@@ 33276
nc 33275
rey 33271
extending 33259
shuang 33255
farther 33249
yards 33249
downstream 33237
four@@ 33229
ami 33216
loudly 33207
gig@@ 33204
successively 33200
strengths 33196
sweeping 33192
valves 33192
technically 33189
huizhou 33188
cholesterol 33182
sadness 33181
yields 33174
dum@@ 33171
claire 33168
luoyang 33167
pla 33167
considerations 33165
structured 33164
collector 33150
placement 33145
stunned 33143
minimize 33140
accomplished 33136
piston 33129
urinary 33129
jam 33105
recipe 33104
refining 33104
disgusting 33093
michelle 33092
nong 33089
supervisory 33085
arbitrary 33077
acti@@ 33074
railways 33071
lad@@ 33063
pang@@ 33060
updates 33056
donate 33050
bishop 33033
trafficking 33028
bac@@ 33024
diff@@ 33016
automated 33015
triple 33010
inseparable 33000
vendors 33000
suo 32997
respects 32995
fossil 32988
las@@ 32987
bees 32986
confessed 32985
crafts 32983
molecule 32982
demo@@ 32967
160 32964
ens@@ 32961
favour 32960
asses 32958
ers@@ 32958
declining 32955
confidential 32951
essi@@ 32947
earthquakes 32945
polls 32944
gue 32939
withstand 32939
wasted 32930
pore 32917
corn@@ 32907
sneak 32905
rewards 32896
ked@@ 32893
suck 32891
dramatically 32886
buc@@ 32884
aggregate 32880
oscar 32878
insists 32874
consciously 32873
taizhou 32866
absent 32863
vert 32857
onthe 32856
sd 32845
alleviate 32842
traditions 32842
itated 32841
blanket 32833
wrist 32818
champagne 32817
obsessed 32811
pneumatic 32805
premature 32804
mongolian 32798
cho 32784
conce@@ 32768
optimizing 32767
unchanged 32766
rivals 32762
iv 32755
installing 32750
pyramid 32744
allocated 32742
marx 32742
cad 32734
thirds 32731
rumor 32729
whe@@ 32729
intr@@ 32728
hates 32724
jazz 32724
swedish 32720
inherited 32717
app@@ 32713
relieved 32713
ref@@ 32710
aii 32708
undergone 32694
ino@@ 32689
zeng@@ 32684
diamonds 32675
exams 32670
passi@@ 32667
xiangyuan 32667
knight 32647
atoms 32635
audi@@ 32633
stin@@ 32632
retention 32630
ez 32629
tless 32622
tiantian 32618
sean 32615
sis@@ 32607
inte@@ 32605
rationality 32597
attachment 32595
ries 32588
weaker 32585
jiahe 32579
pcr 32579
beard 32575
colony 32573
seedlings 32570
decreases 32564
wires 32558
duan 32557
releasing 32553
spi@@ 32550
liberty 32541
limitation 32539
olds 32538
speeds 32525
disarmament 32518
350 32515
must@@ 32479
addresses 32477
enjoys 32474
eurozone 32471
shimbun 32470
protesters 32468
esophageal 32466
sided 32459
state@@ 32455
rene 32453
authoritative 32449
don't 32448
n't@@ 32447
ication 32443
innovate 32443
ached 32436
hostile 32426
blend 32415
} 32410
plac@@ 32392
risky 32386
foolish 32383
optional 32373
homeland 32368
traits 32347
cation 32340
reunification 32340
robin 32337
oph@@ 32333
hopefully 32317
ankle 32314
alexander 32307
yogurt 32307
bands 32306
investigators 32305
colonial 32281
fragrant 32273
sincerity 32273
abc 32252
sten@@ 32251
gram 32247
dissatisfied 32238
sally 32238
pier 32235
whi@@ 32231
conductivity 32228
farewell 32221
altar 32218
steep 32217
bail 32208
ises 32205
rover 32199
inaddition@@ 32198
▼ 32195
jan 32189
sep@@ 32188
cham@@ 32185
resigned 32184
ky@@ 32180
systemic 32171
hiring 32170
dge 32166
homeless 32165
stiffness 32159
fluctuations 32140
spark 32134
tab 32131
terminals 32121
jacob 32116
intent 32113
odds 32113
stewed 32113
okinawa 32111
leasing 32092
concourse 32088
booking 32082
jar 32082
grow@@ 32079
rang 32077
arsenal 32076
youngest 32073
excavation 32056
illa 32056
bias 32054
sometime 32048
additive 32034
xiaoping 32031
teaches 32030
materi@@ 32029
fulfilled 32026
ced 32025
curative 32025
bud 32018
mian 32017
gastrointestinal 32015
fundamentally 32013
reproduction 32012
inland 32001
scream 32001
prey 31994
cylindrical 31955
mere 31941
dd 31928
vicious 31913
chron@@ 31903
gent 31903
lot@@ 31891
miller 31887
jar@@ 31874
fas@@ 31873
α 31869
ax 31857
forefront 31857
torn 31853
iike 31850
leukemia 31848
open@@ 31844
abdomen 31839
refrigeration 31832
tem 31827
textbooks 31824
landlord 31822
broker 31821
neil 31821
tec@@ 31819
eddie 31813
coral 31812
white@@ 31808
ditch 31807
assi@@ 31806
transitional 31800
warriors 31798
steven 31796
whereas 31792
carving 31787
methane 31781
mn 31781
completing 31764
slaves 31759
peer 31756
turtle 31741
light@@ 31740
ee@@ 31735
hurricane 31734
bypass 31729
ington 31728
sina 31722
forehead 31720
targeting 31708
observ@@ 31705
tty 31701
ship@@ 31700
swelling 31698
juvenile 31683
author@@ 31681
xie@@ 31679
rus@@ 31665
quota 31658
tuo 31652
aw 31649
competence 31649
dug 31649
balcony 31645
crushed 31629
upstream 31627
bot@@ 31621
shout 31603
accommodate 31602
marke@@ 31601
breach 31599
twisted 31597
saturated 31596
mrs. 31589
bullshit 31587
twist 31582
counterfeit 31580
amanda 31563
oils 31559
maxim@@ 31558
twins 31555
globe 31549
commands 31545
linyi 31545
distribute 31538
herbs 31534
lock@@ 31519
lap 31495
notified 31495
discre@@ 31494
led@@ 31485
reversed 31482
freak 31476
kn@@ 31475
dreaming 31473
swe@@ 31470
overhead 31465
could@@ 31464
humble 31460
fair@@ 31459
outlets 31445
privately 31439
muslims 31431
“@@ 31427
tr 31421
acks 31418
storms 31414
hon 31403
wondered 31398
innovations 31387
distress 31384
johnny 31384
summarizes 31381
monkeys 31380
lime 31374
screwed 31370
spite 31368
duo@@ 31361
fry 31357
adap@@ 31356
sper@@ 31336
maybe@@ 31334
gordon 31331
turing 31326
compressed 31325
plc 31321
reas@@ 31309
sf 31309
nur@@ 31302
baking 31289
cart 31285
considers 31285
jinhua 31279
mighty 31279
modern@@ 31278
zui 31267
diarrhea 31266
acknowledged 31262
countermeasure 31262
tured 31259
trajectory 31258
wes@@ 31255
wetland 31255
encourages 31251
vinegar 31249
1.4 31242
cell@@ 31238
grape 31235
aton 31232
observatory 31225
docking 31224
dig@@ 31218
dedication 31217
warnings 31211
maximize 31210
ordering 31194
cottage 31190
wul@@ 31190
chy 31184
embryo 31176
computation 31170
4.5 31158
entrusted 31157
blamed 31148
nozzle 31143
construc@@ 31134
shadows 31132
rom 31130
sympathy 31126
hypothesis 31123
cancellation 31120
documentation 31119
tness 31118
brid@@ 31114
arly 31107
fined 31102
lightly 31093
scholarship 31092
organisms 31087
vain 31085
vampire 31085
spit 31078
assuming 31072
1.8 31071
acu@@ 31068
ration@@ 31066
coc@@ 31065
7,000 31064
sai@@ 31055
ses@@ 31052
heal 31051
regulator 31050
pockets 31048
chrome 31045
gab@@ 31041
tened 31039
bian@@ 31036
oured 31035
sins 31034
gem 31027
advancing 31021
exterior 31017
fluctuation 31011
submarines 31011
majors 31010
painter 31009
err@@ 31001
hygiene 31001
realizes 30993
profitability 30985
refreshing 30976
staged 30976
kidnapped 30972
shaw 30970
comic 30966
traction 30958
plat@@ 30956
responding 30949
stle 30942
sus@@ 30937
bron@@ 30929
daf@@ 30929
filming 30916
kis@@ 30911
ache 30906
exi@@ 30894
cookies 30884
ills 30865
donald 30864
cing 30863
ogram 30863
marxism 30857
,000 30854
stimulating 30854
caribbean 30851
rejection 30851
guilt 30847
conferences 30843
centres 30829
meth@@ 30826
bert 30821
paths 30819
survivors 30818
venues 30812
insured 30803
adviser 30800
athlete 30798
laptop 30792
clusters 30789
elec@@ 30784
similarity 30783
shifting 30782
mandatory 30776
dos 30774
gland 30773
bacon 30770
richest 30769
kie 30768
forging 30765
transcen@@ 30764
ignition 30762
goldman 30760
ght 30752
0,@@ 30751
unemployed 30748
ded@@ 30747
mobilization 30742
benzene 30735
wavelength 30732
banana 30729
dem@@ 30718
tuc@@ 30717
ruins 30710
folded 30706
textbook 30704
philosophical 30703
worlds 30696
camps 30694
manufactured 30688
leo 30687
preference 30680
tee 30676
backbone 30671
karen 30665
ug@@ 30659
kills 30655
sm 30649
genesis 30644
gir@@ 30644
ence@@ 30616
inspire 30616
priorities 30612
mentally 30610
shakespeare 30601
consumed 30595
zhuo@@ 30595
cape 30593
ture@@ 30592
chro@@ 30587
scales 30575
discharged 30573
owed 30572
mini@@ 30566
gesture 30558
isha 30553
mari@@ 30551
mos 30544
south@@ 30540
ribs 30537
ook 30536
consuming 30528
physician 30527
make@@ 30522
hm 30516
vague 30512
mandarin 30509
cultured 30506
expounds 30499
tia 30494
handmade 30487
gaze 30485
dreamed 30483
incredibly 30481
requ@@ 30471
bargain 30469
ison 30468
photographed 30468
capillary 30467
sesame 30466
suitcase 30466
transported 30465
blockchain 30460
identifying 30460
chel@@ 30459
allegations 30456
eas@@ 30454
ele 30451
cooled 30448
unwilling 30448
interpreted 30446
biochemical 30444
bonding 30443
bes 30441
archi@@ 30434
einstein 30427
ologists 30425
proceedings 30425
sely 30421
stems 30421
carved 30416
recruited 30416
ashan 30415
pretending 30410
thyroid 30403
inspected 30395
pesticide 30395
sol 30387
wasting 30382
celebrities 30380
seedling 30378
traded 30378
macau 30369
wines 30368
qun 30367
method@@ 30359
acres 30355
kur@@ 30354
wiped 30354
cognition 30348
igang 30347
laura 30347
monk 30347
die@@ 30346
inappropriate 30346
milling 30345
proto@@ 30338
wished 30332
setup 30331
toe 30331
junk 30327
kiln 30327
bill@@ 30314
shenzhou 30314
specialist 30310
poly 30306
xuzhou 30306
fit@@ 30287
é 30284
licenses 30282
williams 30276
pseudo 30275
wandering 30272
stubborn 30260
manned 30255
merge 30253
pouring 30253
300,000 30252
disturbed 30249
spectra 30247
uck 30240
volatility 30238
renewal 30234
goodness 30221
bore 30220
ationof@@ 30215
patrick 30214
vc 30214
tax@@ 30212
500,000 30202
travels 30199
overwhelming 30192
bia 30185
hearted 30171
shinzo 30169
constraint 30168
haikou 30166
addiction 30162
linkage 30162
andi 30160
peaks 30159
donations 30151
seam 30143
kung 30126
imitation 30121
indication 30118
pursued 30118
pledge 30117
perfume 30113
prompted 30112
couch 30110
yeast 30109
obstruction 30105
lows 30099
intentional 30098
cp 30096
gaza 30095
yulin 30089
ari 30084
cucumber 30084
itation 30080
burnt 30072
metres 30072
atlanta 30059
weighted 30059
sequ@@ 30058
symptom 30056
ams 30044
sits 30042
peanut 30041
suction 30040
tag@@ 30036
semi@@ 30031
induce 30030
malicious 30030
fon@@ 30028
tournament 30027
unfortunate 30027
tified 30012
yantai 30008
gus 30003
hierarchy 30003
extrusion 29998
dale 29996
invoice 29982
speeding 29971
races 29970
hydr@@ 29968
environmentally 29964
phenol 29960
moumou 29959
barrels 29955
happier 29951
casino 29945
polyester 29943
silently 29941
attaches 29935
dispatch 29930
warships 29926
eligible 29918
militants 29917
elders 29910
tray 29910
traumatic 29908
lectures 29906
atom 29905
hormones 29903
excitation 29901
bonded 29896
ature 29894
accumulate 29893
honour 29890
commentary 29884
capitalism 29883
bilingual 29882
flat@@ 29879
ona 29879
140 29875
recruiting 29874
@ 29867
rectangular 29864
absorbing 29856
ste 29841
1989 29839
idi 29839
halloween 29827
activate 29824
fab@@ 29823
wolves 29823
assurance 29814
smallest 29812
sanya 29811
ashed 29807
chloro@@ 29807
vocal 29801
lasts 29794
iter@@ 29787
cyclic 29785
bankers 29778
dag@@ 29774
geographic 29774
inspect 29771
struggled 29771
iao 29770
corporations 29765
monitored 29764
boun@@ 29762
zhon@@ 29759
carolina 29758
northeastern 29755
ethylene 29752
themes 29751
ohio 29743
baked 29738
nepal 29737
weekends 29736
inserted 29729
genic 29727
notify 29727
reservoirs 29723
ager 29722
crystalline 29716
limb 29713
cutter 29704
limiting 29700
airports 29695
someday 29690
puzzle 29678
aping 29677
bubbles 29675
germans 29672
reviewing 29669
bull@@ 29668
zhuo 29667
runway 29662
slab 29660
transverse 29657
kor@@ 29656
sco 29651
thieves 29648
onion 29642
alley 29636
foil 29633
yijia 29633
cabbage 29631
viewers 29631
allowance 29628
wards 29625
40,000 29616
kenya 29612
alistic 29601
pandemic 29600
wai@@ 29598
reconciliation 29594
aki 29590
ophy@@ 29585
sohu 29579
behavioral 29576
diego 29574
sta 29572
bribes 29561
prevented 29555
popularization 29545
sui@@ 29543
dd@@ 29528
shin@@ 29527
induc@@ 29526
confusing 29523
posed 29523
ruler 29518
suspend 29517
arrives 29511
irradiation 29509
evolutionary 29504
ultra@@ 29502
minorities 29499
despair 29493
pedestrian 29493
pixel 29492
ishes 29490
phoebe 29490
retailers 29490
playground 29484
alike 29483
reject 29476
polluted 29474
spor@@ 29467
conclude 29461
malaysian 29461
pharmac@@ 29460
alpha 29452
spectroscopy 29451
temptation 29449
ican@@ 29445
navi@@ 29442
describing 29438
ities 29435
brokerage 29433
mir@@ 29431
tigers 29431
transplant 29427
alle@@ 29424
plu@@ 29418
arise 29415
mat 29414
surgeon 29409
kilometer 29408
accountability 29400
potter 29379
formaldehyde 29378
aaron 29375
reco@@ 29373
succession 29364
locals 29363
cheat 29362
cer 29358
contr@@ 29355
sof 29355
believers 29344
flooded 29341
lobster 29338
rankings 29337
dazzling 29335
dell 29334
slot 29324
aura 29321
13.@@ 29312
battles 29311
loneliness 29310
pneumonia 29309
supplementary 29308
manganese 29306
indians 29304
necklace 29288
ables 29287
alkaline 29283
fuyuan 29276
kling 29276
venous 29275
heights 29264
gorges 29258
ogou 29252
row@@ 29249
idong 29244
substantive 29241
heels 29240
cambodia 29231
lg 29228
demonstrations 29227
presidency 29226
n't 29224
trans 29216
tsunami 29216
gation 29205
consulate 29203
digestive 29197
politically 29183
isol@@ 29182
excellence 29178
mill@@ 29170
vitamins 29168
ately 29166
collagen 29163
arti@@ 29158
cloning 29150
slowing 29143
endothelial 29140
plains 29140
mergers 29135
poster 29133
complementary 29129
roman@@ 29118
skip 29114
tery 29111
nissan 29108
earth@@ 29107
contaminated 29103
delays 29103
gall@@ 29101
machin@@ 29093
candle 29092
scoring 29092
gis 29084
wilderness 29072
openly 29069
lounge 29067
vladimir 29063
oxy@@ 29055
bruce 29048
emp@@ 29048
fuels 29045
apec 29038
conserv@@ 29034
improper 29028
mandate 29027
ammunition 29025
sung 29021
assumption 29020
observing 29020
dents 29019
econ@@ 29018
faithful 29010
weighing 29007
rebuild 29005
penalties 29001
proposition 28992
ood 28991
house@@ 28985
dialect 28984
decreasing 28982
dges 28981
rack 28975
communic@@ 28972
cong@@ 28972
visibility 28969
tra 28967
17.@@ 28965
barcelona 28965
ix 28964
jial@@ 28942
hemo@@ 28939
lessness 28939
abraham 28938
moto 28935
conf@@ 28933
dent@@ 28933
restrict 28931
aster 28927
hardest 28921
pending 28915
fragments 28912
varies 28909
doc 28905
acetate 28904
halfway 28902
side@@ 28884
drawings 28878
é@@ 28872
hotline 28871
canceled 28866
blan@@ 28863
interactions 28855
spr@@ 28852
justin 28847
derivative 28838
deemed 28836
cun@@ 28834
ihave@@ 28831
shop@@ 28825
less@@ 28821
cables 28818
symbolic 28812
glow 28806
spectacular 28798
hydrochloride 28793
labels 28784
heroic 28783
enrich 28773
eg 28746
pentagon 28744
butt 28738
tious 28738
lau@@ 28737
spraying 28736
encouragement 28733
ordin@@ 28733
depreciation 28725
quarterly 28722
manifestation 28716
resign 28707
qr 28705
owing 28701
spa@@ 28701
politician 28695
ffs 28694
methodology 28693
chloe 28692
scri@@ 28691
tolerant 28689
sequences 28687
vienna 28687
monument 28664
superiority 28664
rust 28659
tar 28658
pes@@ 28655
fishery 28654
counts 28643
dead@@ 28641
clustering 28638
ferro@@ 28629
societies 28625
analog 28624
dietary 28624
aroused 28623
decoction 28621
dividends 28617
complaining 28611
editorial 28610
surveys 28599
grapes 28596
coarse 28593
15.@@ 28582
harmon@@ 28582
vest 28582
skeleton 28581
ud 28580
edges 28571
cans 28555
sth 28555
beasts 28551
ony 28551
hydrocarbon 28546
transforming 28546
dog@@ 28534
volleyball 28534
md 28528
wait@@ 28527
angela 28519
cour@@ 28517
retro@@ 28517
ike 28514
intervene 28511
parliamentary 28505
accidental 28503
blue@@ 28496
beth 28493
posing 28493
fier 28487
preferences 28483
poisonous 28478
tcm 28468
easing 28462
gaining 28462
ious 28462
dumped 28460
iced 28455
thereis@@ 28451
neur@@ 28448
optim@@ 28448
vaccines 28442
houston 28441
explosives 28428
haha 28428
masks 28421
donors 28419
dled 28417
faculty 28414
bud@@ 28407
classics 28404
xinxin 28403
parker 28383
kerry 28382
frames 28381
hobby 28379
scopy 28379
shrine 28378
travelers 28377
0.01 28368
html 28366
microbial 28366
wal 28366
rigorous 28358
opathy 28354
renxing 28349
restraint 28349
pumps 28348
sightseeing 28347
sticking 28347
oak 28344
pad@@ 28341
energetic 28340
renowned 28337
russians 28337
001 28317
avi@@ 28313
neutr@@ 28312
arian 28303
dramas 28298
jinshan 28293
norway 28292
town@@ 28289
aring 28283
brun@@ 28280
venezuela 28280
accent 28270
cola 28264
brightness 28258
philadelphia 28253
vor@@ 28251
servo 28239
celebrated 28237
research@@ 28232
jiaxing 28230
fus@@ 28229
definite 28227
explaining 28223
chai 28222
sat@@ 28222
schema 28222
correlated 28219
eman 28215
spends 28215
convicted 28214
fixing 28212
teenager 28210
citic 28206
yourselves 28202
give@@ 28199
shipments 28198
chromium 28197
gger 28193
rep@@ 28192
isi@@ 28182
conspiracy 28180
yul@@ 28180
ae@@ 28179
enzymes 28178
safeguarding 28173
ences 28169
saves 28167
municipalities 28166
ordinance 28166
concentrations 28164
metropolitan 28163
con 28162
sensation 28155
cited 28153
ree 28153
researched 28141
outs 28131
fractal 28124
kyle 28123
sec 28123
xy 28111
goddamn 28110
tta 28108
linda 28107
thisis 28104
antique 28098
bangkok 28097
public@@ 28097
stresses 28095
dation 28087
publications 28067
revol@@ 28063
restart 28060
patriotic 28059
geology 28057
adjustable 28047
cheated 28046
sci@@ 28043
julia 28041
nigeria 28041
tuning 28033
nitro@@ 28030
liner 28027
transmit 28021
unconscious 28015
{ 28012
asse@@ 28010
breakthroughs 28008
tectonic 28007
metaphor 28004
delhi 28002
inclusion 28000
neat 28000
davis 27997
jiale 27997
1988 27994
envy 27988
skiing 27976
iwas@@ 27956
explicit 27948
phon@@ 27936
bricks 27934
nm 27921
ection 27920
thanked 27919
vortex 27914
introduc@@ 27912
dium 27910
hurting 27910
briefing 27903
alis 27900
locomotive 27898
abby 27896
strang@@ 27892
loser 27885
sensory 27885
inequality 27879
sixty 27879
alcoholic 27878
epoxy 27876
mis 27876
frustrated 27869
reunion 27864
ais@@ 27863
feel@@ 27862
copied 27861
commu@@ 27860
sorting 27860
malaria 27856
unilateral 27852
kas@@ 27849
licensing 27848
placing 27844
inger 27840
resection 27840
fluor@@ 27837
formerly 27830
psych@@ 27816
api 27812
intensified 27811
ectomy 27806
manpower 27795
varied 27786
veterinary 27785
senses 27783
dvd 27780
pollen 27778
lei@@ 27775
sinopec 27774
modal 27772
minus 27770
sed@@ 27770
door@@ 27767
constitutes 27757
dive 27756
ammonium 27754
persi@@ 27754
etiquette 27753
kissing 27753
lattice 27752
hydroxy@@ 27745
fond 27741
petrochemical 27738
ischemic 27737
gur@@ 27735
lowering 27728
owen 27726
interfaces 27723
presidents 27722
columbia 27719
gc 27714
intern 27712
aver@@ 27709
contracted 27709
spacious 27706
databases 27705
medals 27705
plasty 27701
swan 27691
uterine 27691
entropy 27686
batches 27683
ght@@ 27671
minsheng 27669
buff@@ 27662
icular 27657
uneven 27651
metho@@ 27645
stain 27641
gold@@ 27629
retire 27629
mushroom 27627
ogen 27623
benjamin 27618
idon't@@ 27617
sewing 27616
tc 27615
ensures 27611
itor 27608
paper@@ 27605
damping 27600
undermine 27600
theoretically 27596
diffraction 27594
arity 27593
ws@@ 27591
gers 27585
cyclo@@ 27584
zou 27581
surprises 27577
chiang 27568
ith@@ 27568
milit@@ 27566
sla@@ 27562
ifeng 27557
excluding 27550
ican 27546
habitat 27540
pyongyang 27540
study@@ 27519
iso 27518
mosquito 27514
dex@@ 27513
burg 27506
operates 27501
digestion 27499
metabolic 27498
subjected 27498
bro 27490
elect 27485
ential 27484
101 27478
secretion 27474
puppy 27473
stern 27473
tionof@@ 27473
i'@@ 27472
chem@@ 27470
iv@@ 27463
millennium 27461
weaving 27458
xiaob@@ 27455
kong@@ 27441
phases 27439
dresses 27437
paren@@ 27434
br 27433
durable 27432
xinyi 27428
10,@@ 27425
graphite 27425
wid@@ 27423
flip 27422
friend@@ 27422
pear 27420
leaked 27415
purse 27413
dai@@ 27406
challenged 27398
kid@@ 27389
femoral 27387
disappointment 27385
messenger 27380
chap@@ 27379
undertaken 27378
calmly 27376
raining 27372
coherent 27371
alignment 27368
seri@@ 27362
endure 27361
cortex 27358
nam@@ 27358
upside 27355
hint 27351
inci@@ 27349
ved@@ 27347
ground@@ 27346
vip 27344
imbalance 27338
locally 27336
casing 27323
salesman 27321
dream@@ 27317
implantation 27310
objection 27307
cl 27303
coagulation 27301
viol@@ 27300
grip 27298
electrochemical 27294
selec@@ 27287
das@@ 27286
dissi@@ 27285
privilege 27274
traditionally 27269
vers@@ 27269
ight 27268
protects 27266
rence 27264
shrinking 27259
16.@@ 27256
carrie 27254
deterioration 27249
altogether 27242
morphological 27241
carol 27240
hose 27239
prevents 27237
wonton 27237
symposium 27235
kay 27231
pati@@ 27231
spac@@ 27231
meditation 27225
foot@@ 27205
recurrence 27201
lakers 27199
bile 27198
nec@@ 27197
caus@@ 27195
through@@ 27193
doctrine 27191
cos 27190
ilan 27190
incorporated 27181
lun 27181
tance 27180
destined 27178
lid 27178
yis@@ 27177
× 27177
extracting 27176
hus@@ 27171
compassion 27168
hl 27168
waved 27167
hualian 27165
● 27160
favourite 27148
angel@@ 27147
ignorance 27147
ld@@ 27147
belonged 27141
rot 27137
venus 27134
awa 27126
ec 27124
helmet 27122
appreciated 27105
courier 27102
disagree 27100
fibre 27099
overview 27098
alli@@ 27096
please@@ 27090
terry 27088
intern@@ 27082
benefited 27077
solemn 27064
sr 27059
consistently 27053
blows 27052
disability 27052
luxurious 27051
atthe@@ 27047
exaggerated 27044
projec@@ 27028
quanzhou 27008
dallas 27006
sinking 27005
builds 27004
centrifugal 27000
ghe@@ 26996
num@@ 26995
lag 26993
merchandise 26993
marxist 26990
humanities 26989
jincheng 26988
nancy 26983
tate 26975
depths 26972
stanley 26971
victor 26971
cheer@@ 26968
jue 26962
aded 26961
jam@@ 26959
skating 26959
pub@@ 26957
alter@@ 26948
insider 26935
yn 26934
highlighted 26930
professors 26926
tted 26918
biting 26916
zen 26915
inhibit 26912
quarrel 26911
ples 26904
shifted 26902
segments 26896
belgium 26895
dres@@ 26893
immun@@ 26885
jum@@ 26883
athens 26877
pha@@ 26869
shave 26869
cease 26868
cock 26863
tant 26859
xiangyang 26857
visions 26856
dosage 26855
blin@@ 26854
inten@@ 26854
heal@@ 26853
chapters 26848
possessed 26847
shelves 26847
impedance 26845
massachusetts 26839
michigan 26829
dissolved 26828
specimens 26823
hazards 26822
grandson 26820
portugal 26813
surveyed 26810
preparatory 26809
smarter 26802
astro@@ 26801
dest 26790
toxin 26789
vari@@ 26786
revealing 26784
instructor 26783
hae 26782
itai 26782
chooses 26776
markers 26776
minimal 26776
prostate 26774
taiping 26769
favored 26766
welcomes 26763
he's@@ 26762
architect 26759
sexually 26759
bility 26747
faction 26746
canyon 26743
brac@@ 26734
beg@@ 26733
rob@@ 26731
manor 26715
har 26703
males 26702
quad@@ 26699
textiles 26695
cellulose 26694
libyan 26694
31,@@ 26679
able@@ 26675
itong 26666
ties@@ 26663
zuo@@ 26655
roc@@ 26650
hitler 26648
thre@@ 26639
fuc@@ 26635
habit@@ 26631
inherit 26618
brussels 26613
denmark 26602
quick@@ 26600
desires 26597
ating@@ 26594
ip@@ 26592
fluorescent 26590
recovering 26587
screen@@ 26581
aided 26579
ements 26577
should@@ 26576
platinum 26574
symbol@@ 26574
recorder 26563
solo 26561
ometric 26559
permitted 26558
braking 26548
wil 26543
seldom 26540
child@@ 26536
austria 26535
lated 26534
lightweight 26531
validation 26530
marker 26527
scent 26517
weaken 26509
admits 26503
circum@@ 26501
midea 26497
decom@@ 26491
repayment 26490
turbulent 26489
wat 26488
tely 26487
contracting 26482
sting@@ 26480
buys 26470
mass@@ 26469
qun@@ 26469
ale@@ 26468
appearing 26462
maternity 26462
bass 26461
nei@@ 26461
breakdown 26459
glob@@ 26458
handful 26457
festivals 26454
seals 26450
unification 26450
electoral 26447
sanc@@ 26447
disciplines 26442
uniforms 26440
detroit 26438
set@@ 26437
hats 26435
newborn 26435
cushion 26434
pat 26432
metastasis 26423
viewpoint 26417
corrected 26411
sri 26409
ether 26401
ⅱ 26398
eds 26395
aden@@ 26394
arterial 26387
ulcer 26385
slaughter 26380
font 26378
cir@@ 26377
economically 26376
slurry 26373
orchard 26372
nab@@ 26369
virtually 26367
netease 26365
feared 26362
layered 26359
resolving 26344
datong 26340
biao 26338
streaming 26321
ounding 26318
retaining 26318
gla@@ 26309
defining 26298
marble 26287
organizers 26287
charlotte 26286
chromosome 26282
counsel 26281
persistence 26274
line@@ 26271
seeks 26271
yipin 26271
russell 26269
cycling 26266
oration 26262
ras@@ 26262
ounce 26261
styling 26252
slap 26251
volcano 26249
snakes 26247
execu@@ 26246
lebanon 26246
htc 26244
manipulation 26244
aur@@ 26242
fall@@ 26242
integrates 26232
1.1 26229
zy 26228
contraction 26225
hamas 26223
tours 26222
dancer 26221
kitty 26219
dielectric 26216
escal@@ 26216
fin 26213
bers 26207
inhibitor 26202
enjoyment 26196
dali 26193
qia@@ 26189
yor@@ 26184
inversion 26183
tops 26182
biography 26171
25@@ 26169
exten@@ 26166
sweetie 26164
ithink@@ 26162
liter@@ 26161
distinction 26157
vigorous 26157
indic@@ 26156
modul@@ 26156
laden 26154
recipient 26150
renmin 26148
indigenous 26146
retained 26146
towers 26143
craw@@ 26140
kh@@ 26140
n'@@ 26133
14.@@ 26130
sus 26125
ister 26113
pod 26106
tomatoes 26106
corpse 26100
kinetics 26100
elasticity 26090
pesticides 26087
lon 26083
veterans 26083
chile 26082
globally 26080
cube 26078
rou 26073
explicitly 26072
ump 26072
solves 26066
implements 26065
configure 26058
dominate 26058
ferry 26058
peel 26058
cache 26057
superficial 26054
deposited 26051
reed 26049
airspace 26047
renjia 26047
liaison 26045
notion 26044
earning 26038
ashing 26032
supper 26028
prob@@ 26021
radio@@ 26019
surpassed 26018
desirable 26016
dea 26011
oon 26007
ginseng 26000
elaborate 25990
expenditures 25989
offense 25987
tester 25983
gastro@@ 25978
stry 25977
cere@@ 25972
trailer 25963
voyage 25956
sponsor 25954
keeper 25953
proportional 25937
motivated 25931
impl@@ 25924
xinglong 25924
biomass 25920
intact 25904
airplane 25897
dubai 25897
cui@@ 25893
recombinant 25886
chancellor 25883
esteem 25882
jon@@ 25881
pillars 25880
vill@@ 25878
ough 25876
bel 25874
sensible 25871
aromatic 25870
yonhap 25870
tribunal 25867
lip@@ 25863
yiwu 25860
lia 25849
teddy 25847
divisions 25831
nasty 25821
hostage 25820
sas@@ 25815
collaborative 25814
tionary 25814
nationalities 25813
kazakhstan 25812
dence 25806
guessing 25799
linking 25798
af 25797
clutch 25796
fungi 25791
'e 25790
arizona 25790
chil@@ 25788
inlet 25788
practiced 25784
attracts 25782
usb 25776
albert 25772
epithelial 25766
npc 25764
blossom 25763
norm 25763
streams 25763
onom@@ 25761
melody 25759
step@@ 25759
practically 25758
brain@@ 25757
scar@@ 25756
mahjong 25750
ratings 25750
apartments 25745
connects 25742
relate 25742
youknow@@ 25741
bot 25737
withdrawn 25736
orbital 25732
mean@@ 25731
enclosed 25724
smiles 25720
ovarian 25715
benz@@ 25705
mum@@ 25703
mountainous 25702
leonard 25701
constrained 25699
swine 25697
wong 25696
tie@@ 25694
mistaken 25692
cooler 25689
amen 25685
picnic 25685
cycles 25684
rub 25684
booming 25679
cang 25678
soared 25675
refu@@ 25673
prophet 25668
suites 25667
squid 25664
nanyang 25663
zhangzhou 25661
costumes 25656
ake 25650
parti@@ 25647
fisheries 25642
which@@ 25637
ationof 25636
devi@@ 25631
mark@@ 25631
aa 25629
predicting 25629
pee 25627
shantou 25626
inconsistent 25624
lochus 25622
armored 25620
dim 25615
contra@@ 25613
exhibitions 25613
confined 25605
accompanying 25601
cooper 25601
predic@@ 25592
algae 25590
andong 25590
forgiveness 25590
eo@@ 25583
reforming 25583
ated@@ 25582
ret 25574
macroeconomic 25571
tracked 25571
ark 25564
endangered 25562
wl 25559
north@@ 25558
philip 25557
ministerial 25555
ousness 25553
satisfying 25550
atro@@ 25549
elites 25544
eyebrows 25543
practic@@ 25543
abe@@ 25541
capit@@ 25539
arthritis 25532
stark 25529
baby@@ 25526
orient 25525
rupture 25520
backing 25515
infiltration 25510
hosts 25509
cared 25507
footage 25500
tattoo 25500
catherine 25493
testify 25489
lacquer 25483
inations 25478
ripe 25477
squeezed 25475
righteous 25469
unt 25467
verbal 25465
crum@@ 25454
nationals 25448
tothe 25448
hull 25444
glycer@@ 25438
ener@@ 25437
circul@@ 25436
discounts 25435
recommends 25433
interpersonal 25431
■ 25431
phi@@ 25423
knives 25421
origin@@ 25421
reorganization 25419
quartz 25418
kee 25412
kinda 25405
nes 25404
stom@@ 25402
rocky 25399
complimentary 25398
huayuan 25393
fix@@ 25391
harassment 25389
1,500 25380
bea@@ 25374
antian 25367
yep 25362
amateur 25359
fts 25359
stationary 25359
tool@@ 25345
lavipeditum 25344
aming 25339
kam@@ 25333
escent 25330
arians 25329
seated 25324
inviting 25317
phosp@@ 25305
ignoring 25304
pennsylvania 25304
postponed 25303
communicating 25297
stiff 25295
cand@@ 25289
copying 25289
yale 25283
surveying 25279
dang 25275
rifle 25272
hath 25269
sag@@ 25266
coefficients 25265
manners 25262
belts 25258
insane 25258
swallowed 25255
header 25242
haiti 25238
museums 25237
confess 25235
euro@@ 25235
exporting 25235
handles 25231
contributing 25221
positioned 25220
comb@@ 25216
izu 25216
opposing 25213
regain 25213
tum 25212
yemen 25212
aliens 25207
registry 25207
disturbing 25198
gateway 25196
demonstrators 25189
renting 25186
argues 25181
pei@@ 25181
carcin@@ 25180
transi@@ 25179
pvc 25173
negotiated 25172
swim@@ 25171
dop@@ 25170
endurance 25169
spotted 25166
accustomed 25164
ofeng 25162
singular 25160
ned@@ 25158
approximate 25151
melon 25151
clarified 25150
simpl@@ 25149
catalogue 25144
mobilize 25143
groove 25140
rea 25139
abu 25136
saturation 25134
tidal 25134
interconnection 25131
wer@@ 25130
reflections 25122
reservations 25122
whit@@ 25112
beng@@ 25110
stabilized 25109
heart@@ 25104
delegations 25099
loess 25098
greedy 25096
chased 25087
shoots 25086
colon 25083
eclipse 25075
treats 25073
staining 25072
stly 25071
sex@@ 25068
oath 25063
verdict 25060
retrieve 25058
compartment 25047
violet 25036
dissemination 25035
awa@@ 25034
sang@@ 25033
ames 25032
rhetoric 25032
bait 25025
yers 25023
anatomy 25015
drawer 25015
abc@@ 25012
authenticity 25009
lest 25003
clean@@ 24995
microphone 24995
institutes 24994
ppy 24991
silica 24990
diversification 24978
predicts 24974
sliced 24973
hetero@@ 24971
hepat@@ 24970
though@@ 24970
sic@@ 24969
variance 24969
salmon 24964
breaker 24963
emia 24961
ification 24960
bohai 24959
tment 24958
infusion 24950
aps 24945
flag@@ 24945
ib@@ 24945
antibodies 24943
posi@@ 24942
nes@@ 24934
tina 24932
lewis 24929
resumed 24926
ogen@@ 24921
ima 24919
dap@@ 24918
deceived 24917
before@@ 24916
incision 24913
predecessor 24907
sedan 24907
audiences 24905
ital 24903
hierarchical 24899
successor 24898
lymph 24890
fav@@ 24889
naughty 24886
xiaom@@ 24886
tial 24876
their@@ 24875
shaoxing 24868
enabling 24865
relied 24854
blindly 24845
polyurethane 24845
volumes 24843
plague 24839
traveler 24837
volvo 24835
mel 24826
molly 24824
neo@@ 24820
lyrics 24815
vent@@ 24814
rebels 24804
stag@@ 24804
cppcc 24802
really@@ 24802
boil 24799
pupils 24799
evenly 24797
hing 24793
zao 24792
stereo@@ 24789
timer 24785
appropriately 24784
multipl@@ 24783
internationalization 24781
ozone 24778
inverter 24772
stochastic 24772
simul@@ 24770
ado 24769
vanke 24769
hem 24768
implicit 24768
cereal 24762
incoming 24760
jiachong 24758
try@@ 24758
veins 24757
overweight 24756
roadside 24756
coordinating 24752
ental 24748
sci 24743
clar@@ 24742
conversations 24738
last@@ 24736
kidnapping 24735
scorpion 24735
aria 24733
mailbox 24731
persist 24728
traced 24727
dared 24725
provi@@ 24725
functionality 24724
convincing 24723
nitrate 24721
southwestern 24721
tightening 24721
unpredictable 24718
sinus 24714
groom 24705
diversion 24704
welcoming 24699
brass 24694
homicide 24694
liuzhou 24694
innov@@ 24688
knitting 24686
iodine 24685
therefore@@ 24682
headlines 24677
world@@ 24668
eri@@ 24667
pronunciation 24667
itan 24666
thoughtful 24665
roommate 24662
islam 24660
lene 24657
viable 24657
mechan@@ 24649
richer 24646
generic 24641
quotation 24639
suited 24637
soo@@ 24632
ption 24626
whis@@ 24626
aqueous 24623
uded 24621
eyed 24617
factor@@ 24616
bank@@ 24615
extends 24615
kaohsiung 24612
scarce 24608
18.@@ 24604
there's@@ 24603
plum 24601
vulnerability 24599
musicians 24598
dings 24596
educate 24595
inject 24590
prin@@ 24589
stabilization 24586
elevated 24585
hosting 24582
nomination 24579
impacts 24576
feudal 24573
vy 24567
chlorine 24561
peacekeeping 24561
doctoral 24559
weifang 24555
acrylic 24551
drip 24551
czech 24548
county@@ 24546
pack@@ 24544
mut@@ 24542
exert 24541
assessed 24536
scarf 24536
consolidated 24534
gaps 24532
marginal 24522
rad@@ 24521
tore 24520
shifts 24516
slammed 24514
arithmetic 24512
matthew 24511
unpleasant 24511
haircut 24507
genetically 24506
60,000 24505
followers 24505
annex 24502
jen@@ 24502
tolerate 24501
ifang 24498
technicians 24495
expedition 24494
rit@@ 24491
browse 24490
dable 24487
nominated 24480
optimism 24479
sedimentary 24479
xinyu 24474
moc@@ 24471
analyse 24466
supermarkets 24465
afp 24464
typ@@ 24464
30,@@ 24463
fish@@ 24460
sausage 24460
sued 24460
referee 24457
appeals 24454
hei@@ 24453
stabbed 24453
versus 24453
ural 24452
bal 24448
huat@@ 24442
unbelievable 24438
homogeneous 24433
sel 24433
slu@@ 24433
chim@@ 24432
aroma 24429
anno@@ 24416
dont 24415
evacuation 24415
1987 24414
nephew 24411
bie 24408
jol@@ 24406
kra@@ 24403
sac@@ 24401
nig@@ 24400
ira 24399
accessory 24394
wrong@@ 24389
dow 24387
unacceptable 24385
alaska 24382
functioning 24378
renewed 24378
vegetarian 24378
apologized 24373
julie 24373
weed 24372
collections 24369
cheerful 24367
rents 24365
hike 24363
stealth 24362
plaintiff 24356
whistle 24353
bosses 24349
performs 24347
crystallization 24337
dys@@ 24336
pis@@ 24335
ora 24331
polar@@ 24330
5.5 24328
onia 24324
shap@@ 24319
1985 24316
celestial 24316
bracelet 24314
anya 24312
resting 24310
betrayed 24306
brics 24296
methyl@@ 24294
vo 24294
merry 24291
reuse 24289
olig@@ 24286
pathway 24286
buck 24283
middle@@ 24283
urumqi 24281
creator 24280
ould 24278
mim@@ 24277
bugs 24273
vis 24264
auditing 24260
scopic 24258
slender 24253
enriched 24249
absurd 24246
resettlement 24244
tren@@ 24243
uh@@ 24243
instructed 24240
igh@@ 24237
iterative 24237
courtesy 24234
wri@@ 24234
used@@ 24229
oliver 24228
consequence 24225
1986 24224
edema 24221
zhe@@ 24221
vaccination 24220
meanings 24219
conjunction 24217
interpolation 24217
ress 24215
jur@@ 24207
ornaments 24206
depen@@ 24196
grating 24194
smoked 24192
pseudonym 24190
pirates 24187
messaging 24184
news@@ 24183
allen 24182
controllable 24182
defender 24180
emphasizing 24177
15,@@ 24170
lantern 24167
12,@@ 24166
brokers 24162
flue 24161
sensi@@ 24160
accord 24156
capsules 24152
upright 24147
dissolution 24145
taxpayers 24144
camping 24139
mushrooms 24138
flags 24136
aperture 24128
sings 24123
reliance 24121
wired 24115
miniature 24114
stylish 24113
gee 24112
adaptability 24110
classmate 24108
ignorant 24108
sibility 24108
ek 24107
decay 24105
expresses 24105
bundle 24101
stimulated 24101
marshall 24099
mills 24093
postgraduate 24087
pric@@ 24086
org@@ 24083
grandparents 24081
forma@@ 24080
pep@@ 24079
ligh@@ 24078
fukushima 24075
goodwill 24072
ritual 24072
labeled 24062
yuxi 24059
clu@@ 24056
sales@@ 24056
tus@@ 24053
tram@@ 24051
dominance 24049
jonathan 24043
andre@@ 24040
ille 24038
cut@@ 24035
taoyuan 24035
oceans 24034
jackie 24029
grease 24028
formats 24027
poles 24023
statutory 24021
suppressed 24021
proxy 24020
serena 24019
ferrous 24016
refractory 24013
deserved 24010
stasis 24005
fuyang 24004
premises 24004
attributed 24003
hank 24002
profiles 24002
qingyu 24002
squadron 24002
hewas@@ 24001
colorado 23996
aces 23991
genome 23991
emo@@ 23986
knot 23983
simplicity 23981
alia 23968
carlos 23962
foundations 23959
yar@@ 23959
sid 23957
jiabao 23955
sickness 23955
salaries 23949
foun@@ 23944
ase@@ 23942
spoon 23940
whales 23940
illinois 23937
ator@@ 23929
hackers 23929
supervisors 23921
dragons 23920
we're@@ 23920
fibro@@ 23918
feathers 23909
differ 23905
iner 23905
transmitter 23905
fitted 23904
hongda 23904
model@@ 23903
wicked 23903
deduction 23901
provident 23897
sars 23894
abo@@ 23893
inadequate 23892
submission 23892
spra@@ 23890
manag@@ 23889
cooperatives 23888
exotic 23885
pancreatic 23876
killers 23869
vicinity 23869
flashed 23860
balancing 23858
rang@@ 23854
seas@@ 23851
bankrupt 23849
olong 23841
tropic 23834
newton 23831
pus 23831
relaxing 23829
ellen 23827
europeans 23825
greeted 23824
wash@@ 23823
termination 23821
distillation 23820
atom@@ 23817
seepage 23817
antibacterial 23815
urgency 23814
equi@@ 23810
sushi 23810
curtains 23807
dged 23804
coronavirus 23801
fis@@ 23797
behold 23795
contamination 23791
secured 23789
warmly 23786
quo@@ 23785
welded 23784
cler@@ 23780
eda 23777
forecasts 23775
illustrate 23771
weld 23769
acked 23768
exhibit 23763
disadvantage 23762
terrifying 23759
travelling 23757
yum@@ 23755
abundance 23754
chinese@@ 23754
continuity 23752
tat@@ 23751
trun@@ 23751
thirsty 23750
elbow 23746
rendering 23746
terr@@ 23741
kunshan 23739
uk@@ 23737
concealed 23733
shocks 23733
sintering 23727
atrial 23725
greet 23725
alling 23719
embarrassment 23717
beta 23714
shiny 23713
righ@@ 23712
tle 23711
yor 23711
modulus 23705
soaring 23701
manually 23700
tyou@@ 23700
vec@@ 23699
continu@@ 23697
conceptual 23696
farm@@ 23694
lion@@ 23693
liabilities 23691
disinfection 23690
photovoltaic 23688
striving 23687
tp 23680
foo@@ 23675
cairo 23673
elephants 23668
rim 23663
hottest 23662
replication 23657
ticism 23657
worms 23651
allied 23645
fridge 23641
note@@ 23640
arc@@ 23632
denver 23632
indifferent 23630
intuitive 23628
muc@@ 23624
footsteps 23609
dof@@ 23603
bb 23587
developmental 23587
mad@@ 23583
competitor 23578
nap 23578
sticky 23577
usher 23576
stru@@ 23574
intim@@ 23572
stric@@ 23571
gene@@ 23570
qingyuan 23568
cpu 23562
yangguang 23561
blackberry 23554
descendants 23554
individu@@ 23553
ist@@ 23552
amin@@ 23548
greg 23541
natur@@ 23536
reiterated 23533
undergo 23530
timber 23527
photographic 23521
careers 23519
hn 23518
mccain 23515
20,@@ 23511
condolences 23509
jiat@@ 23506
tasty 23504
qaeda 23498
candles 23497
vomiting 23496
sors 23487
crowds 23483
spouse 23480
ambitions 23472
oppo 23467
pg 23467
lla 23462
midst 23462
zy@@ 23460
bind 23453
conform 23452
finland 23451
tyler 23451
mah@@ 23450
shorten 23448
expired 23440
dazhong 23438
baker 23435
masterpiece 23435
assign 23434
linguistic 23426
creditors 23424
transferring 23424
nathan 23422
heavier 23421
jaw 23421
organizer 23415
bloomberg 23413
rejuvenation 23408
bau@@ 23404
ebola 23404
irs 23404
doc@@ 23402
ind 23401
orchestra 23400
landmark 23399
believing 23398
ffed 23395
addressing 23385
pao 23385
upgrades 23382
digit 23376
gi 23376
huaxia 23374
jinjiang 23370
connector 23368
warranty 23368
spill 23365
ank 23364
three@@ 23361
hemisphere 23357
concessions 23355
humanistic 23355
prejudice 23345
crust 23342
maggie 23342
pam@@ 23342
angular 23338
dor 23338
surroundings 23338
small@@ 23336
burial 23332
differentiated 23329
celebrating 23328
excluded 23328
pots 23321
brutal 23319
disposable 23318
sharks 23317
rib 23310
silicone 23310
didi 23309
tutor 23307
recurrent 23306
females 23304
nad@@ 23304
debugging 23302
bark 23299
biased 23296
dysfunction 23293
hail 23288
manuscript 23283
imag@@ 23282
manifestations 23274
nominal 23268
holmes 23266
gaming 23265
approximation 23262
vul@@ 23262
cuban 23260
bulb 23256
chur@@ 23256
discomfort 23256
yancheng 23255
tooth@@ 23233
microscopic 23230
pv 23222
forensic 23215
quin@@ 23213
contrac@@ 23210
miners 23205
righteousness 23205
caution 23203
hurried 23201
toronto 23195
dt 23194
7.5 23191
permits 23191
neglected 23182
violating 23182
stretching 23174
uro@@ 23162
fittings 23161
portuguese 23160
jesse 23157
christians 23155
bacterium 23152
blending 23151
bangladesh 23148
ancestor 23139
iler 23138
creep 23137
harris 23137
avian 23135
simpler 23135
kao 23134
parcel 23131
catalysts 23130
chat@@ 23129
tioning 23124
wholly 23122
ori 23121
clam@@ 23119
diana 23113
pris@@ 23107
scissors 23105
beats 23104
cles 23102
zemin 23101
burger 23095
wayne 23094
compares 23092
releases 23087
northwestern 23085
massacre 23084
bluetooth 23083
salvation 23082
ode 23081
pathology 23081
diplomats 23078
pang 23078
master@@ 23075
congressional 23073
eldest 23063
guangming 23061
configured 23060
pes 23059
too@@ 23059
hy 23058
immersed 23057
protocols 23056
requesting 23050
never@@ 23049
orn 23048
arsenic 23046
exemption 23042
honorary 23035
ps@@ 23031
coaches 23026
splitting 23026
monsters 23025
tification 23022
soils 23017
generates 23013
brad 23012
deciding 23007
stanford 23005
criticize 23001
oni 23001
jiab@@ 23000
fif@@ 22997
longevity 22990
pet@@ 22986
dest@@ 22985
tianhe 22985
camel 22983
vine 22982
meaningless 22981
store@@ 22980
wonders 22977
wth 22976
fuckin 22975
mastered 22972
tte 22971
11,@@ 22970
cosmic 22967
researching 22962
thoracic 22958
ethyl 22954
att 22946
zhiyuan 22945
suc@@ 22944
peg 22943
rubbish 22942
vd 22941
tose 22932
anthony 22926
costly 22926
1.7 22925
hay@@ 22925
inging 22925
damaging 22923
verbs 22922
wanjia 22922
ques 22921
tok@@ 22911
wns 22910
ocy@@ 22905
thereof 22902
tain 22898
underneath 22892
integer 22887
origins 22887
journals 22885
tracing 22885
swift 22879
thorn 22874
reduc@@ 22871
josh 22870
computational 22866
eco@@ 22866
leaching 22866
nings 22865
mas 22862
smog 22862
enforce 22860
franklin 22857
fetus 22855
edi@@ 22850
equipments 22846
oled 22845
3000 22844
antioxidant 22840
celsius 22831
conviction 22831
450 22829
acies 22826
greed 22826
illary 22826
emails 22825
compass 22820
ova 22814
vable 22809
substantially 22807
aboard 22804
tism 22804
exclusively 22802
discrimin@@ 22801
cris@@ 22800
informa@@ 22796
circumstance 22794
tothe@@ 22794
intangible 22787
pumpkin 22786
cloudy 22785
dalai 22785
tess 22785
disturb 22783
evapor@@ 22782
fore 22782
6.5 22778
temples 22766
coff@@ 22765
metropolis 22762
insult 22759
finances 22757
reno@@ 22757
backwards 22754
stenosis 22754
idity 22749
sprin@@ 22748
ln 22745
activists 22743
indirectly 22743
dim@@ 22739
enhances 22731
changjiang 22727
priests 22727
acknowledge 22717
championships 22714
alzheimer 22711
charcoal 22711
poisoned 22709
overwhelmed 22706
1984 22696
don'@@ 22694
rebel 22692
milestone 22686
aquarium 22683
chick 22677
accepts 22673
clearer 22673
pom@@ 22673
fabrication 22672
wy@@ 22670
ures 22667
mounting 22662
settlements 22659
daw@@ 22658
iot 22658
prizes 22655
'ao 22653
erie 22653
taxis 22652
featured 22651
franchise 22651
dwarf 22649
explo@@ 22649
commissioned 22645
interfer@@ 22644
thecom@@ 22643
huimin 22636
examining 22632
invaded 22630
ket@@ 22626
reason@@ 22621
flav@@ 22620
sms 22619
alongside 22610
poetic 22608
commemorate 22603
penis 22602
mess@@ 22601
stare 22600
issu@@ 22599
wifi 22598
flora 22592
28@@ 22591
attendant 22587
spreads 22585
analyzer 22581
chatting 22575
beijing@@ 22570
wha 22569
biopsy 22568
1979 22567
beaches 22565
icle 22562
zhongyuan 22559
fines 22553
threads 22553
ballet 22551
harbour 22542
gut 22541
nursery 22541
stunning 22541
ret@@ 22538
ply 22537
zo 22537
lay@@ 22535
phrases 22532
fortunate 22530
perceived 22530
similarities 22529
expan@@ 22525
annually 22524
entation 22524
asser@@ 22523
catheter 22522
derek 22521
franchisee 22520
prestressed 22515
scrap 22515
soaked 22514
hydrolysis 22510
suburb 22509
licensed 22508
radiotherapy 22505
atively 22504
ribbon 22503
scan@@ 22503
remembers 22502
alternate 22496
brakes 22496
fountain 22496
diver@@ 22494
tighten 22494
fluids 22490
glyco@@ 22489
olym@@ 22489
wales 22489
wall@@ 22485
inspiring 22484
breasts 22483
convex 22482
coup 22480
kowloon 22477
regrets 22473
jinyuan 22472
nanhai 22467
peace@@ 22467
baghdad 22465
fabricated 22463
sighed 22463
ians 22455
elevation 22447
sad@@ 22447
alg@@ 22445
dant 22442
weights 22439
verb 22437
attendance 22435
tated 22435
retrospectively 22431
intro@@ 22427
bby 22424
rotate 22424
remo@@ 22423
messy 22421
weaknesses 22417
dine 22416
evi@@ 22416
smash 22416
icul@@ 22415
accession 22414
ologically 22412
prevalence 22412
fucked 22410
capitalist 22408
jor@@ 22407
specimen 22407
24@@ 22401
rna 22401
second@@ 22400
international@@ 22389
expounded 22384
mmm 22384
shor@@ 22383
crises 22380
landslide 22378
pointer 22376
mem@@ 22375
story@@ 22374
swap 22372
tuous 22370
chitosan 22369
rc 22363
seawater 22358
aph@@ 22354
cole 22352
confucianism 22351
depos@@ 22341
ual 22340
stained 22339
eld 22338
convertible 22337
thatthe 22335
deepest 22334
jeremy 22331
brewing 22328
ited 22328
wra@@ 22328
acknowle@@ 22325
wonder@@ 22324
rookie 22318
organisation 22315
heis@@ 22307
uav 22307
tags 22304
anticipated 22303
publisher 22302
instinct 22301
enrichment 22296
auspicious 22295
deta@@ 22290
frustration 22290
muscular 22281
constitu@@ 22279
iously 22279
smes 22277
tribes 22274
class@@ 22273
pb 22269
pissed 22267
formulas 22265
packets 22265
cheek 22260
manages 22255
pause 22254
those@@ 22253
displaced 22251
nis@@ 22251
arising 22249
extinction 22249
apolog@@ 22243
cess@@ 22242
literacy 22236
plum@@ 22236
oud 22230
halls 22229
census 22227
analysis@@ 22220
iers 22220
digit@@ 22216
stool 22216
fights 22213
confucian 22212
socket 22210
dough 22205
raid 22205
artifacts 22204
fungus 22203
wea@@ 22202
evaporation 22195
baoding 22193
simplify 22184
occurring 22182
mortar 22180
aggregation 22175
expres@@ 22175
ingredient 22174
tre 22171
trustworthy 22170
insur@@ 22159
modular 22159
variations 22159
shrinkage 22157
reversal 22156
alex@@ 22154
rebecca 22151
switches 22151
perseverance 22145
delighted 22144
izhong 22144
nickname 22144
utilized 22143
katie 22142
john@@ 22141
coconut 22138
neutron 22138
incomes 22134
hips 22133
xinxing 22133
lation 22127
moonlight 22125
combinations 22122
hinder 22121
125 22115
kle@@ 22114
allegedly 22113
capacitor 22112
idon 22112
antong 22111
retinal 22109
23@@ 22105
guarded 22101
shooter 22097
vered 22085
uring 22081
shuo 22080
intestine 22074
ots 22072
ech 22071
onset 22068
labs 22066
ev 22064
magni@@ 22062
0.2 22060
entries 22057
lijiang 22055
doyou 22051
establishes 22051
tvs 22051
aero@@ 22047
crypto@@ 22045
pardon 22043
kite 22042
merged 22041
sca@@ 22040
tonic 22038
somalia 22037
cem@@ 22036
brow@@ 22034
token 22026
nucle@@ 22023
pathetic 22016
ventures 22015
force@@ 22014
oling 22014
liter 22012
tails 22009
collateral 22003
ifi@@ 21994
asha 21993
forged 21989
nel 21988
thes 21987
explode 21984
localities 21983
coffin 21982
berries 21981
chow 21976
dling 21974
recycled 21970
redemption 21968
sem 21965
charts 21964
hobbies 21964
pudding 21962
housework 21958
testi@@ 21958
alities 21956
comprehen@@ 21955
badminton 21954
quest 21953
heel 21949
locker 21946
amber 21943
persuaded 21943
consultants 21938
refusal 21935
27@@ 21934
exercising 21934
jamie 21934
spring@@ 21933
coli 21928
chinanews 21927
'm@@ 21922
ampl@@ 21920
dl 21920
stum@@ 21917
easter 21913
dennis 21912
pler 21911
para@@ 21910
lav@@ 21908
ring@@ 21903
ute 21901
motives 21896
extremist 21895
ato@@ 21887
explorer 21885
wers 21882
went@@ 21881
digest 21880
tales 21879
promotional 21878
median 21869
permanently 21869
ghts 21862
faw 21861
tubular 21860
blades 21858
intravenous 21857
ingthe@@ 21856
attempting 21854
sketch 21854
committing 21853
comb 21848
patiently 21846
patri@@ 21845
electrophoresis 21844
bitcoin 21843
put@@ 21838
filial 21834
pling 21834
kles 21833
outsourcing 21830
1930 21827
bomber 21826
myel@@ 21826
bald 21825
admissions 21822
ishu 21822
pottery 21815
stereo 21815
pledged 21813
baiyun 21810
enrolled 21808
doped 21805
wih 21804
highways 21794
hostages 21793
starbucks 21793
distribu@@ 21792
anshan 21791
musk 21780
objectively 21778
itable 21777
、 21777
nanny 21775
imperative 21772
outbound 21772
www 21772
chop@@ 21769
zha 21764
solely 21763
softly 21761
laun@@ 21758
uphold 21757
cheeks 21756
churches 21754
nah 21753
anim@@ 21752
cadmium 21751
bail@@ 21750
linux 21750
continuation 21749
ape 21746
snap 21741
conductive 21740
telegraph 21739
margins 21738
1978 21735
keep@@ 21728
tick 21724
pathogenesis 21720
smen 21714
blessings 21713
itted 21712
prospective 21711
syl@@ 21710
poorly 21707
fade 21703
oscillation 21702
bacter@@ 21701
you're 21700
anderson 21699
upload 21697
0.1 21696
modi@@ 21696
protagonist 21694
max@@ 21690
lar 21689
uo@@ 21688
confi@@ 21682
strips 21681
badge 21678
conveyor 21678
mucosa 21678
trivial 21678
methanol 21674
beads 21671
outfit 21670
demons 21657
peti@@ 21657
hongyuan 21654
singers 21653
weakening 21652
ddy 21650
sadly 21643
dele@@ 21642
eva 21636
2.4 21635
aly 21635
sank 21634
rail@@ 21622
osaka 21620
fraudulent 21619
xingfu 21619
ail 21618
anta 21611
wag@@ 21611
dentist 21599
wec@@ 21590
drums 21588
aiib 21586
bear@@ 21586
jiach@@ 21584
conformity 21583
asymmetric 21582
lanc@@ 21581
journalism 21568
touches 21568
definitions 21565
reperfusion 21561
tof 21561
enthusiasts 21559
jessica 21559
heter@@ 21551
bauer 21549
firefighters 21543
jupiter 21543
poker 21543
disputed 21541
hongyun 21533
keyword 21533
desperately 21532
denti@@ 21530
chers 21529
splendid 21525
dus 21524
marital 21524
physiology 21520
visi@@ 21518
cros@@ 21517
yama@@ 21516
tb 21512
hiking 21507
fly@@ 21505
greening 21503
musician 21502
lawmakers 21497
lie@@ 21496
pensions 21495
hara 21494
special@@ 21493
mons 21492
recognizing 21490
asynchronous 21488
begging 21484
stab@@ 21484
shh 21483
tub 21483
rais@@ 21476
beautifully 21474
cocktail 21471
gal 21467
cheers 21465
abor@@ 21460
dis 21460
thispaper@@ 21453
cult 21450
embroidery 21450
intrinsic 21449
reck@@ 21449
mps 21445
carbide 21443
biotechnology 21439
hospitality 21438
adhering 21437
fum@@ 21436
repairs 21432
graceful 21427
casey 21425
danced 21420
swollen 21420
trum@@ 21416
sna@@ 21412
lead@@ 21410
monks 21408
slavery 21404
fingerprints 21402
haz@@ 21402
covenant 21399
odor 21398
polishing 21396
honeymoon 21394
widow 21393
sulfide 21389
sal 21388
chassis 21384
employ 21376
gru@@ 21374
hers 21374
monitors 21370
ducks 21369
ius 21366
urs 21361
devastating 21358
exhibited 21357
straits 21350
anemia 21349
fascinated 21347
vely 21344
polysaccharide 21341
careless 21335
counselor 21335
dles 21335
assemble 21334
gad@@ 21328
malls 21328
that's 21328
provisional 21327
harvey 21326
agre@@ 21325
roo@@ 21324
rotten 21320
biden 21318
conditional 21317
prom 21314
carotid 21312
gospel 21311
mba 21311
visas 21310
iam@@ 21308
refuses 21306
disappointing 21302
marie 21301
heterogeneous 21295
jennifer 21295
slices 21287
insi@@ 21283
moon@@ 21280
19.@@ 21275
dongsheng 21274
wright 21274
infring@@ 21269
inhibitory 21269
precipit@@ 21269
correspondence 21266
fuse 21266
brooklyn 21265
pools 21262
nw 21261
scottish 21259
disrup@@ 21256
swi@@ 21252
ati 21251
omy@@ 21247
ration 21247
snowden 21244
supervised 21236
dissertation 21233
seventy 21230
electrostatic 21229
love@@ 21229
furong 21227
violin 21226
iliang 21225
itter 21220
proceeds 21220
purchaser 21220
cnc 21216
excuses 21212
jerk 21211
strawberry 21208
fli@@ 21207
'gou 21204
acon@@ 21204
bottom@@ 21203
generals 21202
kr@@ 21202
pent@@ 21189
fundraising 21184
yushu 21178
accordingtothe@@ 21177
lushan 21176
merits 21171
barry 21168
potent 21168
antarctic 21166
kne@@ 21166
francis 21161
ruby 21160
learners 21159
palestine 21159
onan 21158
sustain 21156
minors 21153
fruitful 21147
margaret 21144
hunters 21143
pos 21134
1982 21133
tung 21133
nazi 21131
martyrs 21130
severity 21128
connectivity 21126
feather 21125
dongcheng 21124
ashley 21120
apollo 21118
blossoms 21116
fertilization 21114
fisherman 21113
puppet 21113
supportive 21113
dum 21109
lier 21108
sarkozy 21108
valu@@ 21108
ailed 21106
kicking 21106
editors 21103
kindly 21103
condensation 21101
fills 21100
storing 21100
headline 21097
expelled 21094
healthier 21092
posting 21092
flor@@ 21091
substitution 21089
harmless 21087
later@@ 21086
earnestly 21084
mig@@ 21083
resisting 21081
allocate 21075
solidarity 21073
nanshan 21069
ouring 21062
straightforward 21061
adsor@@ 21058
opol@@ 21058
transfers 21055
itors 21054
sponge 21053
acetic 21051
accor@@ 21049
hav 21049
uli 21048
keepers 21046
suit@@ 21042
mod@@ 21041
reportedly 21037
toilets 21035
nod@@ 21034
cannon 21032
immigrant 21027
lace 21027
violates 21026
collectively 21024
hazardous 21024
chung 21022
moore 21020
innocence 21019
liyuan 21019
anomaly 21017
sop@@ 21013
autom@@ 21011
spike 21008
verge 21006
hyundai 21005
opo@@ 21002
policymakers 21002
regul@@ 21002
rock@@ 21002
defended 21000
hut 20997
unloading 20996
nitric 20993
hr@@ 20992
ecom@@ 20989
ray@@ 20989
raped 20988
withthe@@ 20987
cep@@ 20980
login 20980
prolonged 20979
sponsors 20979
abyss 20974
rers 20972
rode 20966
lifelong 20963
doses 20962
grasping 20960
calcul@@ 20957
whispered 20954
necrosis 20951
lipstick 20948
regi@@ 20948
grafting 20943
athletic 20941
standby 20941
ln@@ 20937
ested 20936
amide 20932
heroin 20932
wud@@ 20932
disciple 20931
mb@@ 20931
ringing 20929
lenses 20927
coo@@ 20926
umin@@ 20923
weighs 20918
donna 20917
exchanger 20917
transpor@@ 20911
vag@@ 20905
best@@ 20898
forgetting 20898
needles 20896
delegates 20895
sheldon 20895
iq 20892
shepherd 20892
whip 20889
downloaded 20888
unforgettable 20884
discovering 20883
chair@@ 20882
didyou@@ 20881
muff@@ 20881
idu 20879
dging 20878
agen@@ 20876
mosquitoes 20874
article@@ 20872
legends 20869
impress 20867
netcom 20867
underwent 20866
hisense 20865
straigh@@ 20864
health@@ 20861
vity 20858
pretreatment 20857
pyro@@ 20853
tackle 20850
sunrise 20847
dyes 20844
recognizes 20843
plated 20840
germination 20837
watermelon 20837
porter 20836
shorts 20835
strata 20835
phosphor@@ 20832
crisp 20830
incense 20830
fm 20828
qua@@ 20827
alter 20826
bottleneck 20825
indul@@ 20824
hockey 20822
dinosaur 20821
specializes 20816
judgments 20812
neglect 20811
huangshan 20805
tron 20803
weeds 20802
selenium 20801
urea 20800
shortest 20797
commissions 20795
dryer 20792
symmetry 20791
zen@@ 20786
detergent 20784
anyan 20782
rested 20779
numer@@ 20777
pains 20776
liable 20774
subordinate 20771
daqing 20769
delivering 20761
tening 20758
ulate 20756
lineup 20754
bular 20753
sleepy 20753
planar 20751
ilai 20742
doub@@ 20741
sie 20738
glit@@ 20733
squares 20732
abil@@ 20731
seamless 20731
ased 20730
ond 20729
thal@@ 20728
candi@@ 20725
conduction 20723
khan 20723
evergrande 20722
exam@@ 20721
'er 20720
chop 20718
watson 20716
fulfilling 20713
spelling 20713
extracts 20712
lesion 20708
maj@@ 20708
distributing 20706
woo@@ 20706
dani@@ 20703
sacrifices 20703
screamed 20702
damp 20699
outsiders 20697
indu@@ 20694
beverages 20691
ela 20690
perspectives 20687
synthes@@ 20687
analytic 20684
bust 20683
tasted 20682
disappearance 20677
dn@@ 20673
fragment 20666
20.@@ 20661
withdrew 20653
asylum 20647
bon 20647
promulgated 20647
tianyuan 20645
drin@@ 20644
propag@@ 20644
neonatal 20642
occasional 20637
recei@@ 20637
terminate 20637
six@@ 20631
gon 20630
renaissance 20630
railroad 20629
ishui 20628
opec 20624
greeting 20622
regiment 20619
bargaining 20618
dispersed 20614
collec@@ 20607
shoo@@ 20607
nol@@ 20605
physi@@ 20605
saw@@ 20605
ope 20600
visu@@ 20599
electrons 20593
ox 20588
imen 20586
sia 20585
piezoelectric 20583
precautions 20583
15,000 20582
reset 20581
syntax 20581
unqualified 20581
topology 20579
lama 20577
tailor 20575
instances 20574
believe@@ 20573
acity 20569
alcohol@@ 20568
implant 20568
oul@@ 20568
koreans 20567
cheapest 20565
ifyou 20565
gaddafi 20561
whist@@ 20560
extrac@@ 20559
pathogenic 20555
rwanda 20550
rash 20548
standardize 20545
intrac@@ 20542
distorted 20540
coinci@@ 20534
eries 20533
i've@@ 20531
obao 20524
ood@@ 20524
bb@@ 20517
par 20515
sara 20511
joking 20510
lame 20504
alisation 20503
wharf 20503
dispen@@ 20498
snee@@ 20498
dinosaurs 20496
obstruc@@ 20496
adi 20493
destinations 20490
eighty 20489
tribal 20489
bred 20482
adv@@ 20481
stud@@ 20479
flowed 20476
urging 20474
knit 20470
horri@@ 20469
madame 20468
nylon 20465
summed 20464
sorry@@ 20463
successive 20463
cus 20461
ograph@@ 20461
refuge 20457
ounded 20456
screws 20456
dances 20450
rounded 20450
illustrates 20449
justified 20448
seem@@ 20448
colombia 20447
bler 20444
terminated 20443
wuhu 20442
made@@ 20441
span@@ 20431
obese 20429
counterparts 20426
undp 20423
yat 20423
hairy 20422
shir@@ 20421
tianyi 20421
170 20419
2.2 20414
workflow 20413
dsp 20412
wild@@ 20408
ins@@ 20404
babe 20402
credible 20394
colli@@ 20392
embodiment 20392
dizzy 20391
grouting 20391
tit@@ 20388
conclusion@@ 20381
shit@@ 20376
yim@@ 20376
arid 20371
lander 20371
spectrophotometry 20371
repu@@ 20370
orate 20367
asis 20364
shunde 20362
brigh@@ 20360
commanded 20359
murders 20357
circus 20355
nia 20355
thed 20354
decorate 20353
evacuated 20351
campaigns 20346
forthe@@ 20342
lever 20339
appl@@ 20337
ush 20337
wy 20332
rubbing 20328
tpp 20328
accordingto 20327
resul@@ 20326
intentionally 20325
vet 20325
spea@@ 20317
relocation 20310
petition 20309
sucks 20309
termin@@ 20308
hardships 20305
orig@@ 20304
tti 20303
delight 20297
packs 20297
cleansing 20294
zao@@ 20294
gravel 20291
compile 20287
cobalt 20284
zn 20284
xen@@ 20283
nansha 20282
complexes 20281
fluoride 20279
ffle 20276
offspring 20276
appoint 20275
hawk 20275
pancake 20275
transmitting 20274
dand@@ 20271
ul 20269
respon@@ 20263
tical@@ 20263
lear@@ 20261
rip 20261
sigh@@ 20261
grading 20259
easiest 20256
ility 20251
flaws 20242
match@@ 20242
axle 20241
tionof 20241
bam@@ 20240
southeastern 20240
ivory 20238
cathode 20235
lith@@ 20231
lucas 20231
tative 20231
trim 20230
graduating 20229
laz@@ 20228
cycl@@ 20227
hectares 20223
ms. 20221
destroyer 20220
shaken 20219
timetable 20219
healthcare 20217
amp@@ 20209
wehave@@ 20205
sour@@ 20203
jialing 20202
shengli 20202
kingdoms 20200
18,@@ 20196
addicted 20195
greetings 20194
imaginary 20194
brit@@ 20193
noah 20192
scripts 20191
xic@@ 20187
foul 20182
furious 20182
danish 20178
leopard 20175
illustrated 20169
dru@@ 20168
asp 20149
design@@ 20147
ania 20143
blunt 20143
agile 20135
caves 20133
jus@@ 20132
uri 20131
blink 20130
roosevelt 20128
yugoslavia 20127
climax 20120
11.@@ 20119
restrained 20116
translator 20116
neo 20115
qatar 20114
taller 20113
tizing 20112
liya 20106
inity 20104
astronaut 20100
haired 20100
organism 20100
throm@@ 20098
lipo@@ 20097
tour@@ 20097
scor@@ 20094
tidy 20094
ofu 20092
rf 20092
cocoa 20089
tapes 20088
kobe 20085
ucle@@ 20081
dish@@ 20078
cus@@ 20068
permissions 20068
colle@@ 20067
puzzled 20065
treat@@ 20065
assistants 20059
pests 20058
riot 20058
kable 20057
sachs 20056
buds 20054
repl@@ 20054
thinner 20052
sem@@ 20050
clone 20048
astr@@ 20047
canteen 20046
leaning 20045
scroll 20039
distor@@ 20038
planetary 20036
plots 20033
paralysis 20032
mango 20031
singles 20028
yixing 20028
elena 20027
processors 20021
exer@@ 20014
blueprint 20009
cartilage 20009
expiration 20008
rh@@ 20008
relational 20006
tril@@ 20003
unfamiliar 19999
penetrate 19997
hoe 19995
highlighting 19994
today@@ 19992
warmer 19992
rest@@ 19984
custom@@ 19982
blonde 19979
gf 19979
rab@@ 19977
jour@@ 19976
triangular 19972
plex 19971
coats 19968
parametric 19964
tilt 19964
insomnia 19960
stranded 19958
consum@@ 19953
respecting 19953
forums 19952
licence 19952
millet 19949
arthro@@ 19948
teenage 19945
80,000 19941
roar 19939
turbulence 19939
homo@@ 19933
tility 19930
jiaping 19928
shale 19928
microscopy 19925
crow 19921
naive 19916
gardening 19914
pedestrians 19907
pistol 19907
5000 19905
batt@@ 19902
shattered 19902
shes@@ 19896
granite 19892
tton 19885
bells 19884
prece@@ 19883
rebellion 19878
optics 19875
abs 19870
lords 19869
compres@@ 19868
22@@ 19866
wearable 19864
doug 19859
lur@@ 19859
adhered 19857
thered 19855
venice 19853
stating 19851
mingzhu 19843
fluent 19840
sweating 19835
wuchang 19833
shareholding 19832
wear@@ 19829
ral 19827
essly 19819
dark@@ 19815
christianity 19814
geely 19814
offerings 19813
pers@@ 19809
utilizing 19809
coca 19799
logs 19795
outcomes 19795
backyard 19792
infer@@ 19792
isation 19792
uploaded 19792
lanka 19790
continually 19787
16,@@ 19784
mw 19784
sc 19784
pioneering 19781
grounding 19779
deli 19778
industri@@ 19772
father@@ 19766
you'@@ 19763
stic@@ 19761
waking 19757
deduc@@ 19745
ided 19742
touch@@ 19742
chopsticks 19739
medieval 19738
syste@@ 19735
flow@@ 19732
terrace 19727
arrogance 19726
rig@@ 19726
legitimacy 19715
extensively 19709
grounded 19709
reagan 19705
saul 19704
piled 19702
exhibits 19696
compensated 19694
regularity 19692
conve@@ 19688
provoke 19684
drowning 19683
rot@@ 19683
uss 19681
nity 19679
tribu@@ 19679
ured 19678
hungary 19675
hob@@ 19671
bosnia 19668
simplest 19667
ancestral 19666
mint 19665
posters 19665
marrying 19660
incremental 19656
scientifically 19656
tertiary 19654
avoidance 19652
toughness 19651
tari@@ 19646
insights 19645
eller 19644
dragging 19643
ound@@ 19643
flowering 19642
poli@@ 19642
asted 19637
rewarded 19637
backpack 19636
likelihood 19629
separating 19628
sym@@ 19624
refriger@@ 19622
pandas 19618
aba 19617
13,@@ 19615
19,@@ 19615
dislocation 19614
deliberate 19611
madness 19611
aled 19608
tional@@ 19608
infl@@ 19607
idated 19606
vege@@ 19605
remedy 19602
soft@@ 19602
initiate 19601
taihe 19599
onions 19591
gome 19589
cyan@@ 19585
govern@@ 19585
puncture 19585
arduous 19583
graded 19583
http 19583
poo@@ 19583
presided 19581
[...]
